<pad>	0
<unk>	0
<s>	0
</s>	0
ं	-3.13603
▁।	-3.38603
▁	-3.72182
,	-3.95822
:	-4.02611
।	-4.08512
ः	-4.38649
े	-4.51859
म्	-4.6895
ा	-4.79621
स्य	-4.88997
-	-4.89016
्	-5.02099
▁च	-5.04453
▁इति	-5.04993
म	-5.1711
▁"	-5.21496
ि	-5.22392
ो	-5.26882
"	-5.29909
र	-5.40638
▁स	-5.41291
▁न	-5.46715
▁तथा	-5.62366
ानि	-5.64774
ी	-5.68934
▁वयं	-5.69812
त	-5.71991
s	-5.73264
न	-5.75996
▁अपि	-5.7632
▁मध्ये	-5.80376
)	-5.83602
▁इतीदं	-5.88438
स्	-5.98151
ेन	-5.98319
▁भवति	-5.98792
ति	-5.99438
.	-6.00042
य	-6.00915
▁अ	-6.04542
▁(	-6.06527
▁इत्यस्य	-6.07179
ान्	-6.1118
ौ	-6.12066
▁अस्ति	-6.1278
▁एक	-6.14622
क	-6.15866
स	-6.17396
▁को	-6.21821
्य	-6.22122
▁नुदन्तु	-6.2501
▁अत्र	-6.25069
या	-6.26938
व	-6.27375
▁प्रति	-6.29174
प	-6.29983
▁अहं	-6.33909
▁'	-6.356
ाः	-6.35828
▁अधुना	-6.35849
'	-6.41161
न्	-6.43099
ल	-6.43331
पि	-6.43895
ते	-6.49517
ु	-6.50169
द	-6.52067
ेषु	-6.53057
▁इदं	-6.53767
ाय	-6.5377
▁स्व	-6.53955
▁य	-6.55467
▁वर्तते	-6.56797
श	-6.57175
ानां	-6.57971
▁के	-6.58056
▁-	-6.58651
▁तस्य	-6.59749
र्	-6.61193
▁है	-6.62593
▁उपरि	-6.6426
▁किन्तु	-6.64523
▁तत्	-6.65053
▁,	-6.67146
▁करोति	-6.67302
ै	-6.68388
▁त	-6.68487
श्च	-6.68736
?	-6.71732
ता	-6.71774
▁वा	-6.73704
▁कर्तुं	-6.74409
▁सन्ति	-6.74593
’	-6.75459
▁सह	-6.75549
▁क	-6.77456
▁प्र	-6.77713
ञ्च	-6.79522
▁यूय	-6.81206
ात्	-6.83234
▁आ	-6.84287
▁की	-6.8673
ग	-6.88648
▁कुर्वन्तु	-6.89415
▁यदि	-6.89434
न्ति	-6.9003
▁तदा	-6.90152
▁यत्	-6.90162
▁‘	-6.93275
”	-6.93632
▁तर्हि	-6.9599
▁अस्माक	-6.96536
▁मम	-6.96883
थ	-6.97562
▁यथा	-6.98618
च	-6.98668
▁“	-6.98778
▁ते	-6.9929
त्	-7.00483
▁र्	-7.02117
▁से	-7.04344
तः	-7.05065
▁किं	-7.0548
▁औ	-7.066
▁में	-7.06857
e	-7.06891
▁एतत्	-7.08062
▁बाल	-7.08292
ने	-7.08372
ह	-7.08652
ज	-7.08787
यो	-7.08931
▁एव	-7.09731
ing	-7.10025
त्र	-7.10739
ण	-7.11718
▁का	-7.11836
▁सर्व्व	-7.13601
;	-7.14717
तु	-7.1527
▁अतः	-7.15544
▁अस्य	-7.16237
ू	-7.16854
▁इत्यत्र	-7.17181
▁सा	-7.17305
ना	-7.17686
▁पर	-7.1803
ां	-7.18756
मस्ति	-7.2058
न्तु	-7.21036
ेण	-7.21444
क्	-7.22498
ट	-7.23725
▁भवन्तः	-7.23742
▁एत	-7.24334
a	-7.249
ाणि	-7.25229
d	-7.26275
स्त	-7.26827
▁अस्मिन्	-7.26844
t	-7.27888
▁तेषा	-7.28218
वान्	-7.2911
▁नाम	-7.29538
▁तं	-7.29637
▁भवान	-7.29869
मपि	-7.30145
▁चेत्	-7.30174
▁कृत्वा	-7.30542
▁त्व	-7.32125
नि	-7.32476
मध्ये	-7.3284
▁अथवा	-7.33846
▁शक्नुमः	-7.34011
ान	-7.34536
▁|	-7.34604
▁एवं	-7.35194
▁युष्माक	-7.36415
▁C	-7.37196
▁अन्य	-7.37231
▁?	-7.37557
▁वि	-7.37803
▁हे	-7.37861
ल्	-7.38561
भ	-7.38951
▁कुर्मः	-7.38956
▁वयम्	-7.40706
▁मया	-7.4077
▁प	-7.41378
▁तेन	-7.41822
▁भवन्ति	-7.41957
्या	-7.42098
ीय	-7.42825
▁यदा	-7.43844
ब	-7.43945
▁पश्यामः	-7.44052
▁पश्यन्तु	-7.4419
▁द	-7.44661
▁क्लिक्	-7.46314
▁या	-7.46825
▁space	-7.48059
मा	-7.48322
▁टङ्कयन्तु	-7.48842
द्	-7.49376
▁a	-7.49664
o	-7.50034
(	-7.50054
▁इदानीं	-7.50773
▁कृते	-7.50977
▁भवतां	-7.51391
▁यत	-7.51669
▁करोमि	-7.51849
▁नि	-7.52074
ित	-7.52804
नं	-7.53786
er	-7.53865
▁पश्चात्	-7.53865
ध	-7.54476
y	-7.54513
सु	-7.5529
1	-7.55472
▁कथं	-7.55679
▁गत्वा	-7.55876
▁सर्व	-7.56069
▁ग	-7.56398
▁तत्र	-7.56448
भि	-7.56643
c	-7.56819
r	-7.57431
n	-7.57482
l	-7.57547
▁हो	-7.57824
जन	-7.58903
▁पुनः	-7.59436
▁दृश्यते	-7.59962
▁अस्माभिः	-7.60395
▁to	-7.60461
▁भवन्त	-7.60515
▁म	-7.60563
ों	-7.60848
न्त	-7.61009
षु	-7.61043
▁ए	-7.61121
▁वाक्य	-7.62138
▁किञ्च	-7.6216
क्ष	-7.62322
ैः	-7.62388
▁विकल्प	-7.63093
▁मा	-7.63141
▁कथा	-7.64131
▁चिन्वन्तु	-7.64378
▁अधिक	-7.64525
2	-7.65037
p	-7.65458
▁सम	-7.65563
▁कर	-7.65779
▁शक्नोति	-7.66636
▁P	-7.66747
कर	-7.66851
▁S	-7.67363
ऽपि	-7.67906
▁ततः	-7.68191
मेव	-7.68494
ैव	-7.68504
रूपेण	-7.68915
ाद्	-7.69308
ृ	-7.69483
▁विषये	-7.69489
▁इत्येत	-7.70116
▁इत्यस्मै	-7.70379
▁p	-7.70806
▁उपयुज्य	-7.70846
▁व	-7.70895
ष	-7.71416
ed	-7.71424
रि	-7.71782
▁नास्ति	-7.72666
यति	-7.72845
▁ट्युटोरियल्	-7.73629
तया	-7.7399
▁M	-7.7436
and	-7.74611
▁द्रष्टुं	-7.74932
▁प्रथम	-7.74953
नां	-7.75086
प्र	-7.75089
ार्थं	-7.75181
or	-7.75731
ाव	-7.76273
▁श्वास	-7.76612
▁अधः	-7.76806
▁नुदतु	-7.77453
िक	-7.77495
/	-7.77529
,"	-7.77571
▁शक्नुवन्ति	-7.78729
वि	-7.78768
▁अहम्	-7.792
▁श	-7.79627
▁Enter	-7.80078
▁इतीमानि	-7.80207
▁शरीर	-7.80288
▁क्लास्	-7.80403
▁A	-7.80469
▁सञ्चिका	-7.81437
वा	-7.81799
▁चित्र	-7.82017
हे	-7.83487
▁ये	-7.83771
▁युष्मान	-7.84167
▁कि	-7.84679
ए	-7.8477
▁s	-7.86007
सि	-7.86287
▁विद्यमान	-7.86303
त्व	-7.86386
ाणां	-7.86778
▁शक्यते	-7.86788
ड	-7.86819
ामि	-7.87238
▁पाठ	-7.87653
i	-7.8771
▁अभ्यास	-7.8804
काले	-7.88354
▁1	-7.88443
▁अपर	-7.89303
▁उपयोग	-7.89822
▁पश्याम	-7.89976
अ	-7.90145
▁c	-7.90695
▁स्थान	-7.90746
हं	-7.9102
ार	-7.91162
▁ज	-7.912
▁भवेत्	-7.91427
▁यस्य	-7.91687
▁यतो	-7.92017
▁यीशु	-7.9228
u	-7.92723
▁प्रोग्राम्	-7.92769
का	-7.92946
िका	-7.92955
री	-7.93181
ट्	-7.93677
▁:	-7.93999
▁टङ्कयित्वा	-7.94045
▁करें	-7.94108
▁भविष्यति	-7.94186
के	-7.94348
▁जन	-7.9478
स्मै	-7.94878
▁भ	-7.94892
ेव	-7.95445
ाम	-7.95685
ात	-7.96235
यं	-7.96439
▁दृष्टुं	-7.97102
▁बहु	-7.97327
▁किमपि	-7.97954
▁तव	-7.98153
▁नुत्वा	-7.98653
ोऽ	-7.99493
न्ते	-8.00068
युक्त	-8.0022
al	-8.00426
▁अनन्तरं	-8.00967
सा	-8.01191
ेत	-8.012
रे	-8.01203
त्य	-8.01573
▁ब	-8.0197
स्माकं	-8.02016
▁ईश्वर	-8.02037
्वा	-8.02047
▁प्रयोग	-8.02181
नी	-8.03423
▁वयमधुना	-8.03495
▁वर्ण	-8.03537
▁मेथड्	-8.03573
m	-8.03658
▁इत्यनेन	-8.03688
▁अनेन	-8.03753
▁ईश्वरस्य	-8.04266
▁ज्ञास्यामः	-8.05165
▁कु	-8.05393
▁तद्	-8.05418
▁उप	-8.06326
यितुं	-8.06505
▁प्रभु	-8.06691
▁2	-8.07059
▁विद्यमानं	-8.07092
f	-8.07554
▁एते	-8.08335
▁इत्येतत्	-8.08717
▁करोतु	-8.08729
▁कृत	-8.08804
▁ले	-8.08987
▁ता	-8.09051
▁आदेश	-8.09484
वत्	-8.09871
ेभ्यः	-8.09954
▁तस्या	-8.10095
वन्तः	-8.10304
▁वेरियेबल्	-8.10392
▁स्पोकन्	-8.10631
तदा	-8.1116
ित्वा	-8.12311
▁इत्यस्योपरि	-8.12436
यः	-8.12438
्यते	-8.12771
व्य	-8.12836
▁यतः	-8.13675
▁मूल्यं	-8.13714
▁the	-8.13937
▁तथैव	-8.13941
▁विश्वास	-8.13974
मान	-8.14079
▁यो	-8.14131
▁इत्य	-8.14684
ष्ट	-8.1499
▁नूतन	-8.15188
ha	-8.15194
▁इ	-8.15527
▁ददाति	-8.15788
▁गण्ड	-8.15812
dot	-8.15821
▁सु	-8.1594
▁नूतनं	-8.16462
▁कदा	-8.16638
▁कार्यं	-8.16928
स्योपरि	-8.16973
लोक	-8.17117
मिति	-8.17328
▁एतादृश	-8.17425
▁ज्ञान	-8.17477
▁पुत्र	-8.17494
▁टङ्कयतु	-8.17678
▁प्रदर्शयति	-8.17679
दा	-8.17741
िता	-8.17832
▁येन	-8.17872
न्य	-8.17882
▁केवलं	-8.18136
यित्वा	-8.18369
स्थ	-8.18429
तां	-8.18572
▁फ	-8.18758
▁पाठे	-8.19161
▁फलितं	-8.19212
▁सार्द्ध	-8.19598
▁इत्येतेषां	-8.19608
▁कोड्	-8.19754
ती	-8.20165
▁भव	-8.20306
▁इम	-8.2071
▁तान्	-8.20876
▁परि	-8.21047
▁भवत	-8.21073
ामः	-8.21186
▁हैं	-8.21315
▁लिखन्तु	-8.2158
फ	-8.21788
▁द्वे	-8.22248
▁ना	-8.22407
▁in	-8.22544
यां	-8.22585
▁जाता	-8.22719
▁क्रिया	-8.22729
रूप	-8.22812
आ	-8.23162
ar	-8.23381
▁स्वागतम्	-8.23559
▁लिङ्क्	-8.23564
▁तदर्थं	-8.23565
le	-8.23958
▁G	-8.23997
in	-8.24104
त्वं	-8.24186
▁name	-8.24425
g	-8.24579
▁एष	-8.24604
▁पूर	-8.24646
देश	-8.24886
▁नाना	-8.25079
▁दर्शयति	-8.25666
▁ध्यान	-8.2583
b	-8.26065
▁करणीय	-8.26124
▁भोजन	-8.26235
▁तस्मिन्	-8.26238
ला	-8.26267
कं	-8.26345
येत	-8.26508
▁महा	-8.26584
▁तद	-8.26731
ले	-8.26832
कृत	-8.26954
▁कुर्यात	-8.26982
▁ल	-8.27051
▁of	-8.27243
▁तानि	-8.27743
▁प्रभो	-8.27803
▁B	-8.27887
▁गृह	-8.28087
▁समय	-8.28325
ion	-8.29116
▁समीप	-8.29665
▁मूल	-8.29743
▁परस्पर	-8.29811
▁ऐकान्	-8.29811
▁जायते	-8.29811
en	-8.29889
▁आसीत्	-8.29922
▁मह्य	-8.3013
▁अव	-8.30244
याः	-8.30384
▁इतीदम्	-8.30431
▁यद्	-8.30594
▁एषा	-8.30831
▁निमित्तं	-8.30946
▁उ	-8.31365
▁प्राप्त	-8.31598
श्	-8.31779
▁एक्सिक्यूट्	-8.31985
_	-8.31985
ापि	-8.32032
▁दोष	-8.32142
▁पितर	-8.32448
कार	-8.32509
▁प्रकटय	-8.32652
▁रचना	-8.32866
C	-8.32917
रा	-8.33119
तो	-8.33202
स्व	-8.33421
▁प्रत्येक	-8.33604
▁पाप	-8.33716
▁किम्	-8.33809
▁आप	-8.33821
ड्	-8.34114
स्ति	-8.34256
▁सम्पूर्ण	-8.34347
ाह	-8.34479
▁भोजनं	-8.34516
▁स्थिति	-8.34592
▁स्तर	-8.34605
▁स्थाने	-8.34768
▁मां	-8.34799
▁न्यून	-8.34803
▁इस	-8.34813
▁निज	-8.34833
▁इव	-8.34911
▁शब्द	-8.35012
▁जना	-8.35485
ुः	-8.35557
दि	-8.3557
ज्	-8.35684
ली	-8.3621
▁तः	-8.36275
▁शक्नोमि	-8.3648
▁चिनोमि	-8.3648
▁टेब्	-8.3648
▁उत्तम	-8.36556
▁स्म	-8.36603
▁टेक्स्ट्	-8.36621
यत	-8.36784
▁लोका	-8.37106
▁2.	-8.37242
▁चित्वा	-8.37339
ितं	-8.3766
ितवान्	-8.37714
ाद	-8.37824
▁एता	-8.37861
▁अस्या	-8.37876
▁यह	-8.38027
ुं	-8.38078
▁आसन	-8.38189
st	-8.38302
▁सत्य	-8.38419
▁ख्रीष्ट	-8.38657
▁file	-8.38738
▁क्रियते	-8.38805
▁Save	-8.38812
▁कथ	-8.39069
▁File	-8.39445
▁ऽ	-8.39675
▁सेट्	-8.39757
▁1.	-8.39887
ख	-8.39953
▁रचित	-8.40492
नाम	-8.40722
मि	-8.40917
I	-8.41186
▁द्वारा	-8.41187
▁प्राप्तुं	-8.41218
▁Ubuntu	-8.41219
▁अय	-8.41261
नु	-8.41371
▁कुर्वन्ति	-8.41389
org	-8.41565
▁अर्थ	-8.41657
▁राम	-8.4169
युत	-8.41729
▁तस्मात्	-8.41779
▁विना	-8.41798
▁आगत	-8.41863
इ	-8.41913
▁मुद्रा	-8.42053
▁I	-8.42363
से	-8.43377
▁चिनोतु	-8.43625
▁इत्यस्मात्	-8.43644
▁n	-8.43745
▁पवित्र	-8.43776
ष्य	-8.43785
▁पुन	-8.43823
▁यत्र	-8.43846
▁i	-8.44147
▁इदम्	-8.44579
नल्	-8.44909
ग्र	-8.45166
▁0	-8.45701
▁3	-8.45768
w	-8.4603
भ्य	-8.46069
▁ज्ञातवन्तः	-8.46144
को	-8.46204
h	-8.46325
▁कर्म्म	-8.46392
▁पे	-8.46444
S	-8.46584
समये	-8.46658
▁सर्व्वे	-8.46764
▁ख	-8.46836
▁सङ्ख्या	-8.46867
▁अध	-8.47036
▁ह	-8.4727
▁प्रत्य	-8.47461
es	-8.48312
?"	-8.48474
D	-8.48651
ज्ञान	-8.48715
▁किञ्चित्	-8.48807
▁स्थापयेत	-8.48825
▁Ctrl	-8.48913
▁अर्थात्	-8.48924
▁हि	-8.48942
वर्ण	-8.4896
▁प्रा	-8.49177
द्वयं	-8.49424
▁सि	-8.49495
▁एतेषा	-8.49548
▁द्वितीय	-8.49751
0	-8.50044
▁तौ	-8.50146
ेभ्य	-8.50186
▁मन	-8.51031
▁सामान्य	-8.51042
▁विषय	-8.51075
▁पाठेऽस्मिन	-8.51264
▁मेन्यू	-8.51321
▁Linux	-8.51322
▁पैर	-8.51385
▁विद्यते	-8.51431
▁for	-8.51454
tutorial	-8.51606
▁slash	-8.51616
▁कृप	-8.51628
▁कृतवान्	-8.5163
▁काल	-8.51672
▁भी	-8.51782
ासन	-8.51936
▁स्वय	-8.52241
करण	-8.52295
3	-8.5235
▁पूर्ण	-8.52395
ङ्ग	-8.5244
▁इमा	-8.52496
▁ऐ	-8.52543
प्	-8.52602
स्थान	-8.52718
क्त	-8.52995
पद	-8.53198
▁दूर	-8.53435
योग	-8.53479
▁.	-8.5366
▁कार्य	-8.53777
x	-8.53925
▁कानिचन	-8.54024
▁Ko	-8.54035
ानाम्	-8.54128
▁वदामि	-8.54152
▁दातु	-8.54204
विध	-8.54224
▁पादप	-8.54451
▁D	-8.54541
मयि	-8.54665
▁रन्	-8.54917
स्ट	-8.55046
▁विभिन्न	-8.55161
▁सो	-8.55247
द्य	-8.55331
▁एका	-8.55554
ीति	-8.55583
ाम्	-8.55639
देव	-8.55645
▁वस्त्र	-8.55688
णां	-8.55779
ैर	-8.56111
हि	-8.5613
▁अहम	-8.56352
▁भवता	-8.56573
वाक्य	-8.56643
▁F	-8.56759
Account	-8.56793
▁अनु	-8.56796
▁रखें	-8.56818
▁अग्रे	-8.56891
िङ्ग्	-8.56932
▁विण्डो	-8.56975
▁तु	-8.56997
ार्थ	-8.57041
▁सति	-8.57097
भाग	-8.57187
द्वारा	-8.57344
▁प्रक्रिया	-8.57448
▁सञ्चिकां	-8.57634
▁पा	-8.57852
मेक	-8.5795
▁मार्ग	-8.58112
क्रम	-8.58118
▁विचार	-8.58217
▁H	-8.58291
▁स्मः	-8.58369
भा	-8.58423
▁T	-8.5849
ाश्च	-8.58507
▁इमे	-8.58797
ये	-8.58836
▁देव	-8.58887
▁लिखित	-8.58942
▁भवेत	-8.59003
▁3.	-8.59072
जा	-8.59152
▁मह	-8.59201
▁प्रकाश	-8.59337
on	-8.59384
▁सप्त	-8.59602
▁लघु	-8.59659
▁वेब्	-8.59659
▁गच्छन्तु	-8.59696
▁प्राप्तवन्तः	-8.59698
▁कथितवान्	-8.59701
▁जल	-8.59728
▁रूप	-8.59819
▁पूर्व्व	-8.59876
▁do	-8.59894
▁करता	-8.59995
▁कोर्स्	-8.60042
▁मनुष्य	-8.6011
spoken	-8.60177
▁तादृश	-8.60236
▁प्रेम	-8.60348
फ़	-8.60745
▁दत्त	-8.6079
▁सूर्य	-8.60811
धा	-8.60812
▁रोग	-8.61088
▁योग	-8.61271
▁ततो	-8.61411
ष्ठ	-8.61462
▁कृष्ण	-8.61604
▁b	-8.61703
▁जीव	-8.61922
()	-8.6236
भाव	-8.62587
▁भवद्भ्यः	-8.626
▁–	-8.62711
यन्तु	-8.62723
▁स्टेट्मेण्ट्	-8.62784
▁इत्थ	-8.62869
गृह	-8.63218
फल	-8.63232
घ	-8.63244
श्र	-8.6325
▁अन	-8.63382
▁परं	-8.6347
धि	-8.63652
स्मिन्	-8.63816
▁ओर	-8.63839
▁इन्	-8.63964
▁लोक	-8.64031
ाल	-8.64746
र्थ	-8.64834
ततः	-8.64835
▁पौल	-8.65058
▁tutorial	-8.65302
▁स्वर्ग	-8.65375
▁भिन्न	-8.65529
hyphen	-8.6563
▁जावा	-8.65656
▁वयमत्र	-8.65684
▁चिन्तय	-8.65712
▁पृष्ट	-8.65729
गत	-8.6579
▁टूल्	-8.6582
4	-8.6582
▁मुख	-8.65976
▁व्यवस्था	-8.65978
5	-8.66013
▁मुख्य	-8.66085
▁R	-8.66126
▁इदम	-8.66142
र्त्त	-8.6619
डौन्	-8.66329
▁व्य	-8.66363
▁विविध	-8.66422
ास्ति	-8.66559
ायां	-8.66565
ङ्क	-8.66615
▁साधन	-8.66633
▁अन्ते	-8.66973
▁ध	-8.67167
▁अग्रिम	-8.67351
चित्र	-8.68047
▁रेखा	-8.68101
दान	-8.68198
गच्छ	-8.68351
▁धन	-8.68359
▁उपयोक्तु	-8.68755
▁अधस्तन	-8.68755
▁भूत्वा	-8.68789
मी	-8.68808
▁पद	-8.68979
ग्	-8.69096
ज्ञ	-8.69252
ter	-8.69264
▁कर्तुम्	-8.69432
▁10	-8.69521
▁कारण	-8.69707
▁O	-8.69821
▁पुस्तक	-8.69951
▁करन	-8.69979
यु	-8.70019
▁भाग	-8.70035
▁f	-8.70355
▁पत	-8.70774
न्द	-8.70796
वद	-8.70835
▁वृक्ष	-8.70945
▁चित	-8.70997
▁द्व	-8.715
▁जात	-8.71505
छ	-8.71764
▁Library	-8.71982
▁आगच्छन्तु	-8.72024
ितुं	-8.7206
▁be	-8.7209
वे	-8.7213
▁सिद्ध	-8.72141
▁सीक्वेन्स्	-8.72264
▁तथापि	-8.72344
▁5	-8.72346
▁स्थित	-8.72452
▁नहि	-8.72518
क्स	-8.7275
▁अप	-8.72766
P	-8.72784
7	-8.72829
द्र	-8.72849
वन्त	-8.72959
▁फील्ड्	-8.73049
▁शक्ति	-8.73145
▁नाम्ना	-8.73357
▁अपन	-8.73517
▁तत	-8.73685
▁अस्माभि	-8.74134
▁पूर्व	-8.74153
भी	-8.74196
▁त्वा	-8.74282
यन्ति	-8.74332
it	-8.74381
ैक	-8.74386
स्थित	-8.74428
▁is	-8.74454
ुर	-8.74644
▁आवा	-8.74837
▁विभाग	-8.74932
int	-8.75027
▁enter	-8.75264
ment	-8.75312
▁Front	-8.75314
▁उद्घाटित	-8.75314
▁बटन्	-8.75333
▁केचन	-8.75421
ताया	-8.75454
वानस्मि	-8.75461
▁किन्त्व	-8.75513
▁इदानीम्	-8.75515
▁number	-8.75524
▁एवमेव	-8.75568
▁कृतवन्तः	-8.75649
▁अद्य	-8.75762
▁बालक	-8.75785
▁सर्वाण	-8.75906
▁सम्यक्	-8.7593
्यं	-8.7596
▁परिवर्तन	-8.76052
वत	-8.76065
9	-8.76275
पर्यन्त	-8.76316
▁मुक्त	-8.76327
▁पञ्च	-8.7638
▁प्राण	-8.76673
▁चयन	-8.76683
▁सः	-8.76714
▁सन्	-8.76724
षन्	-8.76765
▁+	-8.76849
स्तर	-8.76928
▁E	-8.77039
सी	-8.77149
▁प्रथमं	-8.77187
k	-8.7739
▁अथ	-8.775
▁अप्	-8.77716
ठ	-8.77749
▁युष्मा	-8.77866
▁केवल	-8.77971
▁ई	-8.77988
ानाम	-8.78042
धिक	-8.78131
बन्ध	-8.78475
▁पार्श्वे	-8.78773
▁संस्कृत	-8.78781
्रा	-8.78831
▁गच्छति	-8.78875
▁ओब्जेक्ट्	-8.78888
▁equal	-8.78905
▁अरे	-8.78916
डी	-8.78973
ताम्	-8.78976
▁m	-8.78979
▁X	-8.79066
▁विवरणानि	-8.79101
▁युवा	-8.79231
▁पश्यति	-8.79289
द्ध	-8.79318
▁शिर	-8.79516
भिः	-8.79761
txt	-8.79852
ादि	-8.7987
अपर	-8.80009
ततो	-8.8015
▁दास	-8.80511
▁हस्त	-8.80864
ेशन्	-8.80866
कार्य	-8.8091
नगर	-8.80928
रण	-8.81111
स्तस्य	-8.81293
▁पुष्प	-8.81469
▁spoken	-8.81688
ाकार	-8.81988
▁new	-8.82334
▁प्राप्नुमः	-8.82335
▁ब्रेकेट्	-8.82372
▁कथ्यते	-8.82383
▁स्यात्	-8.82476
▁पुट	-8.8261
▁awk	-8.82642
▁Tutorial	-8.82648
▁Add	-8.8266
▁समीपे	-8.82879
्ट्	-8.82903
ीकृत	-8.83244
▁जीवन	-8.83274
▁पृष्ठ	-8.83512
▁हेतो	-8.83569
T	-8.83575
बोक्स्	-8.83607
▁पत्र	-8.83692
▁इत्यस्मिन	-8.83713
ाहं	-8.83796
णा	-8.8382
▁मे	-8.83843
▁भक्त	-8.83886
ून	-8.84219
द्वय	-8.84245
▁वह	-8.84356
त्त	-8.84442
▁फल	-8.84534
▁दिन	-8.84696
नेव	-8.8509
च्छ	-8.85094
▁एतत	-8.85174
णं	-8.85253
▁समान	-8.85471
▁चित्रे	-8.85497
▁l	-8.85656
नेन	-8.85821
▁सम्यक	-8.85859
ड़	-8.85969
Firefox	-8.86037
▁method	-8.86037
▁इतीमे	-8.86037
▁ड्रोप्	-8.86038
▁आंख	-8.86045
▁विवरण	-8.8619
▁उत्तर	-8.862
▁समये	-8.86212
▁भवद्भिः	-8.86257
▁4.	-8.86265
▁गीत	-8.86304
▁दर्शितं	-8.86312
▁पिता	-8.86531
▁Spoken	-8.86737
▁दण्ड	-8.86785
▁युक्त	-8.86852
▁पश्य	-8.86885
is	-8.87035
▁राजा	-8.8728
R	-8.87296
उ	-8.87379
▁प्रश्न	-8.87421
B	-8.87475
किन्तु	-8.87573
▁अस्म	-8.87696
▁ड	-8.87699
नो	-8.87837
्यु	-8.88159
▁आवश्यक	-8.8821
शन्	-8.88225
▁इतीदम	-8.88243
et	-8.88398
टि	-8.8857
▁रे	-8.88695
राज	-8.88708
▁7	-8.88794
कि	-8.88902
▁डौन्	-8.89001
मिदं	-8.89343
विषये	-8.89385
▁अस्मिन	-8.895
▁क्रम	-8.89555
▁अन्त	-8.89761
▁शनै	-8.89888
▁इत्यस्याधः	-8.89893
▁हुए	-8.89897
++	-8.8991
▁साक्षात्	-8.89914
ation	-8.90013
se	-8.9008
▁पश्यन्ति	-8.90106
▁अर्जुन	-8.90127
▁स्ट्रिङ्ग्	-8.90135
▁युद्ध	-8.90135
पदार्थ	-8.90193
काल	-8.90239
▁सर्वेषा	-8.90336
▁प्राप्य	-8.90415
▁तस्माद्	-8.90509
▁उपयुक्त	-8.90513
▁d	-8.90637
▁नियम	-8.90904
तुं	-8.91145
सङ्ख्या	-8.91332
वस्त्र	-8.91364
भ्यः	-8.91473
▁6	-8.91478
पुत्र	-8.91501
▁भूत	-8.91609
ितुम्	-8.91825
▁दक्षिण	-8.9192
यामः	-8.91982
तेषु	-8.91993
दिन	-8.91995
क्रिया	-8.92026
ाँ	-8.92064
▁उद्	-8.92108
मात्र	-8.92569
▁मु	-8.92908
▁मध्य	-8.9305
▁प्रद	-8.93138
र्प	-8.93265
▁अत	-8.9338
▁दर्शित	-8.93869
▁प्राप्नोति	-8.939
▁तदनन्तरं	-8.93931
▁करण	-8.93934
युक्तं	-8.93936
पाल	-8.93947
▁आदौ	-8.93983
▁नुदामि	-8.93995
▁रिक्त	-8.94023
▁औट्पुट्	-8.94037
▁डोट्	-8.94137
▁सरल	-8.94162
▁तदेव	-8.94167
▁दृष्ट	-8.94173
▁बीज	-8.94228
▁वदति	-8.94273
▁रक्त	-8.94281
▁कुरुत	-8.94342
▁विश्राम	-8.94438
हा	-8.94615
▁ज्ञात	-8.94785
...	-8.94831
▁h	-8.94873
▁सर्वे	-8.94999
▁अनुशिक्षणे	-8.95021
▁g	-8.95228
▁पाद	-8.95329
A	-8.95362
ई	-8.95387
वान	-8.9549
▁तो	-8.95767
नीय	-8.95772
▁प्रकार	-8.95828
▁बार्	-8.9588
▁जलं	-8.95923
ृष्ट	-8.96486
▁बोक्स्	-8.96581
8	-8.96773
▁पर्यन्त	-8.96814
लिए	-8.97106
भूत	-8.97491
टी	-8.97758
▁शक्नुम	-8.97801
की	-8.97825
▁वे	-8.97876
पाठ	-8.97917
▁केन्वास्	-8.9805
▁IDE	-8.98054
▁class	-8.98055
▁निर्दिष्ट	-8.98055
▁लूप्	-8.98058
AM	-8.9806
▁डिक्लेर	-8.98082
▁कर्त्तु	-8.98091
▁क्ष	-8.98168
PP	-8.98176
com	-8.9818
सू	-8.98202
▁प्राणायाम	-8.98211
▁स्तः	-8.98279
▁Student	-8.9831
▁भवितुं	-8.98347
▁layer	-8.98378
▁कन्स्ट्रक्टर्	-8.9842
ार्थम्	-8.98515
▁उपयुज्यते	-8.9861
पङ्क्तौ	-8.98774
▁श्मशान	-8.98776
▁अस्मि	-8.9891
▁क्र	-8.98934
ग्रह	-8.99085
मु	-8.99093
▁किया	-8.99145
ण्ड	-8.99186
प्त	-8.99209
▁परिवर्त्य	-8.99353
▁तिष्ठति	-8.9936
▁दु	-8.99702
स्था	-8.99749
भवति	-8.99784
E	-8.998
▁नगर	-8.998
▁गुण	-9.00012
ीया	-9.00031
ेश्वरस्य	-9.00097
▁अपरञ्च	-9.00144
वृत्त	-9.00202
▁4	-9.00282
▁रक्ष	-9.00355
▁भवतः	-9.01074
▁पुनर	-9.0111
र्व	-9.0114
याम	-9.01249
न्न	-9.01307
▁समं	-9.01399
▁निर्	-9.01414
▁शिक्ष	-9.01541
हन	-9.02216
ऽहं	-9.0222
ामहे	-9.02242
▁भ्राम	-9.02309
कर्ता	-9.02366
▁जानाम	-9.02381
@	-9.02398
▁फ़ैल्	-9.02398
▁सूचयति	-9.02398
▁सेमिकोलन्	-9.02398
▁संसार	-9.024
▁प्रोजेक्ट्	-9.02403
▁स्वकीय	-9.02407
▁main	-9.02407
▁System	-9.02419
▁श्रुत्वा	-9.02422
▁सम्भवति	-9.02443
▁चेक्	-9.02444
▁आराम	-9.02461
▁त्रि	-9.02497
▁कमाण्ड्	-9.02502
▁इन्स्टाल्	-9.0257
▁समक्ष	-9.02595
▁रूपेण	-9.02749
ls	-9.02788
▁चेतुं	-9.02825
ान्तर	-9.02923
▁यावत्	-9.03015
▁गवाक्ष	-9.03015
▁Book	-9.03104
▁टर्मिनल्	-9.03119
▁परिवर्तित	-9.03408
▁test	-9.03433
र्ज	-9.0347
▁जनो	-9.03504
▁अनेक	-9.03626
▁चेत	-9.03767
▁ख्रीष्टस्य	-9.0387
▁एतावत	-9.03989
▁नो	-9.04105
▁ने	-9.04143
▁तक	-9.04308
▁दश	-9.04318
6	-9.04477
H	-9.04519
इत्यस्य	-9.04542
▁टङ्कन	-9.04632
to	-9.04745
▁अस	-9.04822
िति	-9.04988
▁प्राय	-9.05018
▁आपक	-9.05028
ैल	-9.05213
षा	-9.05267
▁सूत्र	-9.05556
▁र्न	-9.05582
▁पश्चाद्	-9.0573
ऽ	-9.0583
▁अनुशिक्षण	-9.05836
निमित्तं	-9.05847
00	-9.05896
श्य	-9.05968
▁स्थापय	-9.05983
ोपरि	-9.0653
▁ओ	-9.06533
▁भाष	-9.06577
▁कस्य	-9.0663
लैन्	-9.0669
स्मासु	-9.067
ध्वं	-9.06778
द्व	-9.06842
▁भू	-9.06846
▁शिष्या	-9.06847
▁श्वसन	-9.06888
▁श्री	-9.06923
oodle	-9.06926
▁नमस्कार	-9.06944
▁सुसंवाद	-9.06944
▁सूची	-9.06944
▁Manager	-9.06964
▁bar	-9.06988
ोऽस्ति	-9.07016
▁प्राप्यते	-9.07131
▁व्याख्या	-9.07143
▁परिवर्तयितु	-9.07347
th	-9.07409
▁भवतु	-9.0759
▁शिष्य	-9.07768
्यन्ते	-9.07875
ीनां	-9.07911
यामि	-9.07928
▁तै	-9.08071
▁वृक्षस्य	-9.08079
चे	-9.08193
▁उपस्थित	-9.08286
ांश्च	-9.08301
▁सञ्चिकाया	-9.08302
▁int	-9.08527
L	-9.08565
▁वायु	-9.08567
भाषा	-9.08584
▁वयम	-9.08853
▁आदि	-9.08957
▁कश्चिद	-9.0896
▁पाठस्या	-9.08967
▁कीलक	-9.09055
▁करणीयम्	-9.09095
गा	-9.09136
रू	-9.0922
▁;	-9.09277
वृक्ष	-9.09297
▁यीशुस्त	-9.09299
ance	-9.09361
ाङ्ग	-9.09521
िष्यन्ति	-9.09571
▁समस्या	-9.09624
▁हा	-9.09712
ेश्वर	-9.09721
माण	-9.09929
▁बल	-9.10041
वेद	-9.10249
▁कश्चित	-9.10292
लोड्	-9.1074
▁निर्माणं	-9.11148
िष्यते	-9.11229
▁गुरु	-9.11463
▁मृत	-9.11544
▁with	-9.11705
▁उपयुञ्ज्महे	-9.11705
▁बृहत्	-9.11705
▁स्क्रोल्	-9.11705
▁फोल्डर्	-9.11712
▁सब्	-9.11722
▁अध्यापक	-9.11724
▁अधिकविवरणार्थं	-9.11733
षि	-9.11745
▁वामतः	-9.1177
▁भवितव्य	-9.11773
▁दत्तवान्	-9.11817
▁एतस्मिन्	-9.11844
रह	-9.11924
▁मस्तिष्क	-9.1201
ानी	-9.12062
▁type	-9.12133
▁fin	-9.12138
▁OS	-9.12141
▁निर्मातु	-9.12163
▁आवश्यकता	-9.12178
ाया	-9.12262
▁संयोजन	-9.12325
▁कः	-9.12341
▁भवती	-9.12404
▁युष्माभिः	-9.12409
▁निर्देश	-9.12474
▁विकल्पः	-9.12515
▁V	-9.12562
स्थाने	-9.12627
▁तयो	-9.12768
▁सन्देश	-9.12795
ry	-9.12843
▁सकत	-9.12932
▁तन्	-9.12957
▁कूर्च	-9.12997
▁e	-9.13139
▁निर्माण	-9.13471
U	-9.14015
▁In	-9.14049
स्थानं	-9.1408
▁रा	-9.14182
F	-9.14249
कर्म्म	-9.14304
इतीदं	-9.14316
किमपि	-9.144
▁कृतं	-9.14459
▁पठ	-9.14736
यम	-9.14872
पर	-9.14918
यन्त	-9.15281
ेति	-9.1547
▁बहि	-9.15475
▁दे	-9.15504
▁उत्था	-9.15796
र्ष	-9.15829
▁मूल्य	-9.1588
ासीत्	-9.15911
▁परमेश्वर	-9.15925
तन्त्र	-9.16018
▁अन्तः	-9.16052
ेट्	-9.16451
▁Re	-9.16597
▁साक्ष्य	-9.16653
▁तेभ्य	-9.16661
▁प्रिय	-9.16678
▁पूर्वतन	-9.167
▁रङ्गसेचन	-9.16706
▁कार्यशाला	-9.16706
▁स्थापित	-9.16707
▁गौरव	-9.16709
▁रचयन्तु	-9.16718
फैर्	-9.16735
▁ज्ञातुं	-9.16744
▁सांस	-9.16784
▁भविष्यन्ति	-9.16796
▁वर	-9.16818
▁उदाहरणार्थं	-9.16819
▁अनयो	-9.16857
▁अभवत्	-9.16931
ऐ	-9.16944
▁Edit	-9.16978
▁स्नेह	-9.17026
▁New	-9.17153
▁द्वार	-9.17181
नाय	-9.17266
at	-9.17388
चन	-9.17397
▁सेव्	-9.17488
▁नेत्र	-9.17556
▁नाम्न	-9.17613
▁आस	-9.1768
▁सम्बद्ध	-9.17701
▁कथय	-9.17857
▁विषयान्	-9.18104
▁जगत	-9.18121
वी	-9.18166
त्स	-9.18231
▁भक्ति	-9.18313
▁पूर्वं	-9.18348
▁रह	-9.18931
▁स्मर	-9.18998
▁क्षेत्र	-9.19021
यन	-9.19036
▁L	-9.19092
चित्	-9.19279
▁सहाय	-9.19338
+	-9.19497
गुण	-9.19513
मार्ग	-9.19564
अनन्तरं	-9.19564
▁घ	-9.19572
ासु	-9.19577
क्षेत्र	-9.19591
ेभ्यो	-9.19674
▁शरीरस्य	-9.19792
भोजन	-9.19916
▁क्रीड	-9.19969
▁गच्छाम	-9.20091
▁तृतीय	-9.20152
रूपे	-9.20322
▁ट	-9.20389
▁प्रकल्प	-9.20686
लोका	-9.20799
रोग	-9.20858
ाण	-9.20921
ेत्	-9.20987
▁टङ्क	-9.21084
नम्	-9.21258
▁रचयाम	-9.21609
▁फ़ील्ड्	-9.21696
▁डि	-9.21854
ञ्ज	-9.21863
%	-9.21969
▁अवलोकयन्तु	-9.21969
▁ट्याब्	-9.21969
▁फ़ङ्क्षन्	-9.21969
▁फाक्स्	-9.21969
▁डैलाग्	-9.21969
▁सङ्गणक	-9.21969
▁नासिका	-9.21969
▁डबल्	-9.21969
The	-9.21969
▁एडिट्	-9.21973
▁ऊपर	-9.21975
▁चत्वार	-9.21984
▁योजयितुं	-9.21988
▁लेयर्	-9.21989
▁रचयितुं	-9.21991
▁उपरितन	-9.22
एडिटर्	-9.22002
▁यीशो	-9.22048
nd	-9.22128
▁Sale	-9.22184
▁उदाहरण	-9.2229
▁नुदामः	-9.22295
▁रेकोर्ड्	-9.22307
▁this	-9.22307
▁रो	-9.22361
▁प्राप्तवान्	-9.22382
▁बहव	-9.22455
▁परन्तु	-9.22563
यै	-9.22564
▁दुःख	-9.22575
नही	-9.22598
ction	-9.22635
▁जा	-9.22679
तद्	-9.2272
op	-9.22968
▁ही	-9.23153
वती	-9.23243
▁Name	-9.23244
▁मिल	-9.23292
▁मन्दिर	-9.23382
गण	-9.23415
ेष	-9.23779
▁विशेष	-9.23829
तेषां	-9.23847
ic	-9.23866
▁जो	-9.23981
भवत्	-9.23998
▁फलित	-9.24059
र्ध	-9.24128
▁कर्ष	-9.24227
▁श्लोक	-9.24294
▁शक्	-9.24331
▁मानव	-9.24435
स्वरूप	-9.24557
त्वे	-9.24688
▁किम	-9.24734
name	-9.25011
घट	-9.25186
प्रक्रिया	-9.25201
ीयम्	-9.25366
▁कदाचित	-9.2548
यत्	-9.25661
an	-9.25755
मूल	-9.25778
▁इत्यादि	-9.25988
प्रति	-9.26313
▁एतस्य	-9.26423
▁गण	-9.26458
कः	-9.2648
िष्यामि	-9.26491
▁भाव	-9.26508
all	-9.267
▁कुरु	-9.26786
ाभ्यास	-9.2686
▁आगच्छ	-9.26919
▁सञ्चिकाः	-9.27321
तीति	-9.27388
K	-9.27473
z	-9.2748
▁आकाश	-9.27517
static	-9.27524
मूडल्	-9.27524
▁Code	-9.27524
▁stud	-9.27524
▁ड्राप्	-9.27524
▁सूक्ष्म	-9.27524
▁इत्याख्य	-9.27524
▁युष्मभ्य	-9.27524
▁यच्छति	-9.27525
▁दृश्यन्ते	-9.27525
▁धर्म	-9.27527
▁category	-9.27528
▁इब्राहीम	-9.2753
▁प्रमाणपत्र	-9.2753
▁इत्यस्यान्तः	-9.27533
▁उचित	-9.27541
▁निष्क्रिय	-9.27542
▁उद्यान	-9.27543
मेण्ट्	-9.27577
▁यीशुं	-9.27602
▁भगवान	-9.27643
▁जानाति	-9.27665
तव	-9.27671
▁प्रेरित	-9.27745
स्मि	-9.27767
▁दृष्ट्वा	-9.27787
▁प्राचीन	-9.27866
▁टेबल्	-9.27882
▁दक्षिणपार्श्वे	-9.27905
ात्मक	-9.27912
▁श्वेत	-9.27921
▁पशु	-9.27921
▁परम	-9.27951
खण्ड	-9.27952
▁एतद्	-9.28014
स्तु	-9.2807
▁बुक्	-9.28071
▁सामान्यत	-9.28108
ro	-9.28167
▁अपनी	-9.28178
कस्य	-9.28181
▁धन्य	-9.28254
▁द्वि	-9.28377
▁भ्रातरः	-9.28383
▁सर्व्वेषा	-9.28435
▁ईश्वरीय	-9.28466
▁माध्यम	-9.28595
▁अतएव	-9.28604
▁सिर	-9.28703
▁बि	-9.28714
▁मेन्यु	-9.28749
मानं	-9.28755
प्ले	-9.28796
यमेव	-9.28834
▁संयोजित	-9.28851
ort	-9.28851
▁user	-9.28931
▁बना	-9.28951
▁फलं	-9.28998
स्मात्	-9.2903
▁जलस्य	-9.29045
▁प्राक्	-9.29174
धन	-9.29582
▁गो	-9.29643
ास्ते	-9.29859
re	-9.30031
M	-9.30129
पात	-9.30137
स्थितौ	-9.30219
▁U	-9.30411
करणे	-9.30482
ies	-9.30558
▁प्रण	-9.30569
परि	-9.30729
▁वृत्त	-9.30757
शरीर	-9.30872
पूर्ण	-9.30966
पृष्ठ	-9.3099
अपरञ्च	-9.31165
▁एषः	-9.31176
▁इद	-9.31297
ेऽस्मिन्	-9.31324
▁विषयं	-9.31331
कोण	-9.31401
▁N	-9.31441
▁गत	-9.31496
▁पुत्रः	-9.31529
भाष	-9.3158
ागत्य	-9.31611
▁वदत	-9.31679
▁यज्ञ	-9.31881
▁तान	-9.31955
▁नी	-9.31964
▁हम	-9.32043
पुर	-9.32151
▁रचयत	-9.32194
भवत	-9.32358
▁योहन	-9.32734
पति	-9.32766
▁शुद्ध	-9.32824
lus	-9.32837
▁वर्ष	-9.32872
त्वा	-9.32944
▁bracket	-9.33143
▁यिरूशालम	-9.33177
ढ	-9.33294
▁स्थिर	-9.33379
▁व्या	-9.33382
TeX	-9.33407
▁MHRD	-9.33407
▁उद्घट्यते	-9.33407
▁चाहिए	-9.33407
▁अन्तर्जाल	-9.33407
▁इन्पुट्	-9.33407
▁कर्त्तव्य	-9.33407
▁भारतसर्वकार	-9.33407
▁वर्तमान	-9.33407
▁गाढ	-9.33407
कृते	-9.33407
▁श्रुत	-9.33408
▁minus	-9.33408
▁प्राप्तवदस्त	-9.33408
://	-9.3341
▁वामपार्श्व	-9.33412
▁जगाद	-9.33413
▁Math	-9.33424
▁गृहीत्वा	-9.33426
▁स्पष्ट	-9.33427
▁कम्प	-9.33428
▁Windows	-9.33437
▁एक्लिप्स्	-9.33471
▁पीछे	-9.33511
▁पिधा	-9.3352
▁by	-9.33524
ity	-9.33524
▁इत्युक्ते	-9.33527
दु	-9.33584
▁select	-9.33625
विषय	-9.33658
न्तः	-9.33672
▁प्रभाव	-9.33677
िष्यन्ते	-9.33682
▁आयत	-9.33757
▁आवृत्तिः	-9.33763
tp	-9.33782
▁वृद्धि	-9.33797
▁बार	-9.33909
▁बहून	-9.33963
वयं	-9.33974
ex	-9.34042
▁जालपुटे	-9.34077
ेक	-9.34254
ाश	-9.34389
▁जाल	-9.34409
▁पादौ	-9.34452
▁ब्रौसर्	-9.34545
▁त्वया	-9.34853
▁भार	-9.34928
▁बहिः	-9.34984
मीन	-9.35061
▁=	-9.35144
्यहं	-9.35526
वद्	-9.3574
▁नर	-9.35759
ुपरि	-9.35863
▁गृहे	-9.36029
ाभ्यां	-9.36091
▁कृष्णः	-9.36093
णम्	-9.36206
▁देश	-9.36249
ाऐं	-9.3639
▁दक्षिणत	-9.36477
वस्तु	-9.36517
च्	-9.36582
▁वस्तु	-9.36636
सञ्चिका	-9.36929
हस्त	-9.37042
▁कृता	-9.37054
ेऽ	-9.37155
line	-9.37162
ite	-9.37178
!	-9.37186
विकल्प	-9.37232
फील्ड्	-9.37232
सदृश	-9.3736
▁नामानि	-9.37425
महं	-9.37475
अक्षराणि	-9.38389
मदद	-9.38417
ुप	-9.38425
ृत्य	-9.38437
▁विशेषत	-9.3854
भविष्यद्वादिन	-9.38832
▁गाय	-9.38897
▁x	-9.3893
दृश्य	-9.38983
ूस	-9.39335
धुना	-9.39392
ानन्द	-9.39472
ol	-9.39478
▁दीर्घ	-9.39493
GIMP	-9.39657
▁Java	-9.39657
▁Select	-9.39657
▁इण्डेक्स्	-9.39657
▁उत्तीर्ण	-9.39657
▁सङ्क्षेपेण	-9.39657
▁समीचीन	-9.39657
▁डाट्	-9.39657
▁विलोक्य	-9.39657
▁दायूद	-9.39658
▁प्रतिकृति	-9.3966
▁समाप्त	-9.39661
▁कण्डीशन्	-9.39669
▁वक्र	-9.39671
▁उत्सर्गतया	-9.39673
▁धृत्वा	-9.39675
▁आनयेत	-9.3969
▁चालयति	-9.39694
▁मन्यते	-9.3974
▁La	-9.39769
▁राज	-9.39782
बल	-9.39803
▁प्रमाण	-9.39815
▁द्वयो	-9.39853
▁एको	-9.39882
▁था	-9.39882
▁परिणाम	-9.39904
▁कम्पैल्	-9.39906
▁शान्ति	-9.39906
▁टङ्कयाम	-9.39981
▁यस्मात्	-9.39985
ary	-9.4003
▁ईश्वरेण	-9.40045
शोध	-9.4005
▁प्रमुख	-9.40055
▁पेटर्न्	-9.40062
▁OK	-9.40082
▁भ्रम	-9.40083
v	-9.40083
ण्ड्	-9.40123
▁तम	-9.40133
हम्	-9.4014
▁सदृश	-9.40202
▁औट्	-9.40437
▁ग्राम	-9.40459
▁यस्मिन	-9.40507
▁files	-9.40578
▁कथयामास	-9.40639
▁छात्रः	-9.40689
▁मनुज	-9.40741
बोध	-9.40808
▁while	-9.41196
िनो	-9.41282
ot	-9.41396
▁if	-9.41436
▁अभि	-9.41457
▁अन्तिम	-9.41665
िन्	-9.41673
▁परीक्ष	-9.41792
▁सोऽ	-9.41952
स्तव	-9.42052
▁पुर	-9.42182
▁कुत्र	-9.42545
▁चरण	-9.42554
▁पार	-9.42652
▁अङ्ग	-9.42801
माना	-9.43021
ङ्	-9.43107
ate	-9.4312
▁गद	-9.43158
▁वेद	-9.43258
▁पश्यत	-9.43379
▁अनुभव	-9.43508
▁रव	-9.43598
चर्	-9.43649
▁शरीरे	-9.43659
ायाः	-9.43709
चिह्न	-9.43834
पुरुष	-9.43841
O	-9.43842
धीरे	-9.43853
धर्म्म	-9.4386
बार्	-9.43901
‘	-9.4393
▁भवते	-9.43941
शब्द	-9.43973
▁धार	-9.44053
▁कर्षय	-9.44098
सर्व	-9.44115
▁वर्णं	-9.44167
▁द्वितीयं	-9.44224
ण्ट	-9.44485
तदानी	-9.44646
▁संवादपेटिका	-9.44685
▁सत्	-9.44748
वह	-9.44911
▁यीशुर	-9.44942
▁एतेन	-9.44967
▁प्रश्ना	-9.45014
ानन्तरं	-9.45084
परीक्षाया	-9.45138
ोक्त	-9.45159
ास्त	-9.4532
ाज्ञा	-9.45424
यतो	-9.45459
▁स्वच्छ	-9.45508
▁कृपा	-9.45534
▁सत्यं	-9.4562
डि	-9.45695
ध्वे	-9.45797
▁यावत	-9.45929
▁दृढ	-9.45954
▁पुरातन	-9.45964
▁री	-9.45986
ीकरण	-9.46048
▁साहाय्य	-9.46056
▁बहिर	-9.46075
▁योजित	-9.46185
ाध	-9.46198
मुपयुज्य	-9.4627
▁उक्त	-9.46317
▁Search	-9.46323
▁course	-9.46323
▁you	-9.46323
▁example	-9.46323
▁एकाग्रता	-9.46323
▁त्रीण	-9.46323
▁रैट्	-9.46323
▁कृत्स्न	-9.46324
▁आवलि	-9.46324
▁एक्सेस्	-9.46324
ानुग्रह	-9.46325
▁प्रयास	-9.46329
▁कश्चन	-9.46329
▁भूम्या	-9.46334
▁username	-9.46335
▁धन्यवाद	-9.46344
▁tool	-9.46377
▁ज्ञात्वा	-9.4638
▁प्रधान	-9.4642
▁प्राप्नुवन्ति	-9.46421
▁नवीन	-9.46434
▁चिनुम	-9.46453
वर	-9.46499
▁ज्ञास्य	-9.46536
▁टु	-9.46564
िंग्	-9.4657
▁प्रिण्ट्	-9.46587
▁भूमि	-9.46597
▁लिखाम	-9.466
▁उक्तवान्	-9.46611
▁तदर्थम्	-9.46638
▁सम्यग्	-9.4664
प्रदेश	-9.46696
▁दुग्ध	-9.46718
पी	-9.46718
▁search	-9.46758
▁हस्तौ	-9.4677
▁कथयति	-9.46792
▁5.	-9.46864
▁उदर	-9.46898
▁Employee	-9.4693
▁गणित	-9.46934
▁परिमाण	-9.46972
▁शांत	-9.47017
त्थ	-9.47021
▁कस्मिन्	-9.47061
▁सर्वा	-9.47062
▁परिवर्तनानि	-9.47067
यह	-9.47077
▁दूत	-9.47089
▁पितु	-9.47091
▁विकास	-9.47101
▁सूचना	-9.47108
▁आगच्छामः	-9.4713
▁विध	-9.47225
▁ht	-9.47229
▁विशिष्ट	-9.47302
▁कस्याप	-9.47363
▁मेथड्स्	-9.47424
▁प्रती	-9.47499
▁द्रव्य	-9.47608
अस्य	-9.47614
▁गया	-9.47725
ge	-9.47958
▁संगीत	-9.47983
ैश्च	-9.4837
▁वर्	-9.48464
▁आकृत	-9.48481
कारक	-9.4859
▁वृक्षाणा	-9.48618
▁कुर्यात्	-9.48654
मिमा	-9.4868
ाप्	-9.48683
▁नृत्य	-9.48711
ासनम्	-9.48761
▁धर्म्म	-9.48859
▁पात्र	-9.48861
▁शिक्षा	-9.48885
वश्य	-9.49181
कारी	-9.49467
ँ	-9.49474
▁जालपुटं	-9.49489
▁कोण	-9.4951
▁रक्षित	-9.49548
ubl	-9.49641
▁सन्तान	-9.49978
▁जले	-9.5006
करोति	-9.50113
▁re	-9.50469
प्राप्त	-9.50529
▁सर्व्वान्	-9.5065
लेख	-9.50686
▁लिख	-9.50736
कर्तुं	-9.50862
▁w	-9.50928
विवरण	-9.51005
नाश	-9.51011
पुट	-9.51067
क्लिक्	-9.5107
तथा	-9.51111
स्माद्	-9.51124
श्वास	-9.51133
▁अन्यत्	-9.51406
▁पेरामीटर्	-9.51461
इन्	-9.51485
ात्म	-9.51524
नापि	-9.51535
▁आदेशः	-9.51554
▁चिह्न	-9.51564
भवन	-9.51626
up	-9.51748
▁पुण्य	-9.51875
णाय	-9.51916
▁मो	-9.5204
id	-9.52085
इस	-9.52116
टा	-9.52216
▁आनय	-9.52258
भूत्	-9.52263
लेट्	-9.52281
▁प्रचार	-9.52315
▁जान	-9.52343
च्च	-9.52381
सन्ध	-9.52382
न्तरं	-9.5251
अस्माकं	-9.52587
कुर्व्वन्	-9.52831
ंड	-9.52947
ग्राम	-9.53031
▁प्रकृत	-9.53127
मन्य	-9.53161
▁प्राप्स्य	-9.5332
▁कुतो	-9.53349
▁श्व	-9.5345
▁डेटा	-9.53465
▁अधोनिर्दिष्ट	-9.53466
▁quotes	-9.53466
▁आरम्भ	-9.53466
▁कर्सर्	-9.53466
▁क्विज़	-9.53466
▁मैत्री	-9.53466
▁शीघ्र	-9.53466
▁सैनिक	-9.53466
▁उद्घाटयन्त	-9.53467
▁ददामि	-9.53467
▁इत्यादीन	-9.53468
▁भक्ष्य	-9.53468
▁क्रोध	-9.53471
▁मौस्	-9.53471
▁द्योतयति	-9.53471
▁पिञ्ज	-9.53472
▁contact	-9.53473
पात्र	-9.53479
▁व्यायाम	-9.53483
▁case	-9.53491
▁मृत्यु	-9.53495
▁देख	-9.53503
▁विषयकस्य	-9.53505
▁org	-9.53515
▁पूर्ववत्	-9.53537
▁हाथों	-9.53543
▁सुख	-9.53545
▁हाथ	-9.53547
कल	-9.53553
▁जानन्ति	-9.53568
▁यतोहि	-9.53572
▁कर्ण	-9.53573
age	-9.536
▁भ्रातृ	-9.53608
▁रथ	-9.53608
▁मातर	-9.53619
▁नदी	-9.53642
▁अस्तीत	-9.53647
▁समुद्र	-9.53665
▁परिवर्तयामि	-9.53669
▁सर्वदा	-9.5369
▁अवदत्	-9.53721
▁इत्येक	-9.53732
▁Number	-9.5375
▁स्वास्थ्य	-9.5375
▁विहाय	-9.53829
ाक	-9.53834
▁रेकार्ड्	-9.53926
▁Display	-9.53934
▁स्पेस्	-9.53936
▁श्रेष्ठ	-9.53941
▁शारीरिक	-9.53957
त्वयि	-9.5399
भ्र	-9.54002
▁अङ्क	-9.54029
नाम्न	-9.54029
▁वै	-9.54075
▁यूसर्	-9.5412
▁टङ्कयामि	-9.54124
▁date	-9.54136
जि	-9.54197
▁एकस्मिन्	-9.54293
▁दिवस	-9.54321
▁मौल्य	-9.54481
▁परित	-9.54525
▁NMEICT	-9.5468
▁समूह	-9.54685
▁सहायता	-9.54701
▁विवरणं	-9.54917
वास	-9.55083
ाएं	-9.55165
▁गच्छामः	-9.55291
tar	-9.55299
गें	-9.55316
▁वृक्षा	-9.55331
ger	-9.55372
श्वर	-9.55429
▁ग्रन्थ	-9.55458
▁ततस्त	-9.55556
र्श	-9.55571
▁जातम्	-9.55607
▁वाम	-9.55805
िष्यति	-9.55815
▁करना	-9.55953
▁धीरे	-9.5619
▁""	-9.56306
▁!	-9.5638
▁लो	-9.5638
ver	-9.56416
बि	-9.56635
▁आत्म	-9.56694
▁परिवर्त	-9.56832
णी	-9.56932
▁सेव	-9.57005
▁निर्मित	-9.57183
ow	-9.57341
▁योग्य	-9.57342
▁Course	-9.57376
जीव	-9.5738
▁रच	-9.5756
्याः	-9.57649
▁इत्यस्त	-9.57659
el	-9.57659
▁पश	-9.57661
▁ii	-9.57836
▁अतो	-9.57844
स्प	-9.5793
▁तदानी	-9.57975
▁त्यजाम	-9.58028
▁यु	-9.58062
नयन	-9.58069
मू	-9.58101
▁अद	-9.58222
ik	-9.58302
▁St	-9.58308
▁रख	-9.5844
▁20	-9.58447
यतः	-9.58489
▁भज	-9.5861
round	-9.58703
पूर्व	-9.58713
▁मत्	-9.58724
प्रकाश	-9.58736
शक्ति	-9.58744
गमन	-9.58777
▁चित्रस्य	-9.588
पाद	-9.58826
कारण	-9.58842
वायु	-9.5886
▁राज्य	-9.58878
हेतो	-9.58912
ध्या	-9.58917
▁देशे	-9.58954
▁50	-9.59045
कर्म्माण	-9.59147
तस्य	-9.59178
मण्डल	-9.59598
यतु	-9.59608
युक्ता	-9.5976
दण्ड	-9.59804
▁प्रीत	-9.59827
▁जानीम	-9.59838
▁लेख	-9.5995
▁पृच्छ	-9.60016
रित	-9.60124
ीयते	-9.60157
ष्म	-9.60186
▁ज्ञापय	-9.60297
ियों	-9.6044
भग	-9.60472
▁सन्देशं	-9.60539
▁तावत	-9.6056
▁बुद्ध	-9.60609
▁आत्मा	-9.60661
त्या	-9.60715
लोकाना	-9.60716
है	-9.60867
पत्र	-9.60957
ारी	-9.61081
▁अग्नि	-9.61112
▁निष्कासित	-9.61127
▁अधिकविवरण	-9.61154
\	-9.61157
▁सञ्चिकायां	-9.61158
॥	-9.61158
०	-9.61158
▁Next	-9.61158
▁database	-9.61158
▁अप्लिकेशन्	-9.61158
▁उत्पन्न	-9.61158
▁कर्लि	-9.61158
▁नुत्त्वा	-9.61158
Text	-9.61159
▁सुन्दर	-9.61159
▁अभिजान	-9.61159
▁उंगलिय	-9.6116
▁इतीदमुपयुज्य	-9.61164
▁स्तरवर्णिका	-9.61165
▁block	-9.61165
विण्डौ	-9.61166
▁सूचिका	-9.61166
▁Shift	-9.61168
▁संत्यज	-9.61172
▁Blur	-9.61174
▁दर्शयितुं	-9.61176
▁table	-9.61182
▁गन्तुं	-9.61186
▁इच्छन्ति	-9.6119
▁शक्ष्यन्ति	-9.61203
▁कीलफलक	-9.61206
▁fro	-9.61209
▁विनय	-9.6121
▁प्रविष्ट	-9.61212
▁चित्रमिदं	-9.61245
▁Desktop	-9.61271
▁उपलभ्यते	-9.61272
स्त्व	-9.6128
▁प्रदत्त	-9.61293
▁v	-9.61299
▁असैन्	-9.61304
▁नोदनेन	-9.61361
▁इत्येतेभ्यः	-9.61373
▁ब्रह्म	-9.61461
▁अदृश्य	-9.61466
▁प्रस्तुत	-9.61473
▁स्थापयामि	-9.61476
▁नीलवर्ण	-9.61476
मिव	-9.61512
▁तावत्	-9.61545
बॉ	-9.61552
▁स्मरण	-9.61554
▁सम्बन्ध	-9.61575
▁लब्ध	-9.61598
▁Project	-9.61665
▁परित्राण	-9.6167
▁प्रयत्न	-9.61685
जाती	-9.61716
▁आगच्छति	-9.61739
▁ओब्जेक्ट्स्	-9.61762
टल्	-9.61777
▁कर्त	-9.61781
▁फील्ड्स्	-9.61805
ूनां	-9.61811
▁संभव	-9.61838
▁Item	-9.61866
▁सैट्	-9.61869
▁सीवन	-9.61873
▁पटल	-9.61877
▁भरत	-9.61879
▁tha	-9.61921
▁पेज्	-9.61948
▁सर्प	-9.61969
▁दर्शय	-9.61999
पाय	-9.62032
▁अस्मान्	-9.62051
▁संख्या	-9.62069
▁कति	-9.62078
▁home	-9.6208
अप्	-9.62139
▁दन्त	-9.6216
▁एकस्या	-9.62189
▁पर्चन्या	-9.62226
▁जानामि	-9.62237
▁सञ्चय	-9.62259
▁out	-9.62273
▁30	-9.62315
▁आसनानि	-9.62425
▁छात्र	-9.62454
ग्रे	-9.62485
▁शु	-9.62492
▁सदा	-9.62652
▁अधि	-9.62693
▁जब	-9.62818
समय	-9.62829
स्माभिः	-9.62923
▁प्रकृति	-9.62955
▁मनो	-9.62963
▁एन	-9.62967
▁दृष्टि	-9.62995
▁वर्ग	-9.63236
▁सहायक	-9.63349
▁रक्षण	-9.63376
▁>	-9.63543
करणं	-9.63612
राम	-9.63698
▁पङ्क्ति	-9.63764
स्मभ्य	-9.63831
▁आन्	-9.63836
▁पुरुष	-9.63876
▁यश्च	-9.64051
▁पथ	-9.64138
▁येषा	-9.64196
▁प्राणिन	-9.64219
▁स्वीकृत	-9.64341
▁चाल	-9.64473
▁भागः	-9.64524
▁विधान	-9.64587
रव	-9.6462
▁सङ्	-9.64798
र्ग	-9.64859
▁करणम्	-9.64877
▁स्वस्थ	-9.64893
वन	-9.64931
>	-9.65148
▁सन्त	-9.65169
▁नार	-9.65177
▁उद्घाट्यत	-9.65538
▁मुद्रापय	-9.65567
भूय	-9.6576
▁शा	-9.65938
▁महान्	-9.66003
ांश	-9.66174
▁सन्धारिका	-9.66407
▁लोकाः	-9.66425
▁शस्य	-9.66491
N	-9.6662
ne	-9.66789
▁चतुर्	-9.66837
दर्शन	-9.66892
▁9	-9.66936
बाक्स्	-9.67005
=	-9.67051
पङ्क्ति	-9.67186
िनां	-9.67219
स्तत्	-9.67378
परिवर्तन	-9.67584
▁11	-9.67586
▁सङ्ख्यां	-9.67605
1.	-9.67618
▁केन	-9.67645
च्यते	-9.67678
एक	-9.67692
स्मान्	-9.67828
▁लिखत	-9.67984
इति	-9.67999
▁भविष्य	-9.68199
▁भ्रातर	-9.682
ुछ	-9.68246
▁भवत्य	-9.68521
दुर्	-9.68587
ेषां	-9.68606
▁यथार्थत	-9.69176
▁स्वीय	-9.69271
पार्श्व	-9.69441
▁छोड	-9.69489
झ	-9.69491
▁इनिशियलैस्	-9.69492
Order	-9.69492
▁16.04	-9.69492
▁Person	-9.69492
▁उपयोक्ता	-9.69492
▁टण्कय	-9.69492
▁डिलीट्	-9.69492
▁प्रशिक्षण	-9.69492
▁वर्तन्ते	-9.69492
▁श्रद्धा	-9.69492
▁सौजन्य	-9.69492
▁निम्नलिखित	-9.69492
▁सङ्कलन	-9.69492
▁उवाच	-9.69492
▁बभाषे	-9.69492
▁प्रयोजन	-9.69493
▁व्यक्ति	-9.69493
▁मदीय	-9.69493
▁हेरोद	-9.69493
▁इत्यनयो	-9.69493
▁सुलभ	-9.69494
▁नक्षत्र	-9.69495
▁वृद्ध	-9.69496
▁आवर्त	-9.69496
▁जायमान	-9.69497
▁किन्त्वीश्वर	-9.69498
▁format	-9.695
▁बैठ	-9.69502
▁श्रवण	-9.69502
लूप	-9.69503
नृत्य	-9.69506
▁आनन्द	-9.6951
▁नीत्वा	-9.6951
▁grep	-9.69511
▁अणु	-9.69511
▁उदाहरणार्थम्	-9.69513
▁परिवर्तताम्	-9.69513
▁कीवर्ड्	-9.69525
▁कार्बन	-9.69526
▁add	-9.69531
7.0	-9.69533
ww	-9.6954
og	-9.69541
▁page	-9.69545
▁संयोजितुं	-9.69546
▁Page	-9.69552
यिष्यति	-9.69554
rid	-9.69555
ान्त	-9.69561
▁नम्रत	-9.69587
▁प्रार्थय	-9.69592
▁गतवान्	-9.69602
▁Z	-9.69615
▁12	-9.69654
▁पत्राणि	-9.69671
▁यच्च	-9.69674
क्ल	-9.69679
▁एलिमेण्ट्स्	-9.69688
eg	-9.69733
▁आनीय	-9.69741
▁मित्र	-9.69794
▁पृथक्	-9.69832
▁निकटे	-9.69841
ir	-9.69846
▁पर्याय	-9.69854
▁कृतवान	-9.69874
▁पश्यतु	-9.69885
▁जाए	-9.69917
▁राग	-9.69919
▁भुज	-9.69948
▁कहा	-9.69957
ीन्	-9.69958
सहस्र	-9.69969
▁वक्तु	-9.69971
▁करवा	-9.69976
▁आकृति	-9.70036
रेखा	-9.70037
▁Hello	-9.70046
▁तीक्ष्ण	-9.70048
▁केन्द्र	-9.70048
▁एकैक	-9.70117
▁राजत्व	-9.70131
▁यन्त्रे	-9.70143
▁दातव्य	-9.70217
▁प्रसन्न	-9.70279
▁बु	-9.70382
▁परिचय	-9.70436
▁De	-9.7049
▁पाठस्यान्त	-9.7056
▁स्कन्ध	-9.70677
ैड्	-9.70711
▁चोर	-9.70712
▁यादृश	-9.70738
पर्ण	-9.70746
▁वेरियेबल्स्	-9.708
▁अत्रत्य	-9.70811
▁लेट	-9.7084
▁सेवक	-9.70923
▁स्ल	-9.70923
▁फैल्	-9.70928
▁’	-9.70986
▁आत्मान	-9.71099
▁प्रदर्श्यत	-9.71192
मुक्त	-9.7124
▁लाभ	-9.71306
▁अधो	-9.71306
tal	-9.71532
▁बुद्धि	-9.71607
▁प्रकल्पः	-9.71627
▁सर्वर्	-9.7168
▁ईश्वरो	-9.71767
▁माता	-9.71803
घटक	-9.71811
▁क्षण	-9.71969
वल्	-9.72039
ग्रन्थ	-9.72073
▁बाक्स्	-9.72201
▁उस	-9.72212
मार्ज	-9.72521
de	-9.72546
वदत्	-9.72557
▁स्प	-9.72571
श्रम	-9.7261
▁छात्रा	-9.72616
▁as	-9.7267
▁सार	-9.7278
▁एकवार	-9.72797
▁योज	-9.72838
▁अन्तर	-9.72869
धान	-9.72879
▁दूरी	-9.7317
▁प्राप्तम्	-9.73202
▁त्यज	-9.73268
▁अग्रिमं	-9.73309
हीन	-9.7346
लाप	-9.73489
चित	-9.73583
ानुसारेण	-9.73608
▁पाठस्य	-9.73635
ाणाम	-9.73666
▁लेखन	-9.73743
▁एवम्	-9.73779
ूर	-9.7392
▁यद्यद	-9.74016
▁Fil	-9.74059
▁युष्माभि	-9.74421
▁परीक्षा	-9.74438
▁नष्ट	-9.74581
बद्ध	-9.74709
▁साध्य	-9.74721
यर्	-9.74783
ru	-9.74872
्येत	-9.74916
ेयं	-9.75001
▁प्रारम्भ	-9.75013
▁सक्रिय	-9.75058
ide	-9.75078
मिल	-9.75305
▁टि	-9.75313
▁दर्शयाम	-9.75352
▁प्रभ	-9.75465
▁उपविश	-9.7548
ho	-9.75482
विश्वास	-9.75529
▁विष	-9.75555
▁अक्षर	-9.75604
▁प्रधानयाजका	-9.7567
▁txt	-9.75686
ट्ट	-9.75944
▁भवितुम	-9.75959
▁मुद्राप	-9.76047
विचार	-9.76121
कूर्च	-9.7614
▁भविष्यत	-9.76171
क्लास्	-9.76185
इदं	-9.76217
ग्न	-9.76231
राज्य	-9.76287
▁निष्	-9.7632
if	-9.76344
फि	-9.76348
कथा	-9.76365
▁बद्ध	-9.7642
कथय	-9.7643
▁विश्व	-9.76542
मनस	-9.76613
▁ईश्वरः	-9.76625
अतो	-9.76704
तिष्ठति	-9.76724
▁आर्	-9.77081
▁कील	-9.77243
मुख	-9.77455
▁स्थ	-9.77507
ज्ञात	-9.77656
रन्	-9.77677
▁/	-9.77685
▁आद	-9.777
▁बहवो	-9.77734
▁कथन	-9.77736
ont	-9.77744
▁संस्थाप	-9.77844
▁कुर्वन	-9.77859
▁दें	-9.77932
▁वंश	-9.77956
जीवन	-9.78016
▁कुर्वन्	-9.78028
र्ण	-9.78141
▁प्रेषय	-9.78176
यी	-9.78201
▁प्रस	-9.78222
▁उत	-9.78242
ree	-9.78272
ागमन	-9.78287
▁फङ्क्षन्	-9.78306
ll	-9.78358
वेर्	-9.78446
▁पोत	-9.78454
ारम्भ	-9.78467
▁पश्यता	-9.78496
▁tab	-9.78555
ash	-9.7856
demo	-9.78567
▁हथेल	-9.78576
▁सन्निधि	-9.78578
▁क्षुद्र	-9.78582
q	-9.78582
▁error	-9.78582
▁Eclipse	-9.78583
▁administrat	-9.78583
▁window	-9.78583
▁औत्सर्गिक	-9.78583
▁प्रत्यावर्त	-9.78583
Admin	-9.78583
olumn	-9.78583
आर्ग्युमेण्ट्	-9.78583
▁Content	-9.78583
▁Finish	-9.78583
▁Stroke	-9.78583
▁prompt	-9.78583
book	-9.78583
▁पप्रच्छ	-9.78583
▁स्टोर्	-9.78583
angle	-9.78583
▁अवचित्य	-9.78583
▁बिन्दु	-9.78583
▁विनियोग	-9.78583
▁loop	-9.78583
Data	-9.78583
▁टीचर्	-9.78583
▁server	-9.78583
▁रामायण	-9.78583
▁text	-9.78584
▁ताडासन	-9.78584
▁item	-9.78584
▁चर्चा	-9.78584
▁प्रार्थना	-9.78585
▁भूयात्	-9.78587
▁समर्पित	-9.78587
▁हानिकारक	-9.7859
▁हथेलियों	-9.7859
मङ्गल	-9.78592
भिप्राय	-9.78595
पथ	-9.78595
▁द्रक्ष्य	-9.78596
▁शुरू	-9.78598
▁password	-9.78599
▁मनांसि	-9.78599
▁सद्यः	-9.78604
▁हिस्स	-9.78611
▁save	-9.78612
▁मोच	-9.78614
▁तद्यथा	-9.78615
▁जन्म	-9.78615
▁विरुद्ध	-9.78617
▁get	-9.78618
▁कैस	-9.78618
▁मुद्रापयामः	-9.78629
▁ऐच्छ	-9.78636
▁परीक्षितुं	-9.78637
ome	-9.78638
▁us	-9.78648
▁रक्षितुं	-9.78662
▁शेष	-9.78672
▁मेथेड्	-9.78686
▁दत्वा	-9.78691
▁पालन	-9.78696
eet	-9.78709
▁तत्क्षण	-9.78709
▁प्रविश्य	-9.78715
▁मृदु	-9.78727
▁100	-9.7873
▁द्विवार	-9.78737
▁ज्ञायते	-9.78749
ile	-9.78754
▁इण्टर्फ़ेस्	-9.78755
▁variables	-9.78761
▁जानीय	-9.78767
cpp	-9.78772
▁अनुमति	-9.78777
▁प्रेम्न	-9.78804
ार्ह	-9.78826
▁कार्याणि	-9.78847
बोर्ड्	-9.78848
▁वर्ध	-9.78863
▁भय	-9.7887
▁पङ्क्त्या	-9.78871
▁दोनों	-9.78951
▁अत्यन्त	-9.78952
▁साहाय्येन	-9.78953
▁Test	-9.78953
▁हृदय	-9.78957
▁टैप्	-9.78963
▁sed	-9.78979
▁इतो	-9.78994
महा	-9.79002
पेस्ट्	-9.79004
▁वक्ष	-9.79015
PA	-9.79037
▁मेन्	-9.79048
▁इतः	-9.79063
▁मेल	-9.7907
▁इत्यतः	-9.79072
▁उभयो	-9.79074
ितो	-9.79091
▁रक्षति	-9.79141
▁मार्क्	-9.79158
▁रक्तं	-9.7916
rofile	-9.79161
▁यिहूदीया	-9.7917
त्सल	-9.79185
▁सन्निधौ	-9.79191
▁शाखा	-9.79193
▁भवतीति	-9.79243
▁मध्यस्थ	-9.79267
कारिण	-9.79294
lo	-9.79391
▁*	-9.79411
▁पाषाण	-9.79438
▁"""	-9.79491
▁प्रसिद्ध	-9.79498
▁not	-9.79544
रहित	-9.7962
▁वक्त	-9.79646
दत्त	-9.79912
▁संधारिकाया	-9.79922
▁स्वाद	-9.7994
▁आवश्यकं	-9.79974
▁सन्दर्भे	-9.80164
स्माभि	-9.80295
ागता	-9.80349
▁यावद	-9.80405
▁प्रदर्शन	-9.80408
tion	-9.80484
▁कुर्वन्त	-9.8049
▁प्रह	-9.80492
▁एकमेव	-9.80494
▁शाक	-9.80497
om	-9.80564
▁क्रीडा	-9.80668
▁an	-9.80687
▁तर्ज	-9.80731
स्थल	-9.81011
▁समर्थ	-9.81095
▁जाते	-9.81308
con	-9.81308
▁सीध	-9.81511
▁हत	-9.81555
▁पठाम	-9.81633
▁भारत	-9.81757
▁दा	-9.81838
▁वदन	-9.81859
विधान	-9.81886
▁प्रत्येकस्य	-9.82041
▁दर्शनं	-9.82097
▁जानुन	-9.82317
▁line	-9.82386
10	-9.82528
▁मानवा	-9.82584
ce	-9.82649
अप	-9.82664
▁Fi	-9.82778
्येन	-9.82794
▁तेषाम	-9.82797
▁जालपुट	-9.8285
▁नाश	-9.82893
यद्यपि	-9.83011
यथा	-9.83146
ाहूय	-9.83256
▁मनः	-9.83586
ch	-9.83639
alk	-9.83743
▁तत्पश्चात	-9.83896
रण्य	-9.83897
ंगल	-9.83949
▁प्रत्यक्ष	-9.8397
भ्यां	-9.84052
▁कृतम्	-9.84075
ेत्य	-9.84259
ख्य	-9.8426
▁कुर्	-9.84285
▁गति	-9.84327
स्तेन	-9.84414
▁क्रुशे	-9.84485
रफ	-9.84492
दैव	-9.84636
देशस्य	-9.84694
घात	-9.84698
▁चिह्नं	-9.84726
▁सन्ताना	-9.84738
ही	-9.84747
ण्ट्	-9.84763
▁हर	-9.84801
ात्मान	-9.84929
तव्यम्	-9.85043
लिप्	-9.85063
▁तद्वद	-9.85155
भूता	-9.8519
कला	-9.85215
राज्यस्य	-9.85254
चयन	-9.8541
▁शि	-9.85448
सह	-9.85453
ितवन्तः	-9.85576
▁एतान्	-9.85578
▁on	-9.85689
लु	-9.85711
ाचर	-9.85938
द्वार	-9.85941
▁बभूव	-9.86042
▁उभय	-9.86081
निर्माण	-9.86091
▁प्राप्ता	-9.861
संगीत	-9.86109
यूय	-9.86117
while	-9.86122
log	-9.8613
ial	-9.86137
G	-9.86153
Name	-9.86154
test	-9.86167
इत्यस्मै	-9.86183
सहाय	-9.86201
तर्हि	-9.8625
▁डी	-9.86328
श्वरस्य	-9.86341
▁कम	-9.86342
नियम	-9.86381
▁विश्वस	-9.86427
में	-9.86539
▁एताः	-9.86579
▁जीवा	-9.86601
टर्	-9.86665
▁मन्दिरं	-9.86793
अथ	-9.86808
य्य	-9.86839
us	-9.86899
▁समुप	-9.86917
रोध	-9.86963
▁अन्व	-9.87034
ve	-9.87061
▁इत्येष	-9.87087
▁रूपे	-9.87118
ृष्टं	-9.87184
▁नौका	-9.87191
येत्	-9.87233
युग	-9.87304
एव	-9.87365
▁जनः	-9.87366
चरण	-9.87387
▁चेष्ट	-9.87424
man	-9.87509
दशा	-9.87573
ष्ण	-9.87649
ष्प	-9.87662
क्षण	-9.87706
▁जगतो	-9.87722
कृत्	-9.8773
▁योषित	-9.87869
▁कस्मिन	-9.87883
त्वात्	-9.87925
▁कण्डी	-9.88006
सज्ज	-9.88117
नाम्ना	-9.8817
▁रात्र	-9.88205
▁योजयाम	-9.88224
▁इतोऽप	-9.88229
टर	-9.8824
▁Type	-9.88292
ेन्स्	-9.88369
▁गृहकार्य	-9.88507
▁प्रेषित	-9.88516
ystem	-9.88534
Web	-9.88583
gmail	-9.88583
धार्म्मिक	-9.88583
प्रदूषण	-9.88583
—	-9.88583
▁Netbeans	-9.88583
▁Serial	-9.88583
▁URL	-9.88583
▁teacher	-9.88583
▁अड्रेस्	-9.88583
▁उपयोक्तव्य	-9.88583
▁मेसेज्	-9.88583
▁शुष्क	-9.88583
▁संक्षेप	-9.88583
▁संतुलन	-9.88583
ozilla	-9.88583
▁array	-9.88583
▁option	-9.88583
▁अन्वेषण	-9.88583
▁वामभागे	-9.88583
▁आरभत	-9.88583
ICT	-9.88583
▁जानीथ	-9.88583
▁करोषि	-9.88583
web	-9.88583
▁आगामि	-9.88583
▁इत्यादय	-9.88585
▁पास्वर्ड्	-9.88585
Run	-9.88585
jsp	-9.88585
▁आवल्या	-9.88585
▁गोशालाया	-9.88587
▁गतिविधि	-9.88587
▁General	-9.88587
▁कूर्पर	-9.88587
▁भवत्सु	-9.88588
▁महत्वपूर्ण	-9.88589
▁ग्रन्थालय	-9.8859
▁mask	-9.88591
▁प्लग्	-9.88593
▁व्यवस्थापयितु	-9.88598
▁याजक	-9.88603
▁बह्व	-9.88603
▁आगे	-9.88606
▁आस्ते	-9.88609
▁ओपन	-9.88614
▁दृश्येत	-9.88614
▁गात्र	-9.88616
▁दिया	-9.88617
▁Path	-9.88625
▁कन्या	-9.88629
▁गमन	-9.88632
ub	-9.88632
▁निष्कासयन्तु	-9.88636
▁मेघ	-9.88639
▁वह्नि	-9.88649
▁वितर	-9.8865
▁दुष्ट	-9.88659
ीकर्तुं	-9.88665
▁कर्षयामि	-9.88665
मारभ्य	-9.88666
शील	-9.88674
▁लभ्यते	-9.887
▁अवलोक्यताम्	-9.88701
▁स्वीकरोत	-9.88719
▁पूजा	-9.88719
▁HTML	-9.88733
डाइ	-9.88745
▁रक्षन्तु	-9.88766
▁तद्वत्	-9.88797
▁सर्वविध	-9.888
▁वदन्ति	-9.88805
im	-9.88811
▁आद्यता	-9.88811
▁शीर्षक	-9.88814
▁पृष्टवान्	-9.88827
▁गृहीत	-9.88846
▁अंश	-9.88874
▁मांसपेशियो	-9.8888
▁तथ्य	-9.88883
ोऽयं	-9.88893
▁कल्पय	-9.88895
वपु	-9.88907
▁शिमोन्	-9.8892
▁To	-9.88926
▁इत्यस्यानन्तरं	-9.88959
▁हरित	-9.88978
▁सम्पर्क	-9.88992
▁निष्कासन	-9.88992
▁करणाय	-9.89042
▁अर्ध	-9.89067
▁थे	-9.89077
▁भवथ	-9.8911
▁कुतः	-9.89146
कर्तुमहं	-9.89172
▁लग	-9.89177
सागर	-9.8918
▁मानुष	-9.8919
पेटिका	-9.89191
पृथ्वी	-9.89218
▁ऊ	-9.89229
▁Create	-9.89258
▁प्रवेश	-9.89259
▁स्तम्भ	-9.8926
▁उपकरण	-9.89263
▁सम्मुख	-9.89263
▁एकेन	-9.89271
▁अपेक्षित	-9.89284
▁भेद	-9.89289
▁सोपान	-9.89295
source	-9.89302
▁उपविशेत	-9.89367
▁स्थापयामः	-9.89415
▁roll	-9.89417
▁इदानीमह	-9.8942
दायक	-9.89444
▁सर्वत्र	-9.89471
▁मृत्तिका	-9.89512
गत्य	-9.89555
ाचार्य	-9.89601
ag	-9.89649
▁परिशीलयाम	-9.89661
▁फलानि	-9.89692
▁मत्स्य	-9.89692
▁आचार्य	-9.89694
▁गच्छामि	-9.89716
▁स्वस्य	-9.89721
लैब्ररि	-9.89729
▁विधि	-9.89744
▁एर	-9.89771
▁चक्र	-9.89803
▁यदाह	-9.89815
▁लक्षण	-9.89826
▁विभागे	-9.89958
▁Intro	-9.90066
▁नोदन	-9.90078
हो	-9.90178
Sum	-9.90232
▁सफल	-9.90239
▁डिस्	-9.9033
बंद	-9.90345
▁जानीमः	-9.9035
▁विन्यास	-9.90366
्यतां	-9.90415
▁पाठान्	-9.90523
▁राजान	-9.90668
▁स्थापयितु	-9.90737
▁सृष्ट	-9.90818
करणम्	-9.90852
▁User	-9.9088
▁व्रज	-9.90883
▁प्रकारेण	-9.90901
▁कर्षण	-9.90924
▁परिवर्तितु	-9.90946
▁रहे	-9.90991
▁चित्रण	-9.91064
गति	-9.91176
▁बा	-9.91231
▁कमर	-9.91242
ly	-9.91283
स्तद्	-9.9142
ागच्छत	-9.91439
▁अहमिद	-9.9146
▁नगरे	-9.91469
टो	-9.91688
▁यिहूदीयाना	-9.91708
▁मति	-9.91715
▁विश्वास्य	-9.91756
मधि	-9.91761
▁स्वेषा	-9.9192
कर्तव्य	-9.91939
▁कापि	-9.92007
▁नेम्	-9.9212
use	-9.9218
क्षन्	-9.92205
▁जातं	-9.92272
tr	-9.9232
▁दाय	-9.92449
▁जाना	-9.92453
▁नयति	-9.92621
▁स्थल	-9.92899
▁उद	-9.9297
नार्थं	-9.93067
ेकं	-9.93328
▁तैर	-9.93389
▁मत्त	-9.93516
▁उद्घाट्य	-9.93587
▁बिन	-9.93696
30	-9.93772
तस्मिन्	-9.93791
▁पास्	-9.93818
▁र्यद	-9.93831
▁तदह	-9.939
ST	-9.93922
▁क्षम	-9.9393
▁वाच	-9.9398
महस	-9.94001
मप्य	-9.94078
वल	-9.94122
▁वस्तुत	-9.94219
▁नामक	-9.94301
▁बहूना	-9.94389
▁सारं	-9.9441
▁प्रजा	-9.94423
▁विवाद	-9.94616
▁आकार	-9.94692
लम्ब	-9.94695
ीकृत्य	-9.9494
लय	-9.94993
ोर्ट्	-9.95001
▁निवेश	-9.95011
▁तत्स्थान	-9.9507
र्यीशुख्रीष्टस्य	-9.95082
देशीय	-9.95181
ut	-9.95486
ानुसारं	-9.95547
▁अट	-9.95658
ास्ता	-9.95745
▁बहुत	-9.95941
▁अन्तिमं	-9.96195
ther	-9.96393
▁निर्म	-9.96404
▁पठना	-9.96433
▁किमर्थ	-9.96633
देह	-9.96673
no	-9.9671
▁स्वान्	-9.96766
▁स्ट्र	-9.96906
वारं	-9.96917
▁तेज	-9.96956
भविष्य	-9.96975
ओ	-9.97006
व्रज	-9.97186
V	-9.9723
मेन्यु	-9.97246
ख्रीष्ट	-9.97277
मेथड्	-9.97288
स्त्र	-9.97325
ase	-9.97449
गीत	-9.97457
स्यास्य	-9.97547
्यो	-9.97548
बलेन	-9.97585
ङ्क्	-9.97588
अरे	-9.97594
तरं	-9.97639
ात्मा	-9.97651
दिष्ट	-9.9769
▁परिवर्तयन्त	-9.97705
▁आगच्छाम	-9.97887
पश्यत	-9.97936
ष्टु	-9.98045
▁इदानीम	-9.98106
▁आदर	-9.98108
▁वन	-9.98154
ul	-9.98252
▁युष्मानह	-9.98454
रिया	-9.98531
▁नाव	-9.98567
▁उपयोगः	-9.98656
▁Ra	-9.987
▁पाठनियोजन	-9.98711
र्थं	-9.98741
ोद्ध	-9.98831
▁सीता	-9.9899
▁स्पोकन	-9.99011
▁ख्रीष्टो	-9.99016
करणार्थ	-9.99018
▁माम्	-9.99055
शिष	-9.99083
▁कुर्म	-9.99101
मुप	-9.99112
वर्ग	-9.99136
▁नियन्त्र	-9.99194
▁वदाम	-9.99276
▁औषध	-9.99283
▁उपलभ्य	-9.994
ure	-9.99404
um	-9.99422
▁आपरेटर्	-9.99424
▁एलिमेण्ट्	-9.99429
▁आरभ्य	-9.99529
▁फिरूशिन	-9.99557
दनन्तरं	-9.99562
▁गृह्ण	-9.99591
▁यतस्त	-9.99607
▁सावधान	-9.99616
erminal	-9.9962
शिश	-9.99629
▁इच्छा	-9.99633
िदं	-9.9965
▁धृत	-9.99667
ार्थम	-9.99674
▁Exce	-9.99689
Insert	-9.99694
ण्टेक्स्	-9.99694
▁Exp	-9.99694
▁ध्वन्यङ्कन	-9.99694
▁पेकेज्	-9.99694
▁वाञ्छ	-9.99694
]	-9.99694
aussian	-9.99694
▁11.10	-9.99694
▁Apache	-9.99694
▁Build	-9.99694
▁KTouch	-9.99694
▁MARC	-9.99694
▁Patron	-9.99694
▁email	-9.99694
▁engine	-9.99694
▁अनन्तरम्	-9.99694
▁अस्थीनि	-9.99694
▁इम्पोर्ट्	-9.99694
▁उल्लेख	-9.99694
▁घुटन	-9.99694
▁विवृत	-9.99694
▁शृणोत	-9.99694
▁सूर्यनमस्कार	-9.99694
▁स्क्रीन्	-9.99694
[	-9.99694
work	-9.99694
लिस्ट्	-9.99694
▁Step	-9.99694
▁color	-9.99694
▁अधोलिखित	-9.99694
सामग्री	-9.99694
▁MarcEdit	-9.99694
▁single	-9.99694
▁इच्छति	-9.99694
▁युगपत	-9.99694
link	-9.99694
Demo	-9.99694
ema	-9.99694
भिषिक्त	-9.99694
gedit	-9.99695
▁विस्मर	-9.99695
▁यदस्ति	-9.99695
▁MySQL	-9.99695
▁run	-9.99695
व्यत्यास	-9.99695
वोक्	-9.99697
▁Navigat	-9.99697
▁ऐटम्	-9.99697
pdf	-9.99697
लोञ्चर्	-9.99697
▁सुधार	-9.99697
▁edit	-9.99698
▁रावण	-9.99698
▁दृश्यमान	-9.99699
▁हड्ड	-9.99699
▁प्राप्नोमि	-9.99699
ुह्य	-9.997
▁स्पृश	-9.997
ign	-9.99701
▁DNA	-9.99703
▁Tool	-9.99703
▁सारांश	-9.99704
▁विद्यन्ते	-9.99706
▁असैन्मेण्ट्	-9.99708
▁त्यक्त्वा	-9.99708
एड्मिनिस्ट्रेटर्	-9.99709
ोपदेश	-9.9971
request	-9.9971
▁अवशिष्ट	-9.99714
▁उन्ह	-9.99714
ेष्व	-9.99716
▁योजयन्तु	-9.9972
▁शिशु	-9.99722
▁निचल	-9.99727
▁सेट्टिङ्ग्स्	-9.99742
▁Rol	-9.99743
▁शक्नुथ	-9.99748
▁string	-9.9975
▁गुरो	-9.99752
▁पलाय	-9.99755
▁सावधाना	-9.99772
▁स्थापयित्वा	-9.99774
गोचर	-9.99777
▁3.3	-9.9978
▁बनाए	-9.9978
▁दीयते	-9.99793
▁गच्छतु	-9.99803
मिशन्	-9.99805
▁महाभाग	-9.99808
▁मास्तु	-9.99809
▁आश्चर्य्य	-9.9982
▁कियते	-9.99825
▁तच्च	-9.99825
लेखन	-9.99828
▁उपलभ्यमान	-9.99829
▁form	-9.99833
▁अतीव	-9.99836
▁करिष्यति	-9.99838
▁कथयामि	-9.99839
dro	-9.99843
ग्राह	-9.99858
▁display	-9.99862
▁java	-9.99862
▁स्मरन्तु	-9.99871
▁वयमिद	-9.99874
▁आपरे	-9.99907
▁अहमेव	-9.99912
▁संयोजयाम	-9.9992
▁चेद	-9.9995
ुत्तम	-9.99952
▁आयाति	-9.99961
ञ्चेत्	-9.99975
▁स्वशरीर	-9.99996
▁बाद	-10.0005
▁हन्तु	-10.0009
▁Types	-10.0009
▁Con	-10.001
▁Manage	-10.001
▁देन्	-10.0014
▁क्रमश	-10.0015
▁data	-10.0015
▁println	-10.0015
▁value	-10.0015
▁version	-10.0015
▁शोणित	-10.0015
▁स्लैडर्	-10.0015
▁Checkout	-10.0016
▁पुनरपि	-10.0016
▁भावना	-10.0016
▁धेनवस्य	-10.0022
▁अस्तु	-10.0023
स्तर्हि	-10.0029
गच्छन्ति	-10.0031
▁किञ्चिद्	-10.0033
▁बालकाः	-10.0037
▁भवामि	-10.0038
▁स्थापयति	-10.0038
▁स्थापन	-10.0043
▁रस	-10.0043
तिष्ठन्	-10.0043
▁परिवर्तयामः	-10.0044
▁हु	-10.0044
▁grade	-10.0045
▁स्रोत	-10.0045
▁दिनाङ्क	-10.0045
▁सिस्टम्	-10.0045
▁अच्छ	-10.0048
▁जागरूकता	-10.0054
ive	-10.0057
▁विश्वसित	-10.006
िक्स्	-10.0061
▁...............	-10.0061
▁पाठनियोजनम्	-10.0069
ick	-10.0069
▁address	-10.0076
▁return	-10.0076
▁विपक्ष	-10.0076
्यै	-10.0089
▁भवामः	-10.0089
िष्यामः	-10.0093
▁marks	-10.0094
▁पर्वत	-10.0095
प्रकार	-10.0097
▁पठितु	-10.0099
▁अभ्यासाय	-10.0099
▁संधारिका	-10.0104
▁struct	-10.0106
▁एतयो	-10.011
▁मेष	-10.0111
▁धन्या	-10.0113
▁ताप	-10.0114
▁क्षमता	-10.0118
▁भार्य्या	-10.0135
घटना	-10.0143
सहित	-10.0151
▁रि	-10.0154
▁परमेश्वरस्य	-10.0156
▁आपको	-10.016
▁कथाया	-10.0162
▁भारतीय	-10.0166
स्ट्रक्	-10.0175
▁हानि	-10.0176
▁कीटा	-10.018
▁क्लोस	-10.0185
▁कीदृश	-10.0204
▁शास्त्र	-10.0207
पक्षी	-10.0209
▁कारणात्	-10.021
▁तात	-10.0213
▁विद्यमाना	-10.0218
▁j	-10.0218
▁आज्ञा	-10.0222
▁शिव	-10.0226
▁विभागस्य	-10.0239
▁उपयुज्यमान	-10.024
इसलिए	-10.0241
▁अह	-10.0248
ill	-10.0249
18	-10.0253
▁समित	-10.0271
▁आवश्यकम्	-10.0275
▁बालिक	-10.0281
▁वारं	-10.0286
▁पृथिव्यां	-10.0286
one	-10.0288
▁प्रयत	-10.0307
has	-10.0308
▁खाद	-10.0317
io	-10.0333
▁बाय	-10.0339
▁पृष्ठे	-10.0347
▁युष्माभिर	-10.0356
▁भवत्या	-10.038
▁set	-10.0396
▁मान	-10.0407
▁बहून्	-10.0417
▁इमान्	-10.0419
▁नियुक्त	-10.0427
▁वृ	-10.0429
▁आया	-10.0437
▁नैव	-10.0444
्यताम्	-10.0476
ितम्	-10.0481
▁प्रथमत	-10.0494
यथार्थ	-10.05
पाप	-10.0563
▁सङ्ख्याः	-10.0607
्रुत	-10.0614
▁लेन	-10.0619
▁प्रत्यवद	-10.0642
▁तन्न	-10.0643
धिकार	-10.0648
▁यावन्त	-10.0649
▁प्रदेश	-10.0656
▁आप्षन्	-10.0662
▁किस	-10.0664
▁No	-10.0669
▁श्लोकाना	-10.0669
▁मिलित	-10.0673
▁मूल्यान	-10.0677
कट्	-10.0678
पाठार्थं	-10.0695
▁पेट	-10.0708
पूज	-10.0708
ालय	-10.0784
डै	-10.0786
शक्ते	-10.0789
▁प्रतिष्ठाप	-10.0804
▁द्वयम	-10.0821
ापेक्षया	-10.0823
दूर	-10.0826
▁प्रकट	-10.083
▁तिष्ठ	-10.0852
▁ह्य	-10.0859
स्माकम	-10.0863
नात्	-10.0877
द्रव्य	-10.0878
▁अवद	-10.0893
▁स्वरूप	-10.0899
▁लोकाना	-10.0905
ेक्टर्	-10.0914
▁गीता	-10.0947
सम्बद्ध	-10.096
ध्वनि	-10.0963
सैन्	-10.0964
शास्त्र	-10.0968
प्रश्न	-10.0971
▁इतीद	-10.0973
ब्रौसर्	-10.0974
माध्यम	-10.0974
अतएव	-10.0974
Spoken	-10.0976
विशेष	-10.0978
प्राप्य	-10.0978
वेरियेबल्	-10.0979
दूत	-10.0979
space	-10.098
लाभा	-10.098
▁अश्व	-10.098
प्रकारेण	-10.0981
पवित्र	-10.0982
.......	-10.0985
ादिभि	-10.0986
gin	-10.0989
स्तान्	-10.0995
rrow	-10.1
दोष	-10.1002
बाल	-10.1011
विषयान्	-10.1026
तस्मात्	-10.1035
▁उपलब्ध	-10.1061
references	-10.1069
▁ma	-10.1089
pen	-10.1102
▁विचारयित	-10.1103
▁वीक्ष	-10.1107
कुल	-10.1109
ितवन्त	-10.1116
▁दर्शन	-10.1119
▁योजनीय	-10.112
▁किञ्चिद	-10.1149
▁पश्चाद	-10.115
▁आसीत	-10.1151
▁लभ	-10.1152
▁गान	-10.1156
▁सक्षम	-10.116
कथयत्	-10.1179
नामानि	-10.1179
र्त्तु	-10.118
मुद्रा	-10.1195
▁फ़ोर	-10.1195
.04	-10.1195
रियल्	-10.1196
▁उच्च	-10.1201
रोल्	-10.1206
स्केप्	-10.1207
▁मूसा	-10.1214
ांसि	-10.1216
िष्यध्वे	-10.1216
pac	-10.1217
▁धूसर	-10.1217
▁मधु	-10.1217
aria	-10.1218
िष्यथ	-10.1218
Details	-10.1219
▁कतिपय	-10.1219
▁दिशा	-10.1219
▁पिदध	-10.1219
▁Super	-10.1219
nglish	-10.1219
▁change	-10.1219
▁उपयोक्त्र	-10.1219
▁डीफोल्ट्	-10.1219
▁पृथिवी	-10.1219
▁प्रोसेस्	-10.1219
Calculus	-10.1219
Message	-10.1219
You	-10.1219
ॆ	-10.1219
४	-10.1219
▁Brush	-10.1219
▁Database	-10.1219
▁German	-10.1219
▁PHP	-10.1219
▁Supplier	-10.1219
▁index	-10.1219
▁show	-10.1219
▁अंगूठ	-10.1219
▁अवसर्पिणी	-10.1219
▁उद्घाटयति	-10.1219
▁उद्दिश्य	-10.1219
▁चलच्चित्र	-10.1219
▁जिह्वा	-10.1219
▁न्यूनातिन्यून	-10.1219
▁प्रवाचक	-10.1219
▁प्रवेष्टु	-10.1219
▁भवितुमर्हति	-10.1219
▁राष्ट्रिय	-10.1219
▁वज्रासन	-10.1219
▁व्याल्यू	-10.1219
title	-10.1219
क्याटलाग	-10.1219
ध्वन्यङ्कनायाहम्	-10.1219
▁Tax	-10.1219
▁आरोह	-10.1219
▁उच्चारण	-10.1219
▁दद्मः	-10.1219
▁मिनट	-10.1219
▁मृषा	-10.1219
▁निश्चिनो	-10.1219
▁भ्राता	-10.1219
▁सम्मिलित	-10.1219
▁vertic	-10.1219
▁प्रकल्पगणः	-10.1219
▁ददातु	-10.1219
▁विवृणोति	-10.1219
ोत्पाद	-10.1219
▁विस्तार	-10.1219
▁शक्यन्ते	-10.1219
pload	-10.1219
▁जायन्ते	-10.1219
▁object	-10.122
▁पीठ	-10.122
▁पोप्	-10.122
▁भगवत	-10.122
▁शत्रु	-10.122
String	-10.122
gcc	-10.122
▁open	-10.122
▁अभवन्	-10.122
▁शौल	-10.122
▁Downloads	-10.122
▁शङ्का	-10.122
▁स्थाप्यते	-10.122
सूचक	-10.122
▁लिंक	-10.122
▁Entry	-10.122
tics	-10.122
साक्षरता	-10.122
▁घृत	-10.122
▁सीख	-10.1221
evel	-10.1221
▁वार्त्ता	-10.1221
▁लङ्का	-10.1221
▁चक्षु	-10.1221
▁import	-10.1221
▁image	-10.1221
▁इत्यस्योपयोग	-10.1221
▁Open	-10.1221
▁द्रष्टुम्	-10.1222
▁Class	-10.1222
▁दक्षिणपाद	-10.1222
स्टेटिक्	-10.1222
▁खेल	-10.1222
सर्च्	-10.1222
▁Settings	-10.1222
▁लेखितुं	-10.1222
▁इच्छामि	-10.1223
▁सिंह	-10.1223
▁दत्तांश	-10.1223
▁Bio	-10.1223
▁उच्यते	-10.1223
▁अप्लोड्	-10.1224
co	-10.1224
ैतत्	-10.1224
▁अवशोषित	-10.1225
▁रचयित्वा	-10.1225
▁निष्कासितुं	-10.1225
▁ताडय	-10.1226
▁रक्तवर्ण	-10.1226
▁मुद्रापयितुं	-10.1227
▁युष्मत्समीप	-10.1227
▁धीम	-10.1228
▁जाऐं	-10.1228
▁Av	-10.1228
▁स्थगय	-10.1228
ian	-10.1229
▁स्वस्व	-10.1229
▁स्थातु	-10.1229
▁आसक्त	-10.123
▁ज्ञातव्य	-10.123
▁mode	-10.1231
▁दीप	-10.1231
▁व्यवस्थायाः	-10.1233
▁दत्तवन्तः	-10.1234
▁पत्रिका	-10.1235
▁Purchase	-10.1235
▁records	-10.1236
▁ओपरेटर्स्	-10.1236
▁कथमिति	-10.1237
▁सन्धि	-10.1237
▁अकरोत्	-10.1238
▁field	-10.1239
▁पूर्वमेव	-10.124
▁बो	-10.124
▁उपदेश	-10.1241
▁इष्ट	-10.1242
▁ईक्	-10.1242
▁धाव	-10.1244
▁फ़ोर्म	-10.1244
▁अनुवादक	-10.1253
▁निम्न	-10.1254
ङ्गल्	-10.1254
स्त्री	-10.1255
▁निर्माति	-10.1259
▁परिधा	-10.1263
Setup	-10.1266
cy	-10.1267
▁समस्त	-10.1268
▁प्रतिज्ञा	-10.127
▁Sample	-10.1271
▁विपरीत	-10.1272
▁account	-10.1272
▁student	-10.1272
▁अर्रे	-10.1272
▁प्रातः	-10.1272
▁आव	-10.1273
▁स्वामी	-10.1273
▁सिंहासन	-10.1274
▁printf	-10.1275
▁वर्त्तमान	-10.1276
▁यन्न	-10.1277
▁स्क्रिप्ट्	-10.1277
▁सएव	-10.1281
2.	-10.1286
▁प्रतिदिन	-10.1287
▁यतोऽह	-10.1287
▁यीशुना	-10.1293
▁रात्रि	-10.1294
बंध	-10.1294
▁पुटे	-10.13
▁स्मर्यता	-10.13
▁Bank	-10.1306
▁Google	-10.1306
▁admin	-10.1306
▁डेटाबेस्	-10.1306
▁Bo	-10.1306
▁मोड	-10.1308
द्रित	-10.1312
▁विनाश	-10.1313
▁भुञ्ज	-10.1314
▁उपयुञ्जे	-10.132
ाचार	-10.1322
▁कर्म	-10.1322
▁मिलति	-10.1326
▁पहले	-10.1327
▁बै	-10.1329
▁छा	-10.1329
पन्न	-10.1332
ट्ठ	-10.1333
ोऽन्य	-10.1334
dd	-10.1337
▁लिखामि	-10.1337
द्वयस्य	-10.1339
▁करतल	-10.1341
▁समाज	-10.1342
▁सामन	-10.1357
▁ध्वनि	-10.136
▁iv	-10.1364
▁काण्ड	-10.1368
▁$	-10.1375
▁सम्पुट	-10.1376
बाहु	-10.1382
▁कथितवन्त	-10.1383
▁नोड्	-10.1384
रुण	-10.1384
▁Pa	-10.1387
िङ्क्	-10.1393
त्त्व	-10.1394
▁पूप	-10.1395
▁बन्धन	-10.1396
▁चन्द्र	-10.1403
ातृ	-10.1405
40	-10.1406
▁वेग	-10.1408
▁परिवर्तनीय	-10.1409
▁पाठमिद	-10.1421
▁und	-10.1444
▁बजेट्	-10.1445
▁तुल्य	-10.1446
▁ID	-10.1456
पञ्च	-10.1458
▁वच	-10.1462
▁योहन्	-10.1468
▁एतादृशी	-10.1471
▁सुर	-10.1476
माला	-10.1483
▁प्रकारस्य	-10.1483
वन्तौ	-10.1484
▁विद	-10.1487
निधि	-10.149
▁इत्यस्यार्थं	-10.1491
▁पुट्	-10.1493
▁पितामह	-10.1494
▁श्वसनम्	-10.1507
विक	-10.1508
▁ट्युटोरियल्स्	-10.1517
▁ततस्ते	-10.1519
▁जीवनस्य	-10.1521
▁गौ	-10.1534
Re	-10.1555
लित	-10.156
▁पति	-10.1565
ितव्यं	-10.1578
▁र्नि	-10.1592
▁पालय	-10.1598
▁पित	-10.1613
▁ye	-10.1614
ाक्ष	-10.1621
देशीयाना	-10.1624
▁Nor	-10.163
librar	-10.1634
प्राप्ति	-10.1635
मभवत्	-10.1636
▁पू	-10.1636
lor	-10.1636
्रेटर्	-10.1643
▁याति	-10.1649
कोट्स्	-10.1654
▁संस्था	-10.1658
▁गतः	-10.1673
▁कथयितु	-10.1684
▁संस्थापन	-10.1689
चतुर्थ	-10.1693
मैल	-10.1699
वर्तते	-10.1715
दाता	-10.1721
▁कारक	-10.1726
ty	-10.1731
▁काल्	-10.1735
escript	-10.1787
▁सत्यम्	-10.1794
दास	-10.1795
़्	-10.1819
▁सेना	-10.1826
ागतवन्तः	-10.1831
▁कतिच	-10.1831
व्यवस्था	-10.1864
वाहन	-10.1883
▁अण्ड	-10.1887
▁जप	-10.1906
ting	-10.1913
▁खाद्य	-10.1921
mb	-10.1922
▁रक्षा	-10.1925
▁स्तरे	-10.1937
ाघात	-10.1938
▁पराक्रम	-10.1944
ुष्ठ	-10.1947
सङ्ग	-10.1959
▁यद्य	-10.1978
ृश	-10.1984
tein	-10.2004
▁वस्तून	-10.2006
▁आसन्	-10.2022
बुद्धि	-10.2041
चिन	-10.2049
▁25	-10.2058
▁किय	-10.2061
ेण्ट्	-10.2067
▁कीलके	-10.2073
ोफ़	-10.2081
▁21	-10.2087
▁यतस्ते	-10.2096
ical	-10.2101
विन	-10.2103
िट्	-10.2121
▁शिरस	-10.2129
▁लु	-10.215
▁साक्ष	-10.2159
वोचत्	-10.2167
▁तादृशा	-10.2187
भक्ति	-10.2187
निमित्त	-10.2191
▁निर्मिता	-10.2194
▁प्रकाशित	-10.2194
गल	-10.2211
ater	-10.2231
▁तत्सम्बद्ध	-10.2237
प्रयोग	-10.2245
▁अनेका	-10.2251
▁जिस	-10.2281
▁साक	-10.2292
▁जि	-10.2299
▁प्लस	-10.2302
▁लगा	-10.2306
▁तारा	-10.2319
प्रत्यय	-10.2325
मये	-10.2334
संधारिका	-10.2344
▁कीदृ	-10.2348
▁प्राप्तवान	-10.2355
▁पीलात	-10.236
▁मृगय	-10.2376
श्वरेण	-10.2379
▁अनुसार	-10.238
रचना	-10.2382
बजेट्	-10.2394
right	-10.2395
मनुज	-10.2397
यीशु	-10.2397
नोदन	-10.2397
सन्दर्भे	-10.2398
फैल्	-10.2399
विन्यास	-10.24
श्वसन	-10.24
NMEICT	-10.2401
समूह	-10.2401
dio	-10.2404
टर्मिनल्	-10.2404
मनुष्य	-10.2405
user	-10.2405
पुण्य	-10.2406
ID	-10.2408
Book	-10.2408
कारेण	-10.2408
प्रभु	-10.2408
कुर्वन्तु	-10.2409
कारणात्	-10.2418
▁सर्वान	-10.2419
स्थापय	-10.2457
und	-10.2464
▁सेवा	-10.2469
ादाय	-10.2478
▁दृष्टान्त	-10.2478
▁अनुसर	-10.2481
ous	-10.2483
ju	-10.2508
▁भवाम	-10.2513
▁भवेयु	-10.2515
▁पर्व	-10.2517
बीजानि	-10.252
तुल्य	-10.2524
▁उपयुञ्ज	-10.2534
▁पठन	-10.2542
ource	-10.2544
जब	-10.2545
▁निष्कासय	-10.2546
▁तस्मा	-10.2563
स्वरा	-10.2566
▁सम्यग	-10.2569
▁आह	-10.257
▁तस्मिन	-10.258
▁कोर्स	-10.2581
▁तदर्थम	-10.2586
▁प्रविश	-10.2599
▁तर्ह्य	-10.2599
ध्वम्	-10.26
विवाह	-10.2604
▁मन्त्र	-10.2605
▁अर्थात	-10.2606
ऋ	-10.2616
▁तदनु	-10.2617
ोऽभवत्	-10.2621
दृशी	-10.2626
▁परीक्षित	-10.2627
▁सूच्या	-10.2628
घोष	-10.2629
Y	-10.2631
▁शीत	-10.2632
ब्द	-10.2635
mod	-10.2635
्रिमेण्ट्	-10.2637
▁इङ्क्	-10.2638
▁रीढ	-10.2643
▁छोड़	-10.2643
▁print	-10.2645
प्रोजेक्ट	-10.2647
वैज्ञानिक	-10.2647
र्द्द	-10.2647
remen	-10.2648
▁गालील	-10.2648
bject	-10.2648
▁curren	-10.2648
Change	-10.2648
Welcome	-10.2648
semicolon	-10.2648
stream	-10.2648
सामर्थ्य	-10.2648
्स्ट्रेक्ट्	-10.2648
८	-10.2648
▁Grade	-10.2648
▁JSP	-10.2648
▁colon	-10.2648
▁message	-10.2648
▁आक्सीजन	-10.2648
▁आरब्ध	-10.2648
▁उत्सर्जन	-10.2648
▁ग्रेडियेण्ट्	-10.2648
▁चित्रचालन	-10.2648
▁टिप्पणी	-10.2648
▁भगिनी	-10.2648
▁विवृणोमि	-10.2648
▁शृणु	-10.2648
▁सङ्कलयामः	-10.2648
▁हेण्डल्	-10.2648
score	-10.2648
केटगरि	-10.2648
वेल्यू	-10.2648
१	-10.2648
▁CTRL	-10.2648
▁Seq	-10.2648
▁आब्जेक्ट्	-10.2648
▁इलियासर	-10.2648
▁उपवेशन	-10.2648
▁कन्फ़र्मर्	-10.2648
▁ज्ञापित	-10.2648
▁ट्याग्	-10.2648
▁पाण्डव	-10.2648
▁मेषशावक	-10.2648
▁विटामिन	-10.2648
▁शङ्ख	-10.2648
▁श्लाघ	-10.2648
▁हनुमान	-10.2648
RGB	-10.2648
elete	-10.2648
google	-10.2648
▁Server	-10.2648
▁alert	-10.2648
▁code	-10.2648
▁command	-10.2648
▁उद्घटते	-10.2648
▁एण्टर्	-10.2648
▁लोगिन्	-10.2648
ाश्चर्य्य	-10.2648
▁कनिष्ठ	-10.2648
▁प्रददाति	-10.2648
▁श्रोतु	-10.2648
▁less	-10.2648
▁प्राकृतिक	-10.2648
▁यीशुख्रीष्टस्य	-10.2648
रिटर्न्	-10.2648
▁day	-10.2648
▁अकथयन्	-10.2648
olute	-10.2648
▁स्वहस्तौ	-10.2648
First	-10.2648
▁उभौ	-10.2648
Mark	-10.2648
▁प्रक्षाल	-10.2648
नन्तायु	-10.2648
▁डेश्	-10.2648
nvoice	-10.2648
प्रोच्चै	-10.2648
▁Browse	-10.2648
▁प्रस्थाय	-10.2648
▁Line	-10.2648
▁tag	-10.2648
तद्वार्त्ता	-10.2648
डिफै	-10.2648
पर्व्वत	-10.2648
▁break	-10.2648
▁शोभ	-10.2648
▁मिश्रण	-10.2648
▁अङ्गुल	-10.2648
▁मूत्र	-10.2648
▁ऋण	-10.2648
▁ज्ञातुम्	-10.2649
▁ददौ	-10.2649
xception	-10.2649
ाध्यक्ष	-10.2649
द्राक्षारस	-10.2649
▁getDetails	-10.2649
▁उपाध्याया	-10.2649
▁इत्येतेषाम	-10.2649
▁स्थूल	-10.2649
जैसे	-10.2649
▁Rotat	-10.2649
▁गतिशील	-10.2649
▁स्नायु	-10.2649
ize	-10.2649
▁व्यभिचार	-10.2649
▁विभक्त	-10.2649
▁सेनापति	-10.2649
▁तनाव	-10.2649
▁Saturation	-10.2649
▁प्रत्युवाच	-10.2649
बृहद	-10.2649
▁testdir	-10.2649
▁Level	-10.2649
▁colour	-10.265
▁इस्रायेल	-10.265
▁वयमिदानी	-10.265
EG	-10.265
dna	-10.265
निमेष	-10.265
▁संरचना	-10.265
▁मुद्रक	-10.265
▁अल्प	-10.265
▁Year	-10.265
प्रेषण	-10.265
▁awkdemo	-10.265
▁धूसरवर्ण	-10.265
▁अधिकविवरणार्थम्	-10.2651
प्रत्याशा	-10.2651
cent	-10.2651
▁categories	-10.2651
▁कुर्यु	-10.2651
▁num	-10.2651
▁चिन्ता	-10.2652
चिकित्स	-10.2652
▁चालयन्तु	-10.2652
वादीत्	-10.2652
▁Accounts	-10.2652
▁अवधान	-10.2653
▁प्रोम्प्ट्	-10.2654
eight	-10.2654
▁समाप्यते	-10.2654
▁गमिष्याम	-10.2654
▁ऽभवत्	-10.2655
▁पाचन	-10.2655
गन्ध	-10.2655
कालीन	-10.2655
ज्वल	-10.2656
▁किञ्चित	-10.2656
▁अपठ	-10.2656
▁आमेन	-10.2656
▁वार्ता	-10.2656
▁खोल	-10.2656
▁कोलम्	-10.2657
▁तुच्छ	-10.2657
terminal	-10.2658
comma	-10.2658
▁अनुदान	-10.2658
▁मेधा	-10.2658
▁प्रेषितवान्	-10.2658
▁sup	-10.2659
▁संविध	-10.266
▁परिवर्त्त	-10.2661
ट्रू	-10.2662
▁note	-10.2663
▁पूरयन्तु	-10.2663
कल्पना	-10.2664
▁जीवाण	-10.2665
़ू	-10.2665
▁are	-10.2666
▁अमर	-10.2666
ात्मना	-10.2669
▁भविष्यथ	-10.2669
▁महिमा	-10.267
Servlet	-10.267
▁Teacher	-10.267
▁बाह्य	-10.267
▁साक्षिण	-10.2671
▁पृथ्व्या	-10.2671
▁प्राप्तव्य	-10.2671
▁नायक	-10.2671
▁नाटक	-10.2674
ेभ्यश्च	-10.2675
12.04	-10.2676
▁प्रायेण	-10.2676
▁रक्षित्वा	-10.2676
▁लिनक्स्	-10.2676
▁वाणी	-10.2677
IN	-10.2678
▁परमाण	-10.2678
▁दर्प	-10.2679
▁वयमेक	-10.2682
▁पादयो	-10.2683
गैस	-10.2684
ण्टु	-10.2684
▁सज्जन	-10.2686
▁जननी	-10.2686
urn	-10.2687
▁सम्पादय	-10.2688
▁---	-10.2691
▁लिखितवान्	-10.2692
▁मार्क्स्	-10.2692
▁काष्ठ	-10.2693
▁महेच्छ	-10.2695
मुद्दिश्य	-10.2699
▁Ve	-10.2702
▁Show	-10.2709
▁document	-10.2709
▁विनिमय	-10.2709
▁विक्रय	-10.2709
▁गुप्त	-10.2709
▁यन्त्र	-10.2711
▁नित्य	-10.2712
▁करिष्यामि	-10.2712
▁फिर	-10.2713
▁अपेक्ष	-10.2713
▁प्रान्तर	-10.2714
पेक्षित	-10.2717
▁याकूब्	-10.2718
▁ईदृश	-10.2719
▁पठत	-10.272
▁प्रारभामह	-10.272
सन्देह	-10.2722
▁स्वर्गीय	-10.2722
▁भूमित	-10.2724
्वेन	-10.2724
▁Per	-10.2725
शिष्ट	-10.2726
▁cd	-10.2729
▁वदिष्य	-10.273
▁संरक्ष	-10.2732
▁योजयामि	-10.2734
▁आत्मना	-10.2734
▁दबा	-10.2736
▁कोहा	-10.2736
▁brackets	-10.2737
▁मात्रा	-10.2739
प्रतिकूल	-10.2741
ाई	-10.2743
▁सजीव	-10.2745
स्याधः	-10.2747
▁किमस्ति	-10.2748
▁copy	-10.2749
▁योषित्	-10.2755
▁दृष्टवन्तः	-10.2755
▁उदाहरणानि	-10.2756
▁सीताया	-10.2757
▁पतिता	-10.2761
▁बाहर	-10.2764
▁आगता	-10.2768
▁दूतो	-10.2771
वासर	-10.2771
▁लेखक	-10.2772
▁अवगमन	-10.2777
निर्म्मित	-10.2781
▁भवेयुः	-10.2785
भीमः	-10.2785
▁नासीत्	-10.2787
▁फ़ील्ड्स्	-10.2787
▁सङ्केत	-10.2789
▁back	-10.2791
▁कथित	-10.2792
▁योजनाया	-10.2794
माल	-10.2802
लुक	-10.2802
ादौ	-10.2806
pre	-10.2809
मास्ते	-10.281
ाच्छाद	-10.2817
▁रचयामि	-10.2817
▁वेत	-10.2817
लोकेभ्यो	-10.282
युक्ताः	-10.2827
▁क्लेश	-10.283
▁ब्लोक्	-10.283
▁else	-10.283
▁गते	-10.2843
▁भविष्यद्वादिनो	-10.2847
तत्व	-10.2853
dir	-10.2855
▁यिरूशालम्	-10.2855
▁पूरयत	-10.2858
प्रेम	-10.2861
▁कोड्स्	-10.2866
SS	-10.2867
BL	-10.2867
MM	-10.2867
▁विश्वसिष्य	-10.2869
▁विज्ञान	-10.2872
▁मास	-10.2876
शुच	-10.2878
▁नैक	-10.2889
▁केचित	-10.2894
मवदत्	-10.2894
▁आदिम	-10.2895
▁प्ल	-10.2901
▁log	-10.2902
▁अनुसरण	-10.291
▁पठितवन्त	-10.291
▁right	-10.2911
▁जाने	-10.2913
▁प्राप्तानि	-10.2919
▁संयुक्त	-10.2928
ृण्वन्ति	-10.2938
▁महत्व	-10.2943
पृच्छति	-10.2956
इव	-10.2957
▁पङ्क्ती	-10.2962
▁कृतवन्त	-10.2962
▁वायो	-10.297
रस्ति	-10.2977
नामक	-10.2982
▁प्रक्रियाया	-10.2994
▁मोद	-10.2994
▁वैशिष्ट्य	-10.3002
वदद्	-10.3007
▁सर्वेऽ	-10.3016
यीशौ	-10.3022
मेका	-10.3025
▁यूयञ्च	-10.3037
50	-10.3055
▁पाक	-10.3057
▁As	-10.3061
तदन्य	-10.3073
▁अब	-10.308
▁सरण	-10.3083
ूल	-10.3088
रक्त	-10.3119
ष्यते	-10.3119
िणो	-10.3121
प्रान्त	-10.3128
भारतस्य	-10.3128
ath	-10.3137
जाना	-10.315
वश्यकम्	-10.3155
▁छात्रेभ्य	-10.3171
पेरामीटर्स्	-10.3181
▁प्रभुस्त	-10.3182
▁पाप्	-10.3184
लेषन	-10.3188
▁दृ	-10.3193
▁पूर्वे	-10.3193
पराध	-10.3199
▁गच्छन्त	-10.3204
▁पु	-10.321
त्युक्ते	-10.3218
▁ro	-10.3232
▁wa	-10.3235
▁पूरयाम	-10.3258
▁स्वच्छता	-10.3294
▁ग्रेड	-10.3322
ave	-10.3322
▁au	-10.3355
न्तःकरण	-10.3362
▁तस्यै	-10.339
ात्मन	-10.3393
उब	-10.3399
▁कर्तन	-10.3409
▁उसक	-10.3409
▁सहित	-10.3415
सर्व्वस्व	-10.3445
▁रेखाया	-10.3454
च्छेत	-10.3457
▁pro	-10.346
शाल	-10.3469
दानीं	-10.3479
▁टङ्कित	-10.3484
▁कट	-10.3503
भ्यो	-10.3511
▁प्राप्नु	-10.3515
▁यातु	-10.3517
गम्य	-10.3523
▁तप	-10.3529
मिश्र	-10.353
▁दासा	-10.3536
▁आधार	-10.3543
▁तिष्ठत	-10.3545
रिष्यत	-10.3548
निवासिन	-10.3567
script	-10.359
▁यिहूदीय	-10.3609
▁शीर्ष	-10.3615
▁कथामे	-10.3625
▁सञ्चि	-10.3644
cho	-10.3676
▁जानु	-10.3685
▁ग्रस	-10.3686
▁काचित	-10.3705
▁पङ्क्त	-10.372
▁याच	-10.3733
यदि	-10.3736
▁bo	-10.3757
▁युष्मन्	-10.3759
▁व्यवस्थ	-10.3762
-10	-10.3766
▁पूर्व्वपुरुषा	-10.3772
चिन्त	-10.3787
▁लोकास्त	-10.3799
जर्	-10.38
ell	-10.3828
▁पृथिव्या	-10.3844
ानुसार	-10.385
▁विद्यार्थिन	-10.3871
्रेड्	-10.389
स्थानां	-10.3898
▁शिष्यै	-10.3903
मुद्र	-10.3906
▁पुनर्	-10.3914
ार्य्य	-10.3929
अन्यच्च	-10.3967
out	-10.3973
्यमानं	-10.3977
माता	-10.3981
क्लोस्	-10.3991
▁कोट्	-10.4
ातुम्	-10.4032
▁विद्या	-10.4033
कर्तुम्	-10.4055
युष्मानह	-10.4063
Intro	-10.4064
शीर्ष	-10.4065
भारतीय	-10.4066
गवाक्ष	-10.4067
मौल्य	-10.407
निर्देश	-10.407
सिद्ध	-10.407
सन्देश	-10.4071
सन्तान	-10.4071
तस्माद्	-10.4071
विश्राम	-10.4071
स्कन्ध	-10.4072
पुष्प	-10.4072
औ	-10.4072
विशिष्ट	-10.4074
सम्यक	-10.4074
प्रोग्राम्	-10.4074
इतीमानि	-10.4075
ट्युटोरियल्	-10.4075
द्वितीय	-10.4075
प्रथम	-10.4079
▁लप्स्य	-10.408
यतामहे	-10.4082
मेल्	-10.4082
▁पठित	-10.4086
कोड्	-10.4092
▁कश्चि	-10.4094
Users	-10.4103
एतत	-10.4105
रिक्त	-10.4106
scal	-10.4108
रक्षण	-10.4109
अहं	-10.4131
मध्य	-10.4135
ादिना	-10.4144
▁स्थापयाम	-10.4149
क्षमा	-10.4157
पर्य्य	-10.416
सञ्चिकाया	-10.4163
▁सन्तो	-10.4164
▁slide	-10.4177
▁उद्घाटयाम	-10.4178
▁उर्वरक	-10.4185
▁201	-10.4195
▁तेभ्यो	-10.4199
ाधिपति	-10.42
▁आचार	-10.4207
ाच्च	-10.4212
ितुमर्हन्ति	-10.4214
access	-10.4228
चन्द्र	-10.4229
▁धेनव	-10.4235
▁Tab	-10.4238
▁गर्द	-10.4239
पितर	-10.424
▁इन्स्टाल	-10.4245
▁un	-10.4247
▁कम्पैल	-10.4249
▁दृढी	-10.425
▁एकस्मिन	-10.4254
▁वचन	-10.4259
▁उपयोक्तृ	-10.4262
▁टै	-10.4267
िष्ये	-10.4269
▁आचर	-10.4276
▁पास	-10.4288
विष्ट	-10.4289
ब्रे	-10.4294
▁नुद	-10.4294
श्रौ	-10.4295
रेख	-10.4296
करोत्	-10.4298
▁Typ	-10.4303
▁युष्मत्	-10.4306
ack	-10.4307
Thi	-10.4308
▁उत्सर्ग	-10.431
▁साफ	-10.4311
न्द्रिय	-10.4311
mport	-10.4312
▁str	-10.4314
▁ऊर्ध्व	-10.4314
▁Check	-10.4314
▁Micro	-10.4315
तीमथिय	-10.4315
▁Package	-10.4315
▁क्रियेट्	-10.4315
▁दम्मेषकनगर	-10.4315
▁पोस्ट्	-10.4315
▁विक्रीय	-10.4315
Assignment	-10.4315
Condition	-10.4315
Configure	-10.4315
Control	-10.4315
Default	-10.4315
Inkscape	-10.4315
JDK	-10.4315
World	-10.4315
board	-10.4315
defined	-10.4315
execute	-10.4315
mount	-10.4315
omputer	-10.4315
ontinue	-10.4315
package	-10.4315
sudo	-10.4315
एक्सिक्यूशन्	-10.4315
एम्पर्सेण्ड्	-10.4315
त्रिभुज	-10.4315
दैर्घ्य	-10.4315
फुप्फुस	-10.4315
मेट्रिक्स्	-10.4315
▁16.05	-10.4315
▁Array	-10.4315
▁Document	-10.4315
▁Drive	-10.4315
▁Email	-10.4315
▁Field	-10.4315
▁Generate	-10.4315
▁Journal	-10.4315
▁List	-10.4315
▁Update	-10.4315
▁public	-10.4315
▁question	-10.4315
▁आँख	-10.4315
▁ओपरेटिङ्ग्	-10.4315
▁तत्सर्व्व	-10.4315
▁तदनन्तरम	-10.4315
▁दर्श्यते	-10.4315
▁दुर्योधन	-10.4315
▁द्रोणाचार्य	-10.4315
▁पञ्चमहाभूत	-10.4315
▁पोटलिक	-10.4315
▁प्रोवाच	-10.4315
▁फार्म्याट्	-10.4315
▁बुध्यध्व	-10.4315
▁माड्यूल्	-10.4315
▁यशस्वि	-10.4315
▁विस्तृत	-10.4315
▁वीडियो	-10.4315
▁व्यवहार	-10.4315
▁शिथिल	-10.4315
▁स्वीकुर्यात	-10.4315
Label	-10.4315
multi	-10.4315
इण्डिकेटर्	-10.4315
कौशल	-10.4315
पोषक	-10.4315
ब्रवी	-10.4315
ब्लाक्	-10.4315
▁Volume	-10.4315
▁check	-10.4315
▁count	-10.4315
▁read	-10.4315
▁अनुसृत्य	-10.4315
▁कपटिन	-10.4315
▁डीग्री	-10.4315
▁तीव्र	-10.4315
▁निरंतर	-10.4315
▁मज्जित	-10.4315
▁महायाजक	-10.4315
▁रचयितुम्	-10.4315
▁विख्यात	-10.4315
▁साहाय्यमाचर	-10.4315
Return	-10.4315
▁paint	-10.4315
▁अन्वेष्टु	-10.4315
▁पूर्वरचित	-10.4315
▁प्रशंसा	-10.4315
▁यीशुख्रीष्टेन	-10.4315
▁विडियो	-10.4315
▁Main	-10.4315
▁अनुशासन	-10.4315
▁आरभे	-10.4315
▁तूर्ण	-10.4315
▁विस्मय	-10.4315
oft	-10.4315
write	-10.4315
▁द्वादश	-10.4315
▁युवयो	-10.4315
निपुण	-10.4315
▁syn	-10.4315
▁उपचार	-10.4315
▁खनिज	-10.4315
▁भोक्तु	-10.4315
▁अग्रिमविकल्पः	-10.4315
रिपोर्ट्	-10.4315
▁manage	-10.4315
▁बहिरागन्तु	-10.4315
▁key	-10.4315
▁दक्षिणभागे	-10.4315
▁नियंत्र	-10.4315
▁प्रणाली	-10.4315
▁लेबल्	-10.4315
बाहुल्य	-10.4315
▁section	-10.4315
▁शून्य	-10.4315
▁त्राटक	-10.4315
▁महिला	-10.4315
▁शैतान	-10.4315
कथाकथन	-10.4315
▁रिसोर्स	-10.4315
एक्सिक्य	-10.4315
चाप्टर्	-10.4315
पट्टिका	-10.4315
▁परावृत्य	-10.4315
पर्य्यन्तं	-10.4315
▁दीप्ति	-10.4315
▁पक्षिण	-10.4315
lipse	-10.4315
start	-10.4315
▁सङ्ख्यय	-10.4315
ण्ठ	-10.4315
▁धृतराष्ट्र	-10.4315
सौर्स्	-10.4315
▁अकौण्ट्	-10.4315
▁फसल	-10.4315
ecture	-10.4315
▁अंतिम	-10.4315
▁आहूत	-10.4315
शीट्	-10.4315
▁प्रकाशसंश्लेषण	-10.4315
▁समचिह्नं	-10.4315
▁विश्रामवार	-10.4315
▁गन्तव्य	-10.4315
▁षष्ठ	-10.4315
▁यातना	-10.4315
▁जगद	-10.4315
▁तुलना	-10.4315
ोल्ट्	-10.4315
▁अस्यार्थः	-10.4315
▁ब्राह्मण	-10.4316
प्रिंट्	-10.4316
▁श्रीकृष्ण	-10.4316
▁प्रीयध्व	-10.4316
▁उत्पत्ति	-10.4316
▁दूसर	-10.4316
▁खिला	-10.4316
▁उपस्थाय	-10.4316
▁will	-10.4316
▁अङ्गुष्ठ	-10.4316
▁भवदभीष्ट	-10.4316
▁मरियम्	-10.4316
▁scope	-10.4316
▁कस्यच	-10.4316
▁लवण	-10.4316
▁सम्प्रति	-10.4316
▁सुरक्षित	-10.4316
▁स्पर्श	-10.4316
▁क्रियन्ते	-10.4316
▁छू	-10.4316
▁भगवद्गीताया	-10.4316
▁पक्व	-10.4316
Alt	-10.4316
▁Company	-10.4317
▁क्यों	-10.4317
▁पर्यावरण	-10.4317
▁कोष्ठक	-10.4317
▁रेफर	-10.4317
▁वामपाद	-10.4317
▁जालपर्ण	-10.4317
▁निश्चय	-10.4317
▁लिखितमास्ते	-10.4317
▁काञ्चि	-10.4317
▁Back	-10.4317
▁लोगो	-10.4318
▁तन्नहि	-10.4318
▁इत्युच्य	-10.4318
▁दर्शयितुम्	-10.4318
▁त्याज	-10.4318
▁बेस्	-10.4318
िल्ला	-10.4318
▁गृह्णीया	-10.4318
ोत्तर	-10.4318
▁EN	-10.4318
▁डीफ़	-10.4318
ब्ब	-10.4319
▁यात्रा	-10.4319
▁अधोभाग	-10.4319
▁सेनयो	-10.4319
▁दक्षिणहस्त	-10.4319
▁उष्ण	-10.4319
▁शारीरिकभाव	-10.4319
▁किन्त्वधुना	-10.4319
▁रङ्ग	-10.432
▁प्रसार	-10.432
▁भीष्म	-10.432
▁90	-10.432
जग्म	-10.432
▁आहार	-10.432
▁चिन्तन	-10.432
▁लक्ष्य	-10.4321
▁पितृ	-10.4321
▁moodle	-10.4321
▁सोढ	-10.4322
▁श्वेतवर्ण	-10.4322
▁विशाल	-10.4322
▁भुक्त	-10.4323
ेऽहन	-10.4323
मिमं	-10.4323
▁तदुपरि	-10.4323
कोशिका	-10.4323
▁sum	-10.4323
▁बाधा	-10.4323
▁परावर्त्त	-10.4323
▁वर्धयति	-10.4324
▁उच्चैः	-10.4324
▁केषाञ्चन	-10.4324
▁उद्योग	-10.4324
▁Curves	-10.4324
▁1.6	-10.4325
▁कथ्यन्ते	-10.4325
▁पद्धत	-10.4325
Administration	-10.4325
▁प्रत्यर्प	-10.4325
▁प्रार्थित	-10.4325
ोऽस्मि	-10.4325
▁नितम्बौ	-10.4326
▁उनक	-10.4326
▁अनिवार्य	-10.4326
▁रचितवानस्मि	-10.4328
▁कवक	-10.4328
▁cat	-10.4329
▁जोड	-10.4329
▁पृष्ठदेश	-10.4329
ull	-10.4329
रीत्या	-10.4329
▁तदधिक	-10.433
▁निश्चित	-10.4331
▁पाठमिम	-10.4331
▁चित्रयामि	-10.4331
▁Tu	-10.4331
▁लब्धवान्	-10.4331
▁तुभ्य	-10.4331
▁Editor	-10.4331
▁अभ्यस्त	-10.4332
▁Ye	-10.4332
▁स्लैड्स्	-10.4332
टोक्	-10.4334
▁नाडी	-10.4335
graphic	-10.4335
धस्तात्	-10.4335
सिनाप्टिक्	-10.4335
▁मेनेजर्	-10.4335
मैन्	-10.4335
▁परिष्कृत	-10.4336
▁फिरूशिनश्च	-10.4336
▁गच्छत	-10.4336
▁भद्र	-10.4336
▁संवाद	-10.4336
बेक्	-10.4337
ग्रहीतु	-10.4337
अन्य	-10.4338
▁15	-10.434
▁आरभ्यते	-10.434
▁यिहूदीयलोका	-10.4341
▁subscription	-10.4341
▁suggest	-10.4341
▁स्मृति	-10.4342
▁सम्पत्ति	-10.4342
rop	-10.4342
पूरण	-10.4343
▁प्रश्नाना	-10.4344
सैज	-10.4344
▁लिखित्वा	-10.4345
▁अपेक्षते	-10.4346
function	-10.4346
▁वर्धते	-10.4346
tex	-10.4347
▁प्रोक्त	-10.4347
ान्वित	-10.4347
▁स्थापयतु	-10.4349
▁यथार्थं	-10.4351
▁ऋत	-10.4351
विजय	-10.4351
▁वासुदेवः	-10.4353
▁variable	-10.4354
▁द्वाव	-10.4355
▁आपरेटर्स्	-10.4357
▁min	-10.4358
▁समर्थित	-10.436
▁हस्तयो	-10.4362
▁अर्चक	-10.4362
▁इदमत्र	-10.4363
▁पश्यथ	-10.4363
▁पृथक	-10.4364
▁प्रहित	-10.4365
▁करिष्याम	-10.4365
▁त्रप	-10.4366
▁समीपस्थ	-10.4367
▁फङ्क्षन्स्	-10.4367
▁निदेश	-10.4369
कांश्च	-10.4371
▁लिखतु	-10.4371
▁तदीय	-10.4372
▁बाण	-10.4373
▁जनयति	-10.4375
रुद्ध	-10.4375
वैद्य	-10.4378
Form	-10.4378
▁तिष्ठन्ति	-10.438
▁आध	-10.438
▁नील	-10.438
ाइट	-10.4382
▁प्रस्तर	-10.4383
▁श्वासग्रहण	-10.4388
▁default	-10.4388
▁साम्प्रत	-10.4388
▁install	-10.4388
▁प्रवाह	-10.4388
▁लभ्य	-10.4389
mage	-10.4389
वादं	-10.4389
▁India	-10.439
आक्साइड	-10.439
▁बोण्ड्	-10.439
नेत्र	-10.4391
▁गृह्लाति	-10.4393
▁गए	-10.4393
स्तथा	-10.4395
▁पुरा	-10.44
▁प्रतिज्ञात	-10.4405
पोल	-10.4406
सभाया	-10.4415
▁प्रदर्शयाम	-10.4417
▁हरि	-10.4418
▁प्रसारित	-10.442
▁आगच्छामि	-10.442
▁प्रकाशते	-10.4421
▁ज्ञापन	-10.4422
8.	-10.443
▁शक्ष्य	-10.4431
▁यिहूदा	-10.4432
▁छिद्र	-10.4433
45	-10.4435
▁frame	-10.4436
▁एप्लिकेशन्	-10.4436
▁कष्ट	-10.444
हन्ता	-10.4446
▁शोक	-10.4449
▁ततौ	-10.445
▁उद्घाटयामः	-10.4453
▁ब्रेकेट्स्	-10.4453
गणना	-10.4455
स्वामिन	-10.4458
स्वरूपा	-10.4481
▁आकर	-10.4496
टिका	-10.4505
▁रिक्तस्थान	-10.4505
ऽपर	-10.4509
▁कवि	-10.454
▁तादृशी	-10.4547
▁योगी	-10.4548
▁स्वर्गस्थ	-10.4551
ह्व	-10.4556
▁नौकाया	-10.4562
▁कार्य्य	-10.4564
▁शुद्धि	-10.4569
▁तमेव	-10.4573
कुड्मल	-10.458
▁इन	-10.4586
▁पश्यन्त	-10.4587
▁क्या	-10.4597
▁तैल	-10.4599
पश्चाद्	-10.4601
wc	-10.4641
▁विकल्पाः	-10.4646
▁मूल्यम्	-10.4647
विषयक	-10.4654
ple	-10.4675
पेक्षया	-10.4684
▁शिष्याणा	-10.4697
->	-10.4714
▁धारण	-10.4734
▁एतस्या	-10.4744
▁सहज	-10.476
▁निश	-10.4766
▁उपाय	-10.4766
▁जनान्	-10.4767
▁एक्स	-10.4777
एरो	-10.4787
मधिक	-10.4791
late	-10.4798
▁सर्व्वेभ्य	-10.4805
▁बढ़ा	-10.4809
▁संवादपेटिकाया	-10.4834
▁Bal	-10.4847
▁प्रधानयाजक	-10.4894
▁कन्दुक	-10.4894
▁विद्यार्थिना	-10.4906
▁करणीयमित	-10.4932
▁अन्येषा	-10.4938
पश्चात्	-10.4939
यद्यत्	-10.4943
▁वस्तुन	-10.496
धर	-10.496
वर्षाणि	-10.497
ेयु	-10.5006
क्त्वा	-10.5019
▁प्रदर्श	-10.5024
▁आत्मन	-10.5047
▁मिलत	-10.5054
▁तथ	-10.5055
▁क्रुश	-10.5063
▁र्यीशुख्रीष्ट	-10.5071
nce	-10.5093
▁नरक	-10.5099
शम्य	-10.5128
▁निर्मात	-10.5133
▁सर्व्वलोका	-10.5139
लोग	-10.5147
नाथ	-10.515
Cl	-10.515
र्दन	-10.5157
प्रकारक	-10.5158
ii	-10.5176
हिंस	-10.5181
arch	-10.5224
▁कर्तुम	-10.5252
▁समापय	-10.5255
▁दत्ता	-10.5291
क्षराणि	-10.5301
करिष्यन्ति	-10.5308
़	-10.5347
▁नाक	-10.5353
लिखि	-10.5419
मुद्राया	-10.542
शाक	-10.5433
दायि	-10.5449
कोष	-10.545
ादिषु	-10.547
▁सकल	-10.548
▁कुत्रा	-10.548
वाण	-10.5481
▁कर्म्मण	-10.5517
▁ज्योति	-10.5554
माधि	-10.5565
ोदय	-10.5567
ip	-10.5567
च्छन्तु	-10.5591
बद्धा	-10.5599
पतन्	-10.5606
▁कस्मा	-10.5627
▁प्रार्थयत	-10.5662
ear	-10.5664
विभाग	-10.5691
▁ईक्ष	-10.5727
▁fun	-10.5764
▁संस्थापित	-10.5776
.............	-10.5782
▁शक्नु	-10.5795
▁विस्तर	-10.5803
▁तत्सम्बद्धपाठा	-10.5822
ज्जन	-10.5839
▁ओवर्	-10.5853
Record	-10.5856
वर्ष	-10.5877
वस्था	-10.5895
धारणा	-10.5898
ाधार	-10.5904
▁वर्धन	-10.5923
▁अभिज्ञा	-10.5944
file	-10.5948
प्रजात	-10.595
किन	-10.5993
मित्	-10.6014
▁पर्चन्य	-10.6025
मर्था	-10.6049
▁विज्ञा	-10.6051
redi	-10.6052
ब्लोक्	-10.6058
क्लेश	-10.6059
j	-10.6059
ततस्ते	-10.606
$	-10.6061
▁जागरूक	-10.6061
समीपे	-10.6061
सम्पुट	-10.6061
यन्त्र	-10.6061
पूप	-10.6062
else	-10.6062
struct	-10.6063
निर्मित	-10.6068
दिवस	-10.6068
सूचना	-10.6069
संख्या	-10.6069
विकास	-10.607
दुःख	-10.6071
तृतीय	-10.6072
home	-10.6072
ओब्जेक्ट्	-10.6072
पूर्व्व	-10.6073
कृष्ण	-10.6073
slash	-10.6073
स्पोकन्	-10.6074
इत्यनेन	-10.6074
इत्येत	-10.6076
नोड्	-10.6076
“	-10.6079
सञ्चय	-10.608
इत्यस्योपरि	-10.608
▁संस्थाय	-10.6098
▁प्रचारय	-10.61
लक्षण	-10.61
▁संयोज	-10.6105
सर्वर्	-10.6114
पादप	-10.6123
ht	-10.6129
▁परिवर्तयाम	-10.613
▁नुदाम	-10.6136
डिस्	-10.6156
िक्षिप	-10.6157
स्थितवान्	-10.6158
तीव	-10.6164
पादौ	-10.6165
▁परिक्रम	-10.6165
चत्वारिंश	-10.6169
11	-10.6175
▁निर्धार	-10.6182
▁आवृत्ति	-10.6186
▁भवद्भि	-10.6187
▁दृष्टवन्त	-10.6189
भोज	-10.6193
ाकृति	-10.6197
▁प्रारभ	-10.6212
aft	-10.6223
पृच्छन्	-10.6228
बन्धन	-10.6229
▁आगच्छत	-10.6241
▁शिमोन	-10.6243
▁ट्युटोरियल	-10.6247
▁क्लास	-10.6247
▁उक्तवान	-10.6249
शृङ्खल	-10.6256
सूक्तस्य	-10.6256
परिवार	-10.6262
lock	-10.6269
▁मृद	-10.627
▁भोज्य	-10.627
▁छु	-10.6277
reference	-10.628
▁mark	-10.628
▁तिष्ठन्त	-10.6281
प्यधिक	-10.6287
▁ओपरेटर्	-10.6288
वलोक्यताम्	-10.629
▁प्रत्यागत	-10.6293
▁तस्मात	-10.6294
▁व्याहर	-10.6297
▁अनुग्रह	-10.63
एडिट	-10.6302
मनुसृत्य	-10.6303
एक्स्टेन्	-10.6303
ight	-10.6304
▁इतीमा	-10.6308
▁आर्थिक	-10.6309
ropert	-10.6309
attern	-10.6309
ategories	-10.6311
स्योपयोग	-10.6312
ोल्डर्	-10.6312
ीकुरु	-10.6312
भगवद्गीता	-10.6312
▁ओप्टिमैस	-10.6313
ेटिक्	-10.6313
ask	-10.6313
iew	-10.6314
Download	-10.6314
मरियम	-10.6314
SQL	-10.6314
▁IITB	-10.6315
buil	-10.6315
ffice	-10.6315
इण्टीजर्	-10.6315
गूगल्	-10.6315
च्छेदन	-10.6315
▁Auto	-10.6315
▁activ	-10.6315
▁ctrl	-10.6315
▁tax	-10.6315
▁आयुर्वेद	-10.6315
▁कृषीवल	-10.6315
▁श्रोतार	-10.6315
Basic	-10.6315
Remove	-10.6315
TION	-10.6315
chown	-10.6315
enumerate	-10.6315
label	-10.6315
omponent	-10.6315
onfirm	-10.6315
second	-10.6315
ाञ्चक्रुः	-10.6315
ोपयोक्त	-10.6315
▁Budget	-10.6315
▁Connection	-10.6315
▁Description	-10.6315
▁Hydrogen	-10.6315
▁Method	-10.6315
▁Service	-10.6315
▁Standard	-10.6315
▁Title	-10.6315
▁Topic	-10.6315
▁Xfig	-10.6315
▁content	-10.6315
▁custom	-10.6315
▁firefox	-10.6315
▁inode	-10.6315
▁price	-10.6315
▁उद्घाटयितुं	-10.6315
▁एक्स्प्रेषन्	-10.6315
▁कस्मिंश्चि	-10.6315
▁गम्भीर	-10.6315
▁झटिति	-10.6315
▁झुके	-10.6315
▁डेस्क्टोप्	-10.6315
▁ददृशुः	-10.6315
▁निषेध	-10.6315
▁पन्थान	-10.6315
▁परिभ्रमण	-10.6315
▁परिभ्रामय	-10.6315
▁प्राचारयत्	-10.6315
▁प्राम्प्ट्	-10.6315
▁प्रेषयामास	-10.6315
▁प्रोफ़ैल्	-10.6315
▁फुस्फुस	-10.6315
▁भविष्यद्वादी	-10.6315
▁मजबूत	-10.6315
▁मिथ्या	-10.6315
▁मूषक	-10.6315
▁युधिष्ठिर	-10.6315
▁सामाजिक	-10.6315
▁सुनिश्चित	-10.6315
▁स्वीकुर्वन्ति	-10.6315
▁स्वीक्रियते	-10.6315
▁हैड्रोजन्	-10.6315
equence	-10.6315
output	-10.6315
पोषकतत्त्व	-10.6315
मञ्जूषा	-10.6315
विशुद्ध	-10.6315
▁Awk	-10.6315
▁Install	-10.6315
▁Layer	-10.6315
▁Sheet	-10.6315
▁emp	-10.6315
▁अन्वेष्टव्य	-10.6315
▁अवरोह	-10.6315
▁इस्हाक	-10.6315
▁एण्ट्रि	-10.6315
▁गर्ब्भ	-10.6315
▁डीफाल्ट्	-10.6315
▁तर्हीश्वर	-10.6315
▁निर्ब्बोध	-10.6315
▁पद्मासन	-10.6315
▁पेरन्थिसिस्	-10.6315
▁प्रच्छन्न	-10.6315
▁प्राथमिक	-10.6315
▁फैलाए	-10.6315
▁ब्रैकेट्	-10.6315
▁विभज्य	-10.6315
▁हरिद्वर्ण	-10.6315
▁हृद्यन्त्र	-10.6315
ॅ	-10.6315
▁Clone	-10.6315
▁Color	-10.6315
▁उठाए	-10.6315
▁उपयोक्तुमर्ह	-10.6315
▁एतदर्थं	-10.6315
▁छेद	-10.6315
▁मेदिन्या	-10.6315
▁व्यश्वसन्	-10.6315
▁सुस्थिर	-10.6315
author	-10.6315
riya	-10.6315
video	-10.6315
▁अध्ययन	-10.6315
▁अवधेय	-10.6315
▁कृषि	-10.6315
▁ध्वज	-10.6315
▁निवारण	-10.6315
▁विस्मृत	-10.6315
Frame	-10.6315
▁उन्मील	-10.6315
▁ऊर्जा	-10.6315
▁पर्याप्त	-10.6315
▁समुचित	-10.6315
input	-10.6315
▁एक्स्टेन्शन्	-10.6315
▁झुकाऐं	-10.6315
▁वैदिक	-10.6315
xml	-10.6315
▁Syn	-10.6315
▁उपयुन	-10.6315
▁तन्नुद	-10.6315
▁कौरव	-10.6315
▁ब्रवीमि	-10.6315
ादृक्	-10.6315
▁अतिरिक्त	-10.6315
▁अयोध्या	-10.6315
Mode	-10.6315
▁जनजातीय	-10.6315
▁निर्वहण	-10.6315
▁घटिष्यते	-10.6315
▁समझा	-10.6315
▁छोट	-10.6315
▁गमिष्यन्ति	-10.6315
▁कटिबन्ध	-10.6315
▁लागि	-10.6315
▁दास्यामि	-10.6315
▁लौट	-10.6315
शलाका	-10.6315
▁किन्त्विदानी	-10.6315
ोद्योग	-10.6315
▁केचिद	-10.6315
ettings	-10.6315
पश्चिम	-10.6315
▁डेटाटैप्	-10.6315
▁इत्येतदर्थ	-10.6315
वेण्डर्	-10.6315
▁निर्मान्ति	-10.6315
hard	-10.6315
पोइण्ट्	-10.6315
स्त्रोत	-10.6315
info	-10.6315
▁जांघ	-10.6315
▁शौच	-10.6315
▁मनुजसुत	-10.6315
ness	-10.6315
▁सन्तुष्ट	-10.6315
▁मुद्रण	-10.6315
▁महत्त्वपूर्ण	-10.6315
▁आहूय	-10.6315
स्टेट्मे	-10.6315
▁परिष्करण	-10.6315
▁लाग्	-10.6315
▁अवलोकन	-10.6315
▁पुतल	-10.6315
▁स्थास्यति	-10.6315
▁gre	-10.6315
▁-----	-10.6316
▁चेहर	-10.6316
▁फार्म	-10.6316
▁बाणचिह्न	-10.6316
▁त्याग	-10.6316
▁दास्यति	-10.6316
▁निरन्तर	-10.6316
rain	-10.6316
▁इत्युक्त्वा	-10.6316
▁clos	-10.6316
▁युध्य	-10.6316
▁Normal	-10.6316
▁आरभामहे	-10.6316
▁चिन्तित	-10.6316
▁व्याकुल	-10.6316
▁ओप्टिमैसेशन्	-10.6316
▁अस्थि	-10.6316
▁square	-10.6316
▁वदथ	-10.6317
▁निधाय	-10.6317
चतुर्दश	-10.6317
▁फिलिप	-10.6317
▁यीशुरकथय	-10.6317
▁विलिख	-10.6317
▁धेनु	-10.6317
▁निरामय	-10.6317
▁हठयोग	-10.6317
▁unit	-10.6317
▁अन्यथा	-10.6317
▁समापित	-10.6317
▁यिरूशालम्नगर	-10.6317
▁ऊर्ध्वभाग	-10.6317
▁निष्कासयितुं	-10.6317
▁संयोग	-10.6317
▁सज्जी	-10.6317
टेग्	-10.6318
▁फलितांश	-10.6318
▁शेर्	-10.6318
▁डैम	-10.6318
ावतार	-10.6318
▁इत्यादेश	-10.6318
▁ओपरे	-10.6318
▁वानरा	-10.6318
▁भ्रातृगण	-10.6318
पित्रो	-10.6318
▁तस्यान्तिक	-10.6318
मूढ	-10.6318
▁निमित्तम्	-10.6318
ेण्डेन्स	-10.6318
▁व्यवस्थापक	-10.6319
▁आह्वय	-10.6319
▁लोचन	-10.6319
▁सत्यमत	-10.6319
▁5.6	-10.6319
भिमत	-10.6319
▁लोकसंगीत	-10.6319
ण्ड्स्	-10.6319
SV	-10.6319
▁इतर	-10.6319
▁Application	-10.6319
▁अद्यतन	-10.6319
▁कस्यचिद	-10.6319
▁आवश्यकतानुसार	-10.6319
▁दैवीय	-10.632
▁भावयामि	-10.632
▁परेश	-10.632
▁कार्यविधान	-10.632
▁सङ्गृह	-10.632
▁कर्तव्यम्	-10.632
▁pattern	-10.632
▁सम्यक्कर्तुं	-10.632
▁स्यूत	-10.632
/2017	-10.632
▁अम्ब	-10.632
▁जीविष्यति	-10.6321
▁सञ्चिकय	-10.6321
▁पूर्वतनपाठ	-10.6321
atch	-10.6321
तादृग्	-10.6321
▁भारतदेश	-10.6321
▁तिष्ठामि	-10.6322
▁राजयोग	-10.6322
▁end	-10.6323
▁सत्कर्म्म	-10.6323
dialog	-10.6323
▁बढात	-10.6323
रूढ	-10.6323
▁चालयित्वा	-10.6323
▁आस्म	-10.6323
स्त्रिय	-10.6323
hic	-10.6323
▁अनुसर्तुं	-10.6324
वेग	-10.6324
▁सङ्गिन	-10.6325
ाञ्चक्रिरे	-10.6325
shar	-10.6325
▁संयम	-10.6325
▁भविष्यसि	-10.6326
▁अङ्कनी	-10.6326
▁परिपूर्ण	-10.6326
▁चलति	-10.6326
▁तदनुसार	-10.6327
ish	-10.6327
▁इन्द्र	-10.6328
▁प्राप्स्यसि	-10.6328
▁कलह	-10.6328
▁गतवन्तः	-10.6328
लॉ	-10.6328
▁distribut	-10.6329
▁हठ	-10.6329
कुर्म्म	-10.6329
▁दृश्यता	-10.6329
▁भूमिका	-10.6329
▁पेश्य	-10.6329
थ्म	-10.6331
▁35	-10.6332
▁सुप्त	-10.6332
▁कृष्णवर्ण	-10.6332
्याश्	-10.6332
▁परित्यज्य	-10.6332
▁व्याहरन्	-10.6332
▁विष्णु	-10.6333
▁सूचित	-10.6333
▁जनिष्यते	-10.6333
▁आधारेण	-10.6334
▁मनोनीत	-10.6334
▁परिस्थित	-10.6335
▁निर्गच्छति	-10.6335
▁समानीत	-10.6336
▁अवकरा	-10.6336
▁प्राप्यन्ते	-10.6336
▁श्वान	-10.6337
▁सदस्य	-10.6337
▁महती	-10.6337
ेन्शन	-10.6338
▁crea	-10.6338
▁तीन	-10.6339
▁शिशून	-10.634
▁रक्षामि	-10.634
▁ज्ञानयोग	-10.6341
शक्यम्	-10.6341
▁पर्स	-10.6343
Folder	-10.6345
▁शाटिक	-10.6345
▁प्राप्स्यथ	-10.6346
2017	-10.6346
▁तन्मध्ये	-10.6348
लिपि	-10.6348
▁धूम	-10.6349
▁13	-10.6349
मेध्य	-10.6349
▁करोती	-10.6349
ame	-10.635
▁दशवार	-10.635
▁केषां	-10.6351
▁शरण	-10.6351
▁वन्द	-10.6352
▁प्रेष्य	-10.6352
▁प्रवास	-10.6354
▁प्रविशति	-10.6355
▁दर्शितवान्	-10.6355
पेटिकायां	-10.6355
▁दृष्टवान्	-10.6355
▁अवधि	-10.6357
▁प्रोटीन्	-10.6357
फलके	-10.6357
ON	-10.6357
ant	-10.6358
▁मुनि	-10.6358
ाल्लोक	-10.6358
▁एतासा	-10.6358
▁प्रबल	-10.6358
▁मृत्तिकाया	-10.6361
▁ऋषि	-10.6361
ttribute	-10.6362
ड़ें	-10.6362
▁आच्छाद	-10.6362
box	-10.6362
▁आम्र	-10.6363
▁स्वर्ण	-10.6364
▁./	-10.6364
पद्रव	-10.6365
ज्जा	-10.6366
थुन	-10.6368
विश्वासिन	-10.637
▁योजना	-10.6371
▁युष्माकमेक	-10.6371
कुशल	-10.6371
▁उत्थापयेत्	-10.6374
ect	-10.6375
▁परिशीलयितु	-10.6377
serv	-10.6377
switch	-10.6378
▁करणञ्च	-10.6379
उपयोक्तृभ्यः	-10.6379
ारयत्	-10.6381
▁चेष्टध्व	-10.6382
sure	-10.6382
▁स्वतन्त्र	-10.6384
▁सर्व्वविध	-10.6385
▁sal	-10.6388
▁दृष्टुम	-10.6388
रणार्थं	-10.639
▁अक्से	-10.6391
▁वसा	-10.6391
▁औषधीय	-10.6393
ध्यान	-10.6394
▁एतदप	-10.6399
▁ओन्	-10.6401
▁चित्रकण	-10.6402
ोत्तम	-10.6404
र्तुं	-10.6405
कर्मयोग	-10.6406
▁तदत्र	-10.6412
▁sen	-10.6413
श्चास्ति	-10.6416
करणद्वारा	-10.6416
▁बहुवार	-10.6417
बूल	-10.642
▁यून	-10.642
एल्	-10.6421
▁पुस्तकानां	-10.6421
▁My	-10.6422
सविधे	-10.6424
ाभ्यन्तर	-10.6426
रीश्वर	-10.6428
ान्तःकरण	-10.6428
▁मोचयितु	-10.6428
▁राज्ञ	-10.644
▁अलैन्	-10.6441
न्तियखियानगर	-10.6443
▁अवगच्छाम	-10.6444
pplication	-10.6444
▁बात	-10.6448
▁आधारित	-10.645
▁निष्कासयाम	-10.645
Table	-10.6451
▁कमाण्ड्स्	-10.6456
▁कर्तुमिच्छ	-10.6472
▁अन्यद्	-10.6478
▁त्रयाणा	-10.6478
eo	-10.648
DD	-10.6484
▁परीक्षामह	-10.6484
क्षिपत	-10.6489
▁वारय	-10.6491
login	-10.65
ाभिलाष	-10.65
▁चेष्टा	-10.6504
▁En	-10.6529
सिद्धान्त	-10.653
▁Do	-10.6535
जगा	-10.6542
न्ताम्	-10.6548
tage	-10.6549
वन्तस्ते	-10.6556
▁ज्ञापयितु	-10.6558
चारिण	-10.6563
▁दीर्घकाल	-10.6566
▁शान्त	-10.6569
प्रशिक्षक	-10.6574
रिव	-10.658
64	-10.6596
▁कर्तु	-10.66
▁आनीत	-10.6612
▁लेखनीय	-10.6627
भक्त्या	-10.6632
my	-10.668
▁विह	-10.6687
निष्का	-10.6687
arrow	-10.669
▁std	-10.6693
▁उत्थान	-10.6693
प्रतिक्रिया	-10.67
▁उपयोक्तॄ	-10.6716
▁अनुभू	-10.6716
सम्पादन	-10.6719
▁मृग	-10.6721
▁चालयाम	-10.6725
वारोह	-10.6737
▁Currenc	-10.6739
करिष्यते	-10.6743
▁केशा	-10.675
ound	-10.6768
तंब	-10.6769
▁गोल	-10.6792
▁ताक	-10.6792
▁..............	-10.6802
कर्तृ	-10.6823
योगदानम	-10.6842
▁Su	-10.6843
▁लोभ	-10.6845
व्यू	-10.6846
▁प्रार्थयन्त	-10.6855
▁पठिष्य	-10.6873
▁मेर	-10.6887
भागिनो	-10.6911
्थर	-10.692
बेका	-10.6924
हर्त्तु	-10.6925
तामह	-10.6942
गर्भ	-10.6973
ऽधिक	-10.6974
llow	-10.6982
ियन्	-10.6985
पालक	-10.6991
यामास	-10.7002
▁लोकै	-10.7023
▁पेय	-10.7026
▁पूर्व्वपुरुष	-10.7026
लम्ब्य	-10.7036
रक्षक	-10.7038
▁युष्मन्मध्य	-10.7038
▁अतोऽ	-10.7054
▁योगिन	-10.7056
grou	-10.7073
ोचत	-10.7077
▁जिसक	-10.7085
▁एतेभ्य	-10.7094
चेतना	-10.7108
वाल	-10.7114
▁योजितवन्त	-10.7118
▁गीताया	-10.7126
ptic	-10.7156
विग्रह	-10.7172
▁सेवन	-10.721
▁योध	-10.7217
▁परिमित	-10.7233
▁प्रतीक्षा	-10.7236
▁तावद	-10.7252
रिष्यति	-10.7294
ितमस्ति	-10.7297
▁मृताना	-10.7352
▁प्रचारयत	-10.7386
iv	-10.7411
▁अवकाश	-10.7433
▁आवरण	-10.7434
वृष	-10.7453
प्रारंभिक	-10.7492
▁दर्शयिष्य	-10.7494
.........	-10.7521
जाया	-10.7526
not	-10.7536
▁भूताना	-10.7538
▁जीवित	-10.7617
ोऽभव	-10.7658
▁अवगच्छ	-10.7695
यामासुः	-10.7714
▁प्रभव	-10.7728
▁केषुच	-10.7731
प्रसारण	-10.7749
▁यद्यह	-10.7773
पूर	-10.7777
हित्वा	-10.7794
ग्राफ	-10.7798
न्यास	-10.78
▁सीमा	-10.781
निन्दित	-10.7828
▁संयोजयन्त	-10.7878
▁निवस	-10.788
र्य्या	-10.7887
ज्वाल	-10.7894
▁जनै	-10.7926
ावश्यक	-10.7928
▁यस्माद	-10.797
▁रूपान्तर	-10.797
काका	-10.8029
कीट	-10.8035
ुमिच्छ	-10.8037
▁ऽस्म	-10.8045
सीधा	-10.8056
▁त्रय	-10.8081
▁बढ़ात	-10.8087
tri	-10.8131
▁पृष्ठत	-10.8138
दृष्टौ	-10.8141
▁वर्त्त	-10.8208
OS	-10.8224
योक्तॄणां	-10.8322
ानाञ्च	-10.84
ङ्गाना	-10.8417
देता	-10.844
▁श्मशानाद	-10.8449
नुसारेण	-10.8452
▁परिशीलय	-10.8453
नीतवान्	-10.8457
पङ्क्त	-10.8494
करोतु	-10.8509
मूल्यं	-10.8515
वर्त्तते	-10.8527
bin	-10.8543
दर्शित	-10.8544
User	-10.8546
दक्षिण	-10.8554
करोमि	-10.8556
सङ्केत	-10.8559
समाज	-10.8562
करतल	-10.8562
address	-10.8563
return	-10.8563
marks	-10.8563
back	-10.8563
पाषाण	-10.8564
प्रसन्न	-10.8567
मार्क्	-10.8567
Item	-10.8567
सैट्	-10.8568
यूसर्	-10.8568
भूमि	-10.8569
मन्दिर	-10.8569
type	-10.8569
पेज्	-10.857
Employee	-10.857
पुनर	-10.857
बुक्	-10.857
New	-10.8571
कमाण्ड्	-10.8571
*	-10.8571
कन्स्ट्रक्टर्	-10.8572
ब्रेकेट्	-10.8572
Tutorial	-10.8572
awk	-10.8572
X	-10.8573
पटल	-10.8573
प्रसिद्ध	-10.8573
दीर्घ	-10.8573
सीक्वेन्स्	-10.8574
Ctrl	-10.8574
कोर्स्	-10.8574
सीवन	-10.8574
परिमाण	-10.8575
Add	-10.8575
File	-10.8577
भिलाष	-10.8582
इत्थ	-10.8583
चेतुं	-10.8584
अथवा	-10.8588
काण्ड	-10.8589
▁डिफ़ै	-10.8589
प्रिय	-10.8598
date	-10.8601
क्षमता	-10.8603
वादी	-10.8625
▁कंध	-10.8629
▁तेऽ	-10.864
▁उत्त	-10.8645
ावृत	-10.8654
ॉ	-10.8659
संधारिकाया	-10.8668
गत्वा	-10.8669
भुजा	-10.8671
fore	-10.8673
कल्प	-10.8673
ाख्यान	-10.8679
▁निकट	-10.8699
▁विद्यत	-10.8705
वंशीय	-10.8705
................	-10.8709
▁पहल	-10.8712
भ्यन्तर	-10.8728
धातव	-10.8734
▁निरूपय	-10.8736
▁उत्थापयेत	-10.8742
वाद्ययन्त्र	-10.8742
▁यस्मात	-10.8745
▁फील्ड	-10.8746
▁इम्प्लिमेण्ट	-10.8746
▁तात्पर्य	-10.8748
▁विषयके	-10.8749
▁ऋष	-10.8755
able	-10.8757
▁वदन्त	-10.8764
▁For	-10.8765
द्यात	-10.8766
नलिका	-10.8767
▁record	-10.878
▁विभाज	-10.878
▁निर्दिश	-10.8786
▁सम्भव	-10.8789
▁स्लैड्	-10.8789
▁परित्यज	-10.8792
▁अभ्यस	-10.8793
▁पकड	-10.8794
▁अस्मान	-10.8797
▁डिक्ल	-10.8798
▁दैनिक	-10.8799
vision	-10.8801
gram	-10.8802
संस्कृ	-10.8803
▁स्रष्ट	-10.8804
क्ष्यथ	-10.8806
▁प्रदक्षिण	-10.8807
▁चिन्वन्	-10.8807
ुत्तर	-10.8807
वर्ड्	-10.8808
rgument	-10.8808
▁director	-10.8809
▁Blu	-10.8809
पयुज्य	-10.8809
assword	-10.881
0.1	-10.8811
स्रायेल	-10.8811
ुवाच	-10.8812
क्रियन्त	-10.8812
▁त्यक्त	-10.8813
▁127	-10.8814
▁char	-10.8814
राष्ट्र	-10.8814
▁अपक्व	-10.8814
Q	-10.8814
▁झुका	-10.8815
pass	-10.8815
▁trans	-10.8815
lready	-10.8815
ppear	-10.8815
प्रश्नार्थकचिह्न	-10.8815
▁Coun	-10.8815
▁निमन्त्र	-10.8815
▁ब्रौ	-10.8815
▁शोमिरोण	-10.8815
result	-10.8815
▁अवारोप	-10.8815
▁टेक्श्ट्	-10.8815
&	-10.8815
------------	-10.8815
39.50	-10.8815
Author	-10.8815
ISBN	-10.8815
Parameter	-10.8815
Submit	-10.8815
YYYY	-10.8815
adius	-10.8815
extract	-10.8815
gnuhata	-10.8815
gress	-10.8815
haracter	-10.8815
htdocs	-10.8815
imension	-10.8815
pixel	-10.8815
rithmetic	-10.8815
statement	-10.8815
ttempt	-10.8815
uzz	-10.8815
xtension	-10.8815
एक्सेप्शन्	-10.8815
कूटशब्द	-10.8815
डैरेक्ट	-10.8815
तुमारेभिरे	-10.8815
तुमारेभे	-10.8815
ध्रुव	-10.8815
पतंजलि	-10.8815
बृहन्	-10.8815
ब्लास्ट्	-10.8815
रचनात्मकता	-10.8815
लैब्रेरि	-10.8815
श्रृंग	-10.8815
सपरेटर्	-10.8815
ोदाहरण	-10.8815
ोपविश	-10.8815
▁260	-10.8815
▁Advance	-10.8815
▁Amazon	-10.8815
▁Copies	-10.8815
▁Element	-10.8815
▁Green	-10.8815
▁ISSN	-10.8815
▁Jan	-10.8815
▁Maintenance	-10.8815
▁Mumbai	-10.8815
▁Operat	-10.8815
▁Preview	-10.8815
▁Printer	-10.8815
▁Rupee	-10.8815
▁Static	-10.8815
▁Surname	-10.8815
▁Value	-10.8815
▁Wi	-10.8815
▁applet	-10.8815
▁blue	-10.8815
▁download	-10.8815
▁employee	-10.8815
▁language	-10.8815
▁move	-10.8815
▁order	-10.8815
▁quiz	-10.8815
▁range	-10.8815
▁stroke	-10.8815
▁अप्डेट्	-10.8815
▁अभिव्यक्त	-10.8815
▁अर्हति	-10.8815
▁आकाङ्क्ष	-10.8815
▁आकाशगंगा	-10.8815
▁आगमिष्यति	-10.8815
▁आरोपित	-10.8815
▁इन्टर्फेस्	-10.8815
▁कठिन	-10.8815
▁कठोर	-10.8815
▁कृषका	-10.8815
▁क्रियमाणे	-10.8815
▁तमश्लोक	-10.8815
▁दृग्गोचर	-10.8815
▁नासरतीय	-10.8815
▁निर्म्मल	-10.8815
▁परिगण्यते	-10.8815
▁परिचारक	-10.8815
▁पुनरावर्तन	-10.8815
▁प्रचलति	-10.8815
▁प्रत्यूचुः	-10.8815
▁प्रशंसनीया	-10.8815
▁प्रोपर्टि	-10.8815
▁फोर्मेट्	-10.8815
▁बर्णब्बा	-10.8815
▁बुभुक्षित	-10.8815
▁भुङ्क्त	-10.8815
▁भूकम्प	-10.8815
▁मोड्यूल्	-10.8815
▁म्रियन्ते	-10.8815
▁युष्मदन्त	-10.8815
▁विजेता	-10.8815
▁संतुलित	-10.8815
▁समाप्त्यनन्तरं	-10.8815
▁सहस्रसेनापत	-10.8815
▁सांस्कृतिक	-10.8815
▁स्पेसिफ़ै	-10.8815
irculat	-10.8815
mrk	-10.8815
otification	-10.8815
उत्पादन	-10.8815
▁KTurtle	-10.8815
▁Unit	-10.8815
▁priv	-10.8815
▁redirect	-10.8815
▁success	-10.8815
▁अक्सीजन	-10.8815
▁उत्पादय	-10.8815
▁उत्साह	-10.8815
▁उपद्वीप	-10.8815
▁जालान्वेषक	-10.8815
▁डिफाल्ट्	-10.8815
▁तृप्ति	-10.8815
▁ध्यातव्य	-10.8815
▁निगूढ	-10.8815
▁निर्वहति	-10.8815
▁पञ्चभुज	-10.8815
▁विघ्न	-10.8815
▁विभूष	-10.8815
▁शल्यचिकित्सा	-10.8815
▁श्रोत्र	-10.8815
▁श्रोष्य	-10.8815
▁सम्भाषण	-10.8815
▁सूक्ष्मव्यायाम	-10.8815
▁स्टुडेण्ट्	-10.8815
Dialog	-10.8815
white	-10.8815
डोलर्	-10.8815
बालकाणां	-10.8815
▁Availab	-10.8815
▁Move	-10.8815
▁अंतरिक्ष	-10.8815
▁उद्घाटन	-10.8815
▁उपदेष्ट	-10.8815
▁उपाविश	-10.8815
▁कंपैल	-10.8815
▁कर्तुमर्ह	-10.8815
▁दशमांश	-10.8815
▁दिगन्त	-10.8815
▁धैर्य्य	-10.8815
▁नामाङ्कन	-10.8815
▁परिवेषय	-10.8815
▁भिन्नजातीया	-10.8815
▁मेनिरे	-10.8815
▁युगपन्नु	-10.8815
▁योद्धार	-10.8815
▁विद्यार्थी	-10.8815
▁व्यवस्थापयामि	-10.8815
▁सांसारिक	-10.8815
▁सोमवासर	-10.8815
▁स्खल	-10.8815
▁स्वप्राणान	-10.8815
jitter	-10.8815
पैथन्	-10.8815
▁feed	-10.8815
▁नेच्छामि	-10.8815
▁पवित्रस्यात्मन	-10.8815
▁ललाट	-10.8815
Dispatch	-10.8815
गौशालाया	-10.8815
चिकीर्ष	-10.8815
▁Hue	-10.8815
▁उत्सव	-10.8815
▁बिभीत	-10.8815
▁मुद्रापणीय	-10.8815
▁रोमिलोका	-10.8815
▁स्वशिर	-10.8815
copies	-10.8815
two	-10.8815
श्रूयत	-10.8815
ादारभ्य	-10.8815
ावृत्तिः	-10.8815
▁जीर्ण	-10.8815
▁पुरस्कार	-10.8815
▁प्रणाल्या	-10.8815
▁रुधिर	-10.8815
मूर्त्ति	-10.8815
रिवर्स्	-10.8815
होस्वित	-10.8815
▁सुंदर	-10.8815
च्छिन्न	-10.8815
ampp	-10.8815
क्लिष्ट	-10.8815
▁दिखा	-10.8815
▁भोक्ष्य	-10.8815
▁र्भविष्यति	-10.8815
▁भूतग्रस्त	-10.8815
▁मन्त्रिण	-10.8815
▁सन्तुलित	-10.8815
svg	-10.8815
▁तन्त्रांश	-10.8815
Trash	-10.8815
▁एलिय	-10.8815
▁लघ्व	-10.8815
▁ग्रह्ण	-10.8815
▁निस्तार	-10.8815
▁वेश्म	-10.8815
▁श्वासत्यागस	-10.8815
भविष्यद्वाक्य	-10.8815
मैनस्	-10.8815
वशीभूत	-10.8815
▁आश्रित	-10.8815
गिंग	-10.8815
▁गमिष्यति	-10.8815
CPU	-10.8815
▁चतस्र	-10.8815
▁दंडासन	-10.8815
▁अकृत्वा	-10.8815
▁गाढतमा	-10.8815
रुचि	-10.8815
epti	-10.8815
▁अन्यदन्य	-10.8815
▁पूर्णाङ्क	-10.8815
▁पाणिनि	-10.8815
▁बच्चो	-10.8815
▁मीटर	-10.8815
▁साधारण	-10.8815
तिस्रः	-10.8815
▁प्रयच्छ	-10.8815
▁सूचयन्त	-10.8815
▁कुणप	-10.8815
▁कणाद	-10.8815
▁गृह्लन्ति	-10.8815
▁कन्नेक्	-10.8815
▁दशरथ	-10.8815
▁opac	-10.8815
▁डब्	-10.8815
विलोम	-10.8815
▁other	-10.8815
spect	-10.8815
▁अचलत	-10.8815
▁बध्नाति	-10.8815
▁फीट	-10.8815
▁मदर्थ	-10.8815
maths	-10.8815
▁उन्नत	-10.8815
▁मयुर	-10.8815
▁curve	-10.8815
▁बहुमूल्य	-10.8815
browser	-10.8815
▁अचला	-10.8815
▁निरीक्षमाणे	-10.8815
▁निर्भर	-10.8815
▁जगन्	-10.8815
▁पातयित्वा	-10.8815
▁स्यन्दन	-10.8815
मल्टि	-10.8815
▁तत्समान	-10.8815
▁Forum	-10.8815
▁tile	-10.8815
▁सान्त्वना	-10.8815
gimp	-10.8815
डेमो	-10.8815
दिशाया	-10.8815
▁एकलव्य	-10.8815
▁निरीक्ष	-10.8815
▁विकस	-10.8815
▁आनंद	-10.8815
▁तच्छि	-10.8815
▁गभीर	-10.8815
▁र्युष्मा	-10.8815
▁साधु	-10.8815
Menu	-10.8815
स्टिच	-10.8815
व्यापार	-10.8815
ntry	-10.8815
ाधिकारिण	-10.8815
▁छिन्न	-10.8815
ोपस्थित	-10.8816
▁Customer	-10.8816
▁मानसिक	-10.8816
▁मत्सविधे	-10.8816
▁अनुमत	-10.8816
▁इत्येतादृश	-10.8816
▁विद्यालय	-10.8816
view	-10.8816
▁पितुरीश्वर	-10.8816
▁लौह	-10.8816
▁सोर्स्	-10.8816
▁योजयितुम	-10.8816
▁उत्थास्यति	-10.8816
▁पुनराग	-10.8816
▁Gradient	-10.8816
कीर्तन	-10.8816
atalog	-10.8816
ओवर्लोडिङ्ग्	-10.8816
▁ददति	-10.8816
▁प्रियतम	-10.8816
▁उद्देश्य	-10.8816
▁मत्प्रेरयित	-10.8816
Send	-10.8816
▁प्रोग्रामिङ्ग्	-10.8816
▁create	-10.8816
▁एवम्प्रकारेण	-10.8816
▁लम्बरेख	-10.8816
▁आनेतु	-10.8816
▁ग्राहक	-10.8816
▁माकिदनियादेश	-10.8816
चूर्ण	-10.8817
▁उपदिश	-10.8817
▁नाशक्न	-10.8817
▁Use	-10.8817
▁वनवास	-10.8817
▁जगाम	-10.8817
▁सान्त्वयित	-10.8817
दुर्गति	-10.8817
▁rm	-10.8817
नन्तकाल	-10.8817
महर्षि	-10.8817
▁षड	-10.8817
ेच्छया	-10.8817
▁समर्पयत	-10.8817
प्रचण्ड	-10.8817
▁योजयतु	-10.8817
▁प्रदातु	-10.8817
NA	-10.8817
▁शुचि	-10.8817
▁who	-10.8817
▁आश्रय	-10.8817
▁drop	-10.8818
गमत्	-10.8818
▁पर्णानि	-10.8818
श्चैते	-10.8818
▁कतिपयदिन	-10.8818
▁प्रेरय	-10.8818
▁दृष्टिकोण	-10.8818
▁सर्व्वथा	-10.8818
ोक्सि	-10.8818
▁अतिथ	-10.8818
AST	-10.8818
▁shell	-10.8818
▁जानवर	-10.8818
CA	-10.8818
▁Log	-10.8819
▁भूमे	-10.8819
sitiv	-10.8819
▁Anima	-10.8819
▁पृष्ठबलेन	-10.8819
▁शिमोन्पितर	-10.8819
▁सर्वश्रेष्ठ	-10.8819
▁यच्छाम	-10.8819
▁पदतल	-10.8819
▁कैश्चि	-10.8819
▁श्रीराम	-10.882
प्रवृत्ति	-10.882
▁विसर्जन	-10.882
▁सम्यगस्ति	-10.882
▁निन्दन्त	-10.882
ावलोकन	-10.882
करवम्	-10.882
▁लक्षयत	-10.882
▁forum	-10.8821
▁अकौ	-10.8821
▁मन्त्रयित्वा	-10.8821
▁अव्यय	-10.8821
▁रचनीय	-10.8821
▁इन्टर्	-10.8821
▁directory	-10.8821
▁स्वर्गराज्य	-10.8821
पिटक	-10.8821
▁प्रत्यागच्छत	-10.8821
▁argument	-10.8821
▁श्वसनाभ्यास	-10.8821
ाइन	-10.8821
▁propert	-10.8821
▁Dash	-10.8821
▁पापान्य	-10.8821
▁अन्यान्य	-10.8822
ेष्यति	-10.8822
ानुरूप	-10.8822
▁दक्षिणकोण	-10.8822
▁सुख्यात	-10.8822
▁Hel	-10.8822
▁धूल	-10.8822
▁सोवदत्	-10.8822
▁चक्रुः	-10.8822
▁गर्म	-10.8823
▁सर्वाधिक	-10.8823
▁सामान्यश्वास	-10.8824
▁बाल्यकाल	-10.8824
▁मातामह	-10.8824
▁अग्रिमपृष्ठ	-10.8824
▁दृष्टान्तकथा	-10.8824
▁छोड़ें	-10.8824
▁मुद्राप्यते	-10.8825
▁परिश्रम	-10.8825
▁कीटक	-10.8825
▁नर्तक्य	-10.8825
▁योजयित्वा	-10.8825
ाध्याय	-10.8825
▁POS	-10.8826
▁भाति	-10.8826
▁पेशी	-10.8826
center	-10.8826
▁अग्रत	-10.8826
▁समानान्तर	-10.8826
lette	-10.8827
ाधारित	-10.8827
▁आवश्यकतानुसारेण	-10.8827
▁अवबोध	-10.8827
▁इत्येभि	-10.8827
मेतत्	-10.8828
भ्रष्ट	-10.8828
▁भृत्या	-10.8828
▁mus	-10.8828
▁अनामिक	-10.8828
xls	-10.8829
▁मनुष्यपुत्र	-10.8829
▁तदनुसारेण	-10.8829
▁मध्यभाग	-10.883
सधारि	-10.883
▁स्वेच्छा	-10.883
▁Areas	-10.8831
ावश्यकता	-10.8831
▁सञ्चर	-10.8831
▁दुर्ब्बल	-10.8831
▁चिन्त्यत	-10.8831
lane	-10.8831
▁मृदाया	-10.8832
ाचारिणो	-10.8832
▁मूक	-10.8833
▁खड़	-10.8833
▁हंसासन	-10.8833
▁शूर	-10.8833
▁स्टेट	-10.8833
मूसाव्यवस्था	-10.8833
भिलष	-10.8834
▁र्यीशु	-10.8834
▁व्यर्थ	-10.8835
▁समर्पयिष्यति	-10.8835
▁परिवर्तयति	-10.8836
▁वदिष्यन्ति	-10.8836
▁स्वान्तःकरण	-10.8836
▁शक्ष्यथ	-10.8836
▁धारयति	-10.8836
▁can	-10.8836
▁आत्मिक	-10.8837
प्रदक्षिणक्रमे	-10.8837
▁वदेत	-10.8837
▁विकल्पमुपयुज्य	-10.8838
▁आदित्य	-10.8838
धिपते	-10.8838
साधना	-10.8838
▁तत्कर्तुम्	-10.8838
▁करोट	-10.8838
▁समीकरण	-10.8839
देशीयलोकान	-10.8839
▁BO	-10.884
bit	-10.884
nested	-10.884
AR	-10.8841
▁sort	-10.8841
इङ्क्स्केप्	-10.8842
त्राता	-10.8842
सारल्य	-10.8843
▁निर्दिशति	-10.8843
▁बाह	-10.8843
▁जननम्	-10.8844
▁काटन	-10.8844
▁र्यूय	-10.8844
▁दिवा	-10.8844
▁अनन्य	-10.8845
▁भवेताम्	-10.8846
त्युच्च	-10.8847
▁पतित्वा	-10.8847
▁शीतल	-10.8848
▁स्युः	-10.8848
उच्चै	-10.8849
▁विभाजित	-10.885
घोषणा	-10.885
▁Mis	-10.8851
▁निद्रा	-10.8851
▁वर्णक्रम	-10.8851
▁19	-10.8851
▁14	-10.8856
▁गिन	-10.8856
▁सादृश्य	-10.8856
war	-10.8857
▁गृहकार्यनिमित्त	-10.8857
▁entered	-10.8858
▁Gen	-10.8858
▁स्थित्वा	-10.8859
▁कियत्	-10.8859
एकादश	-10.886
तीर्ण	-10.8863
ाटक	-10.8863
▁तिष्ठतु	-10.8864
टोरियल	-10.8865
▁cp	-10.8865
▁कुरुथ	-10.8866
तोऽप्यधिक	-10.8866
ञ्जने	-10.8867
विड्	-10.8867
▁भ्रामण	-10.8873
व्यवस्थापन	-10.8874
▁मन्द	-10.8876
▁car	-10.8876
ाश्रित	-10.8877
भोज्यपदार्थ	-10.8878
▁उत्तिष्ठेत	-10.8882
▁कथिताया	-10.8882
▁कमेण्ट्	-10.8883
▁आगच्छतु	-10.8883
▁विफल	-10.8883
▁नासा	-10.8885
गन्तुम्	-10.8887
▁मुद्रय	-10.8888
▁मन्त्रणा	-10.8889
▁ग्रीवाया	-10.8889
▁वियोग	-10.889
संग्रह	-10.889
ाभ्याम	-10.889
▁क्व	-10.8891
▁अपचय	-10.8898
ke	-10.8898
▁पीडिता	-10.8898
▁मरण	-10.8898
लक्ष्मण	-10.8899
LE	-10.8903
▁विकार	-10.8907
निर्गच्छन्ति	-10.891
यिहूदीयदेश	-10.8912
दक्षिणपार्श्वस्थ	-10.8915
▁द्वितीयवार	-10.8915
▁मिसरदेश	-10.8915
▁आचरण	-10.8917
▁भवेद	-10.8917
▁अकुर्व्वन्	-10.8918
▁कलर	-10.8923
▁चित्त	-10.8925
टिप्	-10.8926
▁उद्धृत	-10.8927
▁पत्न	-10.8928
▁मध्यमा	-10.8931
ोऽकथयत्	-10.8933
▁अवश्यम	-10.8944
▁नियन्त्रण	-10.8944
▁सर्पण	-10.8945
▁प्रेषयितु	-10.8947
duc	-10.8949
program	-10.895
▁अहमेक	-10.8953
▁परियोजनाया	-10.8958
ER	-10.8961
▁इंट	-10.8964
कण्डीशन	-10.8966
cout	-10.8967
▁कूर्	-10.8967
बीन्	-10.897
▁पुमा	-10.8973
ोत्थान	-10.898
▁मूलाकृत	-10.8983
तावत्काल	-10.8994
rotat	-10.8995
निरीक्षण	-10.9002
चत्वारिंशत्	-10.9005
▁प्रार्थयध्व	-10.9007
Mid	-10.9008
शपथ	-10.9009
फलस्वरूप	-10.9011
घानिष्य	-10.9018
ब्राहीम	-10.902
पीडाया	-10.9024
▁उपास	-10.9028
योजनीयमिति	-10.9034
throw	-10.9043
ितवत्य	-10.9046
▁000	-10.9047
्टन्	-10.9048
ार्ट्	-10.9049
जङ्घाया	-10.9052
▁अधिकज्ञाना	-10.9055
म्बर	-10.9065
▁दृढीकरोत	-10.9065
ध्वनिनां	-10.9073
असन्तुलन	-10.9075
परिवर्त	-10.9078
सम्पद	-10.909
▁करेग	-10.9109
mon	-10.9119
▁प्रचारयितु	-10.9147
▁कथमिद	-10.9156
भवदि	-10.9158
सूर्य	-10.9167
तस्माद	-10.917
▁sca	-10.9174
विपक्ष	-10.9177
Preferences	-10.919
▁उन्म	-10.9197
विलम्ब	-10.9205
पुराण	-10.9207
▁चिनु	-10.9215
▁विकल्पद्वय	-10.9217
▁debug	-10.923
भृत्य	-10.9244
▁निर्गत	-10.9252
वह्न	-10.9274
सुक्त	-10.9275
नुरोधा	-10.9281
▁उद्ध	-10.9291
▁सोरसीदोन	-10.9294
▁परमात्म	-10.9306
▁अन्विष्य	-10.931
श्चिद	-10.934
▁वर्धयाम	-10.9357
दृग	-10.9358
3.1	-10.9361
पीलातो	-10.937
थ्रेड	-10.9372
pop	-10.9381
▁स्ना	-10.9401
परिधि	-10.9413
▁लेखितुम	-10.9413
वर्क्	-10.9439
तन्त्रिक	-10.9443
ोल्य	-10.9459
नुज्ञा	-10.9474
वर्णिका	-10.9493
धारेण	-10.9533
FS	-10.9558
उपविश्य	-10.9572
▁आनयन	-10.9585
्रोल्	-10.9587
पानं	-10.9593
bal	-10.9636
जातय	-10.9672
▁निवर्त्त	-10.9679
रामू	-10.9713
गमनाय	-10.9713
िव्	-10.9716
नन्दि	-10.9742
▁प्रत्यवोच	-10.9772
Options	-10.9789
layer	-10.9803
दृष्टि	-10.9805
मेध	-10.9805
निवसति	-10.9844
रखना	-10.9845
▁बट	-10.9872
▁भृ	-10.9872
▁गतवत	-10.9873
▁गायिक	-10.9885
सन्धारिकाया	-10.9894
Enrol	-10.9974
▁साक्षाद	-11.0001
▁प्रारम्भिक	-11.0002
▁पोर्ट	-11.0051
तिष्ठेत	-11.0058
गाव	-11.0063
उद्ग	-11.0063
▁पश्व	-11.007
▁आड	-11.0119
वस्तूना	-11.0123
▁निवास	-11.0143
▁वसन	-11.0152
▁Dra	-11.0152
नुसारं	-11.0163
▁निवेश्य	-11.0174
▁प्रकाशयिष्य	-11.0186
पद्यत	-11.0221
सेल्स	-11.0256
Courses	-11.0285
क्रीडाया	-11.0291
सारयितुं	-11.0323
साधनं	-11.0379
▁शीर्षिकय	-11.0401
▁भगिन्य	-11.0403
▁Ev	-11.0406
▁इत्यस्मा	-11.0421
वरणयो	-11.0424
होरा	-11.0432
खान	-11.046
roll	-11.0466
ेच्छा	-11.0473
र्य्यते	-11.0517
कीर्त्तय	-11.0532
वर्त्तिन	-11.0534
▁एकस्मात	-11.0591
चक्र	-11.0618
हेश्	-11.0621
यस्यार्थ	-11.0651
ग्रहणं	-11.0678
▁उद्दे	-11.0727
▁पूरित	-11.0756
साध्यं	-11.0772
▁पुष्	-11.0872
▁Option	-11.0932
स्तेज	-11.0961
ूर्य्य	-11.1026
हिताय	-11.1033
सेलेक्ट	-11.1074
▁यीश	-11.1084
ुत्पत्	-11.1108
न्यूनता	-11.112
तेजो	-11.1152
▁वपन	-11.1265
वैशिष्ट्यानि	-11.129
ातिष्ठत्	-11.1309
▁जातमित	-11.1331
अङ्गानि	-11.1333
शिक्षक	-11.1336
सम्पाद	-11.1401
वाद्य	-11.1425
पितामही	-11.1432
▁Curren	-11.1433
न्येषाम	-11.1461
अर्था	-11.1513
▁गिर	-11.1536
ित्रा	-11.1606
वाक्यमिद	-11.1626
▁row	-11.1685
▁शिष्यास्त	-11.1686
ह्नु	-11.1693
सूत्राण	-11.1726
तरु	-11.1782
ादिशत्	-11.1786
rows	-11.1849
▁स्वर्गाद	-11.185
▁Pres	-11.1863
रक्षित	-11.187
users	-11.1875
frame	-11.1889
एप्लिकेशन्	-11.1889
पृथक	-11.1889
▁विद्यार्थि	-11.1889
▁निरीक्षित	-11.1892
श्रेष्ठ	-11.1893
copy	-11.1893
पार्ष्णी	-11.1893
लब्ध	-11.1895
Bank	-11.1895
Google	-11.1895
admin	-11.1895
डेटाबेस्	-11.1895
प्रतिज्ञा	-11.1895
यिहूदा	-11.1896
योहन्	-11.1896
पेरामीटर्	-11.1897
स्रोत	-11.1897
दिनाङ्क	-11.1897
सिस्टम्	-11.1897
Create	-11.1898
सोपान	-11.1898
प्रवेश	-11.1898
तीक्ष्ण	-11.1899
grade	-11.1899
सम्मुख	-11.1899
स्थापन	-11.1899
प्रयत्न	-11.1899
सन्निधौ	-11.1899
शाखा	-11.19
वृद्ध	-11.19
Hello	-11.19
ऊ	-11.19
केन्द्र	-11.1901
Project	-11.1901
स्तम्भ	-11.1902
शारीरिक	-11.1902
Display	-11.1902
दुग्ध	-11.1902
पेटर्न्	-11.1903
परित्राण	-11.1903
स्पेस्	-11.1904
टेबल्	-11.1904
श्वेत	-11.1904
रेकोर्ड्	-11.1904
Edit	-11.1905
निर्मातु	-11.1905
मस्तिष्क	-11.1905
स्ट्रिङ्ग्	-11.1905
आवश्यकता	-11.1905
प्राचीन	-11.1905
search	-11.1906
अर्जुन	-11.1906
डोट्	-11.1906
किन्त्व	-11.1906
▁दक्षिणपार्श्व	-11.1907
number	-11.1907
टूल्	-11.1907
स्टेट्मेण्ट्	-11.1908
विण्डो	-11.1908
प्रत्येक	-11.1908
टेक्स्ट्	-11.1908
इत्यस्मिन	-11.1908
सम्पूर्ण	-11.1909
OK	-11.191
समस्या	-11.191
Student	-11.191
औट्	-11.1912
मपेक्ष	-11.1913
भरत	-11.1916
सरल	-11.1917
this	-11.1918
युद्ध	-11.1927
स्नेह	-11.194
मोर	-11.1941
▁परियोजना	-11.1952
परीक्षा	-11.1954
वयञ्च	-11.1967
▁याकूब	-11.1969
rogram	-11.198
विहाया	-11.1982
libr	-11.1987
क्साइड	-11.1988
चित्रकणान	-11.1995
▁Access	-11.1999
वर्धना	-11.2011
भवितुं	-11.2013
्डौ	-11.2014
शोक	-11.2017
▁ट्यू	-11.2022
मध्यस्थ	-11.2037
ोत्था	-11.2041
▁ग्रीवा	-11.2045
lati	-11.205
▁अनुवाद	-11.2052
▁अर्च	-11.2054
▁उत्तिष्ठ	-11.2055
nformation	-11.2068
ङ	-11.207
▁प्रोटीन	-11.2073
▁लिनक्स	-11.2076
▁इण्टर्फ़ेस	-11.2077
▁प्रोग्राम	-11.2078
▁बाक्स	-11.2086
पृच्छत	-11.2092
older	-11.2094
▁विवृण	-11.2098
▁सम्पत्त	-11.2101
▁स्मृत	-11.2103
▁बहिष्क	-11.2104
▁आश्चर्य	-11.2106
▁व्यवहर	-11.2109
▁करोम	-11.211
▁प्राप्नुवन्त	-11.2113
▁......	-11.2118
▁समर्पयिष्य	-11.212
पेक्षते	-11.2122
▁Appl	-11.2123
▁नितम्ब	-11.2124
▁ग्रामीण	-11.2126
▁समाप्य	-11.2133
▁dia	-11.2133
कार्ब	-11.2134
्यमाणा	-11.2135
lass	-11.2137
▁Qui	-11.2138
igh	-11.214
▁dis	-11.2142
▁Ani	-11.2142
/201	-11.2142
equest	-11.2143
▁तन्नाम	-11.2143
urchase	-11.2143
hift	-11.2143
olour	-11.2144
ontact	-11.2144
डुम्बर	-11.2145
पलभ्यते	-11.2146
दभीष्ट	-11.2146
तमिस्र	-11.2146
लङ्घ	-11.2146
inux	-11.2147
avigat	-11.2147
गोशाला	-11.2147
द्घाट	-11.2147
▁नियोजन	-11.2147
स्टाल्	-11.2147
▁cur	-11.2147
जेक्ट्	-11.2147
▁Sam	-11.2148
▁भीमसरटा	-11.2148
▁ऐसोम	-11.2148
್	-11.2148
▁मृतानामुत्थ	-11.2148
expect	-11.2148
दतिष्ठत्	-11.2148
फीलिक्ष	-11.2148
वेरियबल्	-11.2148
▁आप्लाव	-11.2148
▁आशीर्व	-11.2148
▁करसञ्चाय	-11.2148
▁रङ्गसिक्त	-11.2148
▁रचयेयु	-11.2148
▁व्यवकलन	-11.2148
▁सूर्य्यकान्तमण	-11.2148
2.4.7	-11.2148
BufferedReader	-11.2148
Complete	-11.2148
Gmail	-11.2148
NAME	-11.2148
Org	-11.2148
Output	-11.2148
Sunday	-11.2148
Variables	-11.2148
Yahoo	-11.2148
[1]	-11.2148
bstract	-11.2148
complete	-11.2148
erification	-11.2148
etEmail	-11.2148
isible	-11.2148
mission	-11.2148
odifier	-11.2148
ompose	-11.2148
process	-11.2148
project	-11.2148
replace	-11.2148
standard	-11.2148
studentDetail	-11.2148
testScore	-11.2148
xecution	-11.2148
yahoo	-11.2148
{	-11.2148
अल्फाबेट्	-11.2148
आस्टरिक्	-11.2148
एम्बेड	-11.2148
कार्बनडाइआक्साइड	-11.2148
गोस्तनीरस	-11.2148
ट्रोजन	-11.2148
डेलिवरि	-11.2148
देक्ष्यति	-11.2148
भाण्डागारा	-11.2148
मुदाहरण	-11.2148
रेकोर्डिङ्ग्	-11.2148
विज्ञानक्षेत्रे	-11.2148
शत्रुघ्न	-11.2148
श्वासोच्छ्वास	-11.2148
स्टाफ्	-11.2148
स्तत्समीप	-11.2148
ारब्धवान्	-11.2148
▁5,00,000	-11.2148
▁Error	-11.2148
▁Healing	-11.2148
▁Language	-11.2148
▁Process	-11.2148
▁Repeatable	-11.2148
▁Scrap	-11.2148
▁Session	-11.2148
▁TeXworks	-11.2148
▁brac	-11.2148
▁caption	-11.2148
▁condition	-11.2148
▁configur	-11.2148
▁contain	-11.2148
▁desktop	-11.2148
▁details	-11.2148
▁doGet	-11.2148
▁drive	-11.2148
▁guideline	-11.2148
▁head	-11.2148
▁issue	-11.2148
▁kilogram	-11.2148
▁laptop	-11.2148
▁length	-11.2148
▁local	-11.2148
▁location	-11.2148
▁parameter	-11.2148
▁parentheses	-11.2148
▁person	-11.2148
▁place	-11.2148
▁podcast	-11.2148
▁que	-11.2148
▁register	-11.2148
▁require	-11.2148
▁response	-11.2148
▁reverse	-11.2148
▁semi	-11.2148
▁successfully	-11.2148
▁tea	-11.2148
▁अन्विषन्तु	-11.2148
▁अवधीयता	-11.2148
▁अवसर्पिण्य	-11.2148
▁इंचपरिमित	-11.2148
▁इण्टर्न	-11.2148
▁इन्स्टेन्स्	-11.2148
▁इफिष	-11.2148
▁उद्घाटयतु	-11.2148
▁उपारोप	-11.2148
▁उल्लिखित	-11.2148
▁ऊर्द्व्व	-11.2148
▁ऋजु	-11.2148
▁एक्टिविटि	-11.2148
▁एतदर्थम्	-11.2148
▁कन्सोल	-11.2148
▁कफर्नाहूम	-11.2148
▁काठिन्य	-11.2148
▁कुक्कुट	-11.2148
▁क्रीतवान्	-11.2148
▁क्लिश्य	-11.2148
▁गवेषयत	-11.2148
▁गुल्फ	-11.2148
▁चतुरस्र	-11.2148
▁चर्चयामः	-11.2148
▁चेतुमर्ह	-11.2148
▁डयलाग	-11.2148
▁डेस्क्	-11.2148
▁डोक्युमेण्ट	-11.2148
▁तदुद्घाटयाम	-11.2148
▁तदुद्घाटयितुं	-11.2148
▁तन्त्रिकातन्त्र	-11.2148
▁त्यक्ष्य	-11.2148
▁दृढीक्रियता	-11.2148
▁धकेलें	-11.2148
▁धनुर्विद्या	-11.2148
▁नवनीतं	-11.2148
▁नागार्जुन	-11.2148
▁नालभन्त	-11.2148
▁नाशक्नुवन्	-11.2148
▁निक्षिप्त	-11.2148
▁निक्षेपात्	-11.2148
▁पाठार्थमहम्	-11.2148
▁पार्ष्ण्य	-11.2148
▁प्यारामीटर्	-11.2148
▁प्रक्षिप	-11.2148
▁प्राकाश्य	-11.2148
▁प्लास्टिक	-11.2148
▁बभाषिरे	-11.2148
▁बिन्दून	-11.2148
▁बिभ्युः	-11.2148
▁बुभुक्षा	-11.2148
▁भवदिच्छानुसार	-11.2148
▁भीमसेन	-11.2148
▁भोजनपरिवेशन	-11.2148
▁मज्जयित	-11.2148
▁मदीश्वर	-11.2148
▁मध्यमधूसरवर्ण	-11.2148
▁मल्कीषेदक	-11.2148
▁मासपेशिय	-11.2148
▁मेरुदण्ड	-11.2148
▁म्यानेजर्	-11.2148
▁युष्मदर्थम	-11.2148
▁रुध्यते	-11.2148
▁र्भवितव्यं	-11.2148
▁र्यीशो	-11.2148
▁लायदिकेया	-11.2148
▁वाणिज्य	-11.2148
▁वामभागस्थ	-11.2148
▁व्यश्वसीत्	-11.2148
▁व्याप्नोत्	-11.2148
▁शतसेनापति	-11.2148
▁शलभासन	-11.2148
▁संक्षिप्त	-11.2148
▁संवत्सर	-11.2148
▁सतर्काः	-11.2148
▁सम्पद्यमाना	-11.2148
▁सर्व्ववृत्तान्त	-11.2148
▁सहभागित्वं	-11.2148
▁सान्त्वनया	-11.2148
▁सिखरिय	-11.2148
▁सुभद्रा	-11.2148
▁सूचयतु	-11.2148
▁सेतुबंधासन	-11.2148
▁होस्टेल्	-11.2148
पेकेजस्	-11.2148
सुखभोग	-11.2148
स्टैपण्ड्	-11.2148
ाज्ञाग्राहिण	-11.2148
्विघ्न	-11.2148
▁Engine	-11.2148
▁running	-11.2148
▁submit	-11.2148
▁अनुलोम	-11.2148
▁आकुञ्चन	-11.2148
▁आयव्यय	-11.2148
▁आरोपय	-11.2148
▁उत्पादित	-11.2148
▁एजुकेशन	-11.2148
▁ऑकसीजन	-11.2148
▁कण्ठस्थीकरण	-11.2148
▁कम्पोनेण्ट्	-11.2148
▁क्रियतां	-11.2148
▁क्षत्रिया	-11.2148
▁ट्रान्सेक्षन्	-11.2148
▁दूग्ध	-11.2148
▁परिचर्य्या	-11.2148
▁परिष्कुरु	-11.2148
▁फ़िल्टर्	-11.2148
▁फिल्टर्	-11.2148
▁भास्कराचार्य	-11.2148
▁मिसर्देश	-11.2148
▁मेमोरि	-11.2148
▁यदुच्यते	-11.2148
▁विस्मयापन्न	-11.2148
▁समन्वय	-11.2148
▁सर्कल्	-11.2148
declar	-11.2148
ploy	-11.2148
vents	-11.2148
प्रभृत	-11.2148
मादिष्टवान्	-11.2148
ल्क्युल	-11.2148
स्थसमित	-11.2148
▁ARG	-11.2148
▁operat	-11.2148
▁अस्मत्प्रभो	-11.2148
▁उप्पिनप	-11.2148
▁कल्याण	-11.2148
▁ट्रान्स्लेट्	-11.2148
▁डिस्क्रिप्	-11.2148
▁डीग्रीपरिम	-11.2148
▁द्रष्टव्य	-11.2148
▁पिङ्गल	-11.2148
▁बुध्यते	-11.2148
▁भागाहार	-11.2148
▁वार्लि	-11.2148
चक्षुर्	-11.2148
ाङ्गुल	-11.2148
▁5.5.	-11.2148
▁9.4	-11.2148
▁Linker	-11.2148
▁resol	-11.2148
▁इण्टर्फ	-11.2148
▁इस्रायेल्लोकाना	-11.2148
▁कीजिए	-11.2148
▁नमस्कृत	-11.2148
▁यदीश्वर	-11.2148
▁लचील	-11.2148
▁स्ट्राण्ड्	-11.2148
timing	-11.2148
xcf	-11.2148
क्रान्ता	-11.2148
चतुष्टय	-11.2148
निष्कलङ्क	-11.2148
ान्यभवन्	-11.2148
ोऽनुग्रह	-11.2148
▁front	-11.2148
▁list	-11.2148
▁उच्छिन्ना	-11.2148
▁कालिदास	-11.2148
▁क्रियताम	-11.2148
▁ब्याण्ड्	-11.2148
▁यदेतद्	-11.2148
▁रुदन्त	-11.2148
▁सङ्कलित	-11.2148
ट्रिब्यूट्स्	-11.2148
मोड्युल्	-11.2148
▁chap	-11.2148
▁इतस्तत	-11.2148
▁थ्री	-11.2148
▁धनुषाकार	-11.2148
▁भित्ते	-11.2148
▁स्मर्तव्यम्	-11.2148
▁हरितवृक्षा	-11.2148
▁हरेणु	-11.2148
drawing	-11.2148
गवेषक	-11.2148
वणिज	-11.2148
▁Chr	-11.2148
▁अपमार्जक	-11.2148
▁कुल्हाड	-11.2148
▁घुमाऐं	-11.2148
▁दर्शात	-11.2148
jdk	-11.2148
व्यतिरेक	-11.2148
श्रेण्या	-11.2148
ship	-11.2148
▁कथयाम्बभूव	-11.2148
▁पानपात्र	-11.2148
▁प्राप्तमस्माभिः	-11.2148
▁प्रोचु	-11.2148
▁बाधते	-11.2148
▁वाहिनी	-11.2148
रन्ध्र	-11.2148
रुपयोग	-11.2148
लम्पट	-11.2148
▁अग्रभाग	-11.2148
▁इस्रायेलीयलोक	-11.2148
▁जटिल	-11.2148
▁परिहर्तु	-11.2148
▁भेर्य	-11.2148
अध्यायान्	-11.2148
क्लोरो	-11.2148
ष्टादश	-11.2148
▁ज्ञानेन्द्रिय	-11.2148
▁पण्डित	-11.2148
▁बद्धनाति	-11.2148
▁संस्मृत	-11.2148
▁सकारात्मक	-11.2148
▁सिन्हा	-11.2148
चैतन्य	-11.2148
▁अभविष्यत्	-11.2148
▁आभरण	-11.2148
▁घुमा	-11.2148
▁शयतान	-11.2148
cast	-11.2148
▁भैष्ट	-11.2148
▁सञ्चालयत	-11.2148
दर्शिष्यते	-11.2148
द्भुत	-11.2148
स्वातन्त्र्य	-11.2148
▁शतगुण	-11.2148
शियल्	-11.2148
▁प्राणहनन	-11.2148
▁सञ्जयः	-11.2148
▁उदस्थापयत	-11.2148
▁गुरू	-11.2148
▁विलपिष्य	-11.2148
IIT	-11.2148
विश्राण	-11.2148
▁संहार	-11.2148
▁आम्रफलस्या	-11.2148
ोत्पन्न	-11.2148
▁नास्तीति	-11.2148
मोबैल	-11.2148
▁अध्यक्ष	-11.2148
▁क्रमाङ्क	-11.2148
▁अतिक्रमण	-11.2148
▁चण्डाल	-11.2148
▁फ़लित	-11.2148
▁परिहार	-11.2148
▁पाकशाला	-11.2148
Bean	-11.2148
▁Sea	-11.2148
▁अतिष्ठत	-11.2148
▁उपहार	-11.2148
▁घातयिष्य	-11.2148
▁विश्वसिथ	-11.2148
डेण्टिफ़ै	-11.2148
integer	-11.2148
प्लिके	-11.2148
▁सर्व्वशक्तिम	-11.2148
कर्कट	-11.2148
▁निरूपित	-11.2148
oster	-11.2148
▁दृष्टव्यम्	-11.2148
▁शिखर	-11.2148
▁द्रढ	-11.2148
▁प्रथमजात	-11.2148
▁पार्श्वस्थ	-11.2148
▁वर्त्म	-11.2148
next	-11.2148
▁उत्थाप्य	-11.2148
▁भोजनपान	-11.2148
मुत्पाद	-11.2148
▁कोन्फ़िगरेशन्	-11.2148
▁घूम	-11.2148
▁वक्ष्यति	-11.2148
▁कुर्व्वन्तो	-11.2148
Merge	-11.2148
▁नियामक	-11.2148
गालील्प्रदेश	-11.2148
दपादयत्	-11.2148
▁अर्द्ध	-11.2148
▁सङ्गृह्णाति	-11.2148
ष्माभि	-11.2148
▁Iso	-11.2148
▁वर्तुल	-11.2148
समीपवासिन	-11.2148
▁अङ्कन्या	-11.2148
ानुक्रम	-11.2148
▁तन्त्रज्ञान	-11.2148
▁त्वदर्थ	-11.2148
▁इत्यस्याधस्तात्	-11.2148
▁कैवल्यपाद	-11.2148
▁संवादपिटक	-11.2148
▁800	-11.2148
▁प्रोग्रम	-11.2148
merge	-11.2148
ीकुर्व्वन्ति	-11.2148
▁अश्रु	-11.2148
▁तकनीक	-11.2148
निथनेल	-11.2148
▁Photos	-11.2149
▁पिदधातु	-11.2149
बिल्ट्	-11.2149
▁वृषभ	-11.2149
छिनत्ति	-11.2149
▁युगपद	-11.2149
▁मुम्ब	-11.2149
down	-11.2149
वेक्ष्य	-11.2149
▁कंसेन	-11.2149
ोद्देश	-11.2149
▁मातुल	-11.2149
▁ज्वर	-11.2149
▁over	-11.2149
▁लैस	-11.2149
▁Biblio	-11.2149
▁उच्यन्त	-11.2149
▁द्राक्षाक्षेत्र	-11.2149
▁मापिका	-11.2149
▁मुद्रिता	-11.2149
स्तादृश	-11.2149
▁रूप्यक	-11.2149
नुगामिन	-11.2149
Copy	-11.2149
▁न्याय्य	-11.2149
▁शिमिय	-11.2149
▁शक्यानि	-11.2149
उद्वालन	-11.2149
ोष्यसे	-11.2149
▁अवलोकता	-11.2149
▁धेनू	-11.2149
▁मुस्क	-11.2149
▁डोक्यूमेण्ट्	-11.2149
ोत्थापन	-11.2149
ेण्टेशन्	-11.2149
▁पाचक	-11.2149
▁निश्चिन्वन्त	-11.2149
▁charge	-11.2149
▁'2'	-11.2149
▁अंतर	-11.2149
▁Statistics	-11.2149
▁वराहमिहिर	-11.2149
प्यानल्	-11.2149
कङ्काल	-11.2149
▁तिरो	-11.2149
▁सम्भाषित	-11.2149
▁स्वल्प	-11.2149
संहिता	-11.2149
▁निराकरोत	-11.2149
▁कूप	-11.2149
फोरम्	-11.2149
▁मस्तक	-11.2149
▁पादाङ्गुल	-11.215
▁शासक	-11.215
▁Interface	-11.215
▁इतिहास	-11.215
प्टिक	-11.215
▁स्वर्गीयराज्य	-11.215
निजभ्रात	-11.215
▁योषिद	-11.215
▁एतन्निमित्त	-11.215
▁शिशव	-11.215
▁यष्टि	-11.215
धातूना	-11.215
▁रीडर	-11.215
▁मनोवैज्ञानिक	-11.215
▁ऽर्थत	-11.215
▁वसति	-11.215
zip	-11.215
▁कर्तुमहम्	-11.215
स्तानुवाच	-11.215
▁गोपिक	-11.215
नैवेद्य	-11.215
▁पीतवर्ण	-11.215
▁strname	-11.215
▁प्रारेभ	-11.215
▁Che	-11.215
▁पादुक	-11.215
▁बहिरागच्छ	-11.215
▁रोटिका	-11.2151
धनुष	-11.2151
▁138	-11.2151
▁लाभदायक	-11.2151
▁तमवादीत्	-11.2151
नुकूल	-11.2151
▁व्यूह	-11.2151
▁परिष्कार	-11.2151
ाइड	-11.2151
▁उडुम्बर	-11.2151
▁उपस्थास्य	-11.2151
▁Acquisition	-11.2151
▁Node	-11.2151
▁गोलाकार	-11.2151
जगृहु	-11.2151
▁विहायसीय	-11.2151
▁पराजय	-11.2151
▁षट्	-11.2151
▁संयोजनीयमिति	-11.2151
चमत्कृत	-11.2151
▁मानदण्ड	-11.2151
▁तत्तत्	-11.2151
▁प्रत्युत्तर	-11.2151
▁सेनागण	-11.2151
शुरु	-11.2152
▁सम्पादक	-11.2152
Mac	-11.2152
▁विधवाना	-11.2152
टेम्प	-11.2152
▁दक्षिणनोदन	-11.2152
▁यीशुरवदत्	-11.2152
▁व्यवस्थापित	-11.2152
▁संयोजितुम्	-11.2152
▁दूरीकुरु	-11.2152
ature	-11.2152
▁whe	-11.2152
▁इनिशियल्	-11.2152
▁full	-11.2152
More	-11.2152
▁जीवाणुभ	-11.2153
वर्धित	-11.2153
▁निकटस्थ	-11.2153
▁निक्षिप्य	-11.2153
ुत्थापित	-11.2153
▁परिवर्तयतु	-11.2153
▁विकसिता	-11.2153
रिदम्	-11.2153
▁स्तुति	-11.2153
▁वेश्या	-11.2153
▁खाना	-11.2153
विरोधि	-11.2153
स्तदीय	-11.2153
पाटल	-11.2153
▁तन्मुख	-11.2153
यज्ञवेद्य	-11.2153
▁Deli	-11.2153
▁आकाशमण्डल	-11.2154
▁बहिर्गत	-11.2154
ाधीन	-11.2154
▁इतःपर	-11.2154
▁वामहस्त	-11.2154
▁विस्मित	-11.2154
▁महत्त्व	-11.2154
▁गंगा	-11.2154
▁अधिकतर	-11.2154
▁मोहय	-11.2154
▁चौरा	-11.2154
▁प्रार्थयामहे	-11.2154
▁कुर्म्मः	-11.2154
▁मोमेण्ट्	-11.2154
OM	-11.2154
▁धर्त्तु	-11.2155
▁सप्तदूत	-11.2155
तॄणां	-11.2155
▁लंब	-11.2155
▁मधुरं	-11.2155
▁ममैता	-11.2155
▁गेर्	-11.2155
▁प्रतिशत	-11.2155
▁गाम्भीर्य	-11.2155
प्रस्ताव	-11.2155
िमाग	-11.2155
▁स्थापनीया	-11.2155
▁क्षेम	-11.2155
▁किनार	-11.2156
▁विवरिष्य	-11.2156
विद्युत	-11.2156
OL	-11.2156
▁प्रदीयते	-11.2156
▁संहत	-11.2156
▁but	-11.2156
▁हंस	-11.2156
ब्स्	-11.2156
▁इन्द्रिय	-11.2156
▁आर्द्र	-11.2156
विवेक	-11.2156
▁सिल्व	-11.2157
▁तेनेद	-11.2157
▁प्राचीनग्रन्थे	-11.2157
▁निवेदित	-11.2158
▁अन्यतम	-11.2158
▁चञ्चल	-11.2158
फ्ल	-11.2158
▁नृपत	-11.2158
▁मार्गदर्शन	-11.2158
▁दृढीकरण	-11.2158
पुर्य्या	-11.2159
वशेष	-11.2159
▁बढ	-11.2159
▁अशक्	-11.2159
▁बर्ह	-11.2159
▁Sca	-11.2159
िनस्त	-11.2159
▁इच्छानुसार	-11.216
रेखाङ्कन	-11.216
्रेग्	-11.2161
illi	-11.2161
▁अन्तिमभाग	-11.2161
▁अहङ्कार	-11.2162
▁प्रत्युक्त	-11.2162
▁रक्षणीया	-11.2162
▁अन्तर्भव	-11.2162
नम्बर्	-11.2162
▁घटनाया	-11.2163
सङ्कल्प	-11.2163
▁चीज	-11.2164
सम्यगुत्तर	-11.2164
खिल	-11.2165
र्लोकै	-11.2165
▁अग्रिमपाठे	-11.2166
revision	-11.2167
▁लोवर	-11.2168
blast	-11.2168
▁गेह	-11.2169
▁आनन	-11.217
enci	-11.2171
Applet	-11.2172
मापक	-11.2173
▁लम्बवत	-11.2173
▁अनंत	-11.2173
oad	-11.2174
▁एक्स्ट	-11.2174
▁सील	-11.2174
▁उत्थापित	-11.2174
▁अधीन	-11.2174
ऽक्षय	-11.2175
▁छत्र	-11.2175
गोबर	-11.2176
dhu	-11.2176
▁पचा	-11.2176
▁यिह	-11.2177
▁निर्गम	-11.2178
▁Multipl	-11.2178
▁तदप्य	-11.218
▁डाल	-11.218
▁अणून	-11.2181
member	-11.2181
प्रदानम्	-11.2182
लंघ	-11.2184
पुंस	-11.2188
भेद	-11.219
▁यापयन्	-11.2191
स्याभाव	-11.2192
▁निहित	-11.2193
▁पक्षा	-11.2194
्किल	-11.2194
वादक	-11.2197
सूच्यांश	-11.2199
▁पुरस्ता	-11.2201
0.4	-11.2204
नप्रगत	-11.2206
संयुज्यमान	-11.2207
ोदरस्	-11.2209
hell	-11.221
▁अतिक्र	-11.2212
ुक्ते	-11.2212
Find	-11.2213
स्कोर	-11.2213
िरचनाया	-11.2216
▁स्टार्	-11.2217
▁फ्र	-11.2218
स्थास्यत	-11.2222
Block	-11.2227
information	-11.2229
▁Sli	-11.2237
शक्त्या	-11.2237
सम्मन्य	-11.2238
▁अधिगम	-11.224
▁बोधयत	-11.2242
योगसूत्र	-11.2244
▁उपर्य	-11.2249
पक्षे	-11.2249
▁अलङ्क	-11.2249
uni	-11.2253
▁शृङ्खला	-11.2253
NU	-11.2271
छिद्र	-11.2274
्यूब्	-11.2276
▁अन्यदे	-11.2278
निवार्य	-11.2279
छुरिक	-11.2279
ञ्ज्महे	-11.228
समस्तभूतान	-11.2283
▁ग्रहा	-11.2289
्रवण	-11.2289
▁वैद्या	-11.2292
▁तज्ज	-11.2302
▁बहिष्कृत	-11.2311
▁समीकर्तु	-11.2315
चितप्रदेश	-11.2316
▁पार्स	-11.2326
▁पोलि	-11.2342
इण्ट्	-11.2343
रितोष	-11.2356
▁नामाङ्कित	-11.2359
▁insta	-11.236
्वमुखं	-11.2367
▁पराग	-11.2375
▁संयोजितुमर्ह	-11.2378
▁कीटनाशकाना	-11.2379
ोऽधिकार	-11.2379
▁cos	-11.2382
्रष्टुम्	-11.2383
▁नाशयितु	-11.2391
टैल्	-11.2407
▁प्रथममह	-11.2407
ोपकार	-11.2412
गुली	-11.2412
Free	-11.2419
▁प्रथमवार	-11.2425
उर्वरकाणां	-11.2437
शक्ष्याम	-11.2439
▁समर्पयाम	-11.244
▁मानुषाणा	-11.2442
▁महाभारत	-11.2451
फ़ैण्ड्	-11.247
▁भविष्याम	-11.2473
कालमात्र	-11.2474
सर्जन	-11.2475
▁पीत	-11.2481
द्रव्याणा	-11.2491
सरति	-11.2496
▁छत	-11.2501
▁प्लेन्	-11.2508
▁उपादिशत	-11.2524
ुपाते	-11.2537
मुद्घाटयितुं	-11.2554
▁संगृह्ला	-11.2564
▁सङ्गे	-11.2585
3.0	-11.2591
▁दोषिण	-11.2597
▁यापयाम	-11.2605
SO	-11.2609
▁brow	-11.2629
▁गणपत	-11.2631
पवित्रस्थान	-11.2637
सप्ताह	-11.2648
▁गृह्यता	-11.268
▁ईश्वरभक्त	-11.2738
साधनम्	-11.2792
र्डर्	-11.28
ऽस्मिन	-11.2808
विद्याया	-11.2819
▁अनुवर्त	-11.2853
▁ki	-11.2931
▁प्रकाशयितु	-11.2946
स्याज्ञ	-11.2948
चणक	-11.2968
▁प्रदर्शितम	-11.2995
▁विश्वसन्त	-11.3014
off	-11.3015
मिच्छामि	-11.3019
ओवर्लोड	-11.3027
मासीत	-11.3061
यामासतुः	-11.3104
ुपविष्ट	-11.3108
▁मान्यत	-11.3124
भक्तान	-11.3132
मोचय	-11.315
विस्तरण	-11.3222
तेनोक्त	-11.326
थमुपयोक्तव्यमिति	-11.3275
त्पत्ति	-11.3305
हर्त	-11.3321
▁बलवान	-11.3346
लेक्ट्	-11.3349
▁उपातिष्ठ	-11.3357
परीक्षणा	-11.3386
ान्तरकरणम्	-11.3483
प्रतिष्ठापन	-11.3493
erformed	-11.3515
दर्शयतु	-11.352
▁शशा	-11.3539
वसना	-11.3546
व्यवस्थया	-11.356
ज्ञापन	-11.3642
ाभावा	-11.3661
ज्योतिष	-11.3667
लिन	-11.3735
वेय	-11.3747
सीमाया	-11.3757
दर्शयत्	-11.3763
नानाप्रकार	-11.3788
सूत्रेषु	-11.3816
▁निबध्	-11.3959
त्रयम्	-11.3982
ानांतर	-11.399
▁ग्रहण	-11.3994
प्रत्यक्षीकर	-11.4192
▁चित्राणा	-11.4312
▁प्रारंभ	-11.4335
TR	-11.4403
सम्बद्धपाठार्थं	-11.4404
अवकाशः	-11.4453
▁समाहू	-11.4453
ात्यक	-11.454
ापयत	-11.4576
da	-11.46
हैफ	-11.4686
पुस्तकं	-11.4761
न्तर्द	-11.48
▁Marc	-11.48
▁Play	-11.4803
ुट्य	-11.4868
▁अपसारय	-11.4895
▁एतस्मात	-11.4923
तोऽत्र	-11.495
भिन्नप्रकार	-11.4953
etup	-11.4955
प्राप्त्यर्थ	-11.4982
क्षीण	-11.5046
▁भूषण	-11.5167
कर्षित	-11.5429
▁प्राकृ	-11.5429
▁तत्पश्चाद	-11.5462
ibrary	-11.5573
ेस्ट्	-11.5638
स्वच्छताया	-11.5656
▁सहभागिन	-11.5742
शृण्वन्	-11.6085
ओर्ड	-11.6197
गृह्लाति	-11.6244
▁कुड्म	-11.6258
ebugger	-11.6278
▁तेजस्वि	-11.6295
▁दशाना	-11.6307
मानुषिक	-11.6337
प्रसार्य	-11.635
कर्मचारि	-11.6444
▁दृष्	-11.6529
सन्तुलन	-11.6581
ibility	-11.661
▁जङ्घ	-11.6628
▁पीडा	-11.6688
भुञ्जत	-11.6701
nta	-11.6705
▁मृत्तिक	-11.6707
जनजात	-11.6742
रेकार्ड्स्	-11.6756
ratio	-11.6765
सर्व्वलोक	-11.6772
तिकूल	-11.6775
दृशं	-11.678
▁कीटनाशक	-11.6782
लिखत	-11.6788
ुक्तं	-11.6793
ाङ्किता	-11.6814
सम्बन्धि	-11.6826
▁सहिष्णुता	-11.6842
▁एकत्रीक	-11.6886
प्रचार	-11.6887
default	-11.6892
install	-11.6892
variable	-11.6892
साम्प्रत	-11.6892
प्रवाह	-11.6892
शुद्धि	-11.6892
India	-11.6893
निवेश	-11.6894
टैप्	-11.6895
Show	-11.6895
document	-11.6895
विक्रय	-11.6895
विनिमय	-11.6895
फ़ील्ड्स्	-11.6895
गुप्त	-11.6896
परिणाम	-11.6896
विपरीत	-11.6897
स्क्रिप्ट्	-11.6897
account	-11.6897
student	-11.6897
printf	-11.6897
सिंहासन	-11.6897
अर्रे	-11.6898
पहले	-11.6898
हृदय	-11.6898
स्वामी	-11.6899
Manage	-11.6899
शोणित	-11.6899
Checkout	-11.6899
println	-11.6899
value	-11.6899
स्लैडर्	-11.6899
data	-11.6899
version	-11.6899
Test	-11.69
मृत्तिका	-11.6901
सम्पर्क	-11.6901
Sample	-11.6901
दोनों	-11.6902
अत्यन्त	-11.6902
श्मशान	-11.6902
नीलवर्ण	-11.6903
परिचय	-11.6903
वर्त्तमान	-11.6903
निष्कासन	-11.6903
यादृश	-11.6904
ब्रह्म	-11.6904
पर्याय	-11.6904
प्रस्तुत	-11.6904
स्वास्थ्य	-11.6904
Number	-11.6904
संवादपेटिका	-11.6904
प्रिण्ट्	-11.6905
शिक्षा	-11.6905
दक्षिणपार्श्वे	-11.6906
दृष्ट्वा	-11.6907
प्राणायाम	-11.6908
औट्पुट्	-11.6908
अनुशिक्षणे	-11.6908
प्रेरित	-11.6908
equal	-11.6909
–	-11.6909
इतीदम्	-11.691
उपयोग	-11.6911
नूतन	-11.6911
Enter	-11.6911
शक्नोति	-11.6912
कुर्मः	-11.6912
श्वासग्रहण	-11.6912
इत्यत्र	-11.6912
Sale	-11.6914
दातव्य	-11.6915
मुखाभ्या	-11.6921
▁मिसर	-11.6923
ज्ञास्यत	-11.6928
ेभ्योऽधिका	-11.6929
पयुञ्ज	-11.6935
ुद्दिश्य	-11.6938
्रयाणां	-11.6948
िफा	-11.6951
चिन्वन्तु	-11.6955
▁लक्ष्म	-11.6959
ार्षीत्	-11.6962
पीडित	-11.6962
▁डाटा	-11.6963
आचार्य	-11.6964
witch	-11.6966
▁मांसपेशिय	-11.6982
▁वासुदेव	-11.7013
भ्रातृभि	-11.7016
र्ग्यूमेण्ट्स्	-11.7028
▁इत्युक्त	-11.7035
▁ज्ञायत	-11.7039
▁पीछ	-11.7039
क्रीडकान	-11.7043
mino	-11.7048
▁संयुज्य	-11.7052
ervlet	-11.7056
▁एतादृशाना	-11.706
मासाद	-11.7064
▁परिष्क	-11.7067
▁मेनेजर	-11.7075
सिनाप्टिक	-11.7075
▁मेथेड	-11.7078
▁एक्लिप्स	-11.7079
▁सूचि	-11.7089
ested	-11.709
ember	-11.7097
वर्तयितुम्	-11.7097
▁निर्गच्छत	-11.7098
▁शारीर	-11.7111
▁Area	-11.7112
पुस्तकम	-11.7113
▁Curve	-11.7113
▁केषाञ्च	-11.7114
▁Window	-11.7115
last	-11.7116
माकार्षी	-11.7116
धारिण	-11.7116
▁प्राप्नो	-11.712
▁सेट्टिङ्ग्	-11.7122
नुसर्तुं	-11.7122
वशोषित	-11.7123
▁इच्छन्	-11.7124
ध्यापक	-11.7124
नुभव	-11.7124
▁नर्तक	-11.7125
सम्पत्	-11.7128
▁सर्व्वस्माद	-11.7131
ोद्भव	-11.7132
▁मांसपेश	-11.7133
ॄ	-11.7137
▁र्बह	-11.7138
ितुमर्ह	-11.714
▁समुत्थ	-11.714
▁इनिशिय	-11.7141
धारिता	-11.7141
▁परावर्त	-11.7141
ompany	-11.7141
र्यावरण	-11.7141
रीक्षितुं	-11.7141
▁टर्मिन	-11.7142
quare	-11.7143
aturation	-11.7143
cope	-11.7143
cquisition	-11.7143
▁द्योत	-11.7144
▁आरभाम	-11.7144
तीनाञ्च	-11.7144
▁द्राक्षा	-11.7144
ategory	-11.7144
▁निवर्त	-11.7144
▁incr	-11.7144
radient	-11.7145
eceive	-11.7145
eneral	-11.7145
nterface	-11.7145
स्थाप्यत	-11.7145
▁अप्रदक्षिण	-11.7146
संश्लेषण	-11.7146
क्वेन्स्	-11.7146
▁brea	-11.7146
ोक्यूमेण्ट्	-11.7146
Photo	-11.7147
▁कैवल्य	-11.7147
इत्यादिक	-11.7148
▁इतीदमुपयु	-11.7148
कुर्व्वते	-11.7148
▁पेठिक	-11.7148
valid	-11.7148
▁उत्पीठ	-11.7148
brush	-11.7148
▁यिहूदिमत	-11.7148
गोत्रीय	-11.7148
पवकमहतंकं	-11.7148
बैक्टीरिया	-11.7148
सौचिक	-11.7148
िरसहिष्णुत	-11.7148
▁कारागार	-11.7148
▁भवेस्तर्ह	-11.7148
Module	-11.7148
touch	-11.7148
तस्योत्थापयित	-11.7148
निवासिभ्रातृ	-11.7148
मतग्राहिण	-11.7148
रसायनशास्त्र	-11.7148
वाष्पोत्सर्जन	-11.7148
ुच्चैःस्वर	-11.7148
▁Break	-11.7148
▁assignment	-11.7148
▁client	-11.7148
▁आन्तरिक	-11.7148
▁एकमन्त्रणा	-11.7148
▁खगोल	-11.7148
▁निस्तारमहभोज्य	-11.7148
▁यिहूदिन	-11.7148
प्रभातीयतारा	-11.7148
भुंज्मह	-11.7148
यिरीहो	-11.7148
र्तमानकूटसङ्ख्या	-11.7148
शिथिलीकरणव्यायाम	-11.7148
सिदूकि	-11.7148
हाइड्रो	-11.7148
▁Molecul	-11.7148
▁compound	-11.7148
▁sample	-11.7148
▁अङ्कगणित	-11.7148
▁आह्लाद	-11.7148
▁उत्कृष्ट	-11.7148
▁कृष्णार्जुन	-11.7148
▁कोर्बोक्सिल	-11.7148
▁खनिजलवण	-11.7148
▁चिहृयेत	-11.7148
▁जिज्ञास	-11.7148
▁तंत्रिकातंत्र	-11.7148
▁तमिलनाडूप्रान्त	-11.7148
▁त्रोयानगर	-11.7148
▁नियोज्य	-11.7148
▁निर्जीववस्तु	-11.7148
▁परिधेय	-11.7148
▁प्रकृष्टमुदाहरण	-11.7148
▁बृहदन्त्रम्	-11.7148
▁भोजनपात्राणाञ्च	-11.7148
▁मत्तथिय	-11.7148
▁र्युष्मत्	-11.7148
▁श्मशानादुत्थान	-11.7148
▁स्फोट	-11.7148
▁स्वीकर्त्तव्य	-11.7148
▁हारोण	-11.7148
!!!	-11.7148
03:4	-11.7148
8080	-11.7148
Active	-11.7148
Alpha	-11.7148
Appendix	-11.7148
Calculator	-11.7148
Chooser	-11.7148
DVD	-11.7148
Department	-11.7148
Forward	-11.7148
Gigahertz	-11.7148
Inbox	-11.7148
KOHA	-11.7148
Local	-11.7148
MENT	-11.7148
Operand	-11.7148
Range	-11.7148
Rebecca	-11.7148
abilit	-11.7148
architecture	-11.7148
article	-11.7148
decrement	-11.7148
dentifier	-11.7148
dfrac	-11.7148
ecky	-11.7148
ehavio	-11.7148
fasta	-11.7148
filter	-11.7148
harshita	-11.7148
hortcut	-11.7148
intersection	-11.7148
msmath	-11.7148
nHalf	-11.7148
ndicator	-11.7148
nirban	-11.7148
nputStreamReader	-11.7148
patron	-11.7148
screen	-11.7148
split	-11.7148
status	-11.7148
ubclass	-11.7148
updated	-11.7148
upplie	-11.7148
urface	-11.7148
urtle	-11.7148
आश्चर्यसूचकचिह्न	-11.7148
ऋग्वेद	-11.7148
कन्फ़र्मेशन	-11.7148
कुटिलता	-11.7148
कैल्शियम	-11.7148
कोपमदिरा	-11.7148
गाल्लिय	-11.7148
ग्राफिकल्	-11.7148
घोरतरदण्ड	-11.7148
चटकपक्षि	-11.7148
चमच्चक्रुः	-11.7148
छेत्स्यन्ति	-11.7148
जोमेट्रि	-11.7148
ज्जीवनभक्ष्यं	-11.7148
टिल्डे	-11.7148
तज्जगत्सम्बन्धीय	-11.7148
थिसिस्	-11.7148
दरीदृश्यते	-11.7148
दौरात्म्य	-11.7148
दौर्ब्बल्य	-11.7148
नवीनभट्टः	-11.7148
नागफनी	-11.7148
निर्म्माण	-11.7148
पारदर्शक	-11.7148
पृथिव्यो	-11.7148
पोषकतच्व	-11.7148
प्रदर्शिनी	-11.7148
प्ररोटिकां	-11.7148
बृहदक्षरेण	-11.7148
ब्स्टिट्यूयेण्ट्	-11.7148
भिक्रियाशील	-11.7148
भुजगवंशा	-11.7148
मच्चिन्तनानुसारम	-11.7148
मद्यपान	-11.7148
मन्त्रयत्	-11.7148
मन्विच्छ	-11.7148
महोत्सव	-11.7148
मापनानन्तर	-11.7148
यितुमिच्छन्ति	-11.7148
वपजमत	-11.7148
शास्त्रीयप्र	-11.7148
सम्बन्धितरोगे	-11.7148
स्वचक्षुष	-11.7148
हितैषिता	-11.7148
हीरुह	-11.7148
ऽसम्भव	-11.7148
ाकाङ्क्ष	-11.7148
ाहूतवान्	-11.7148
ाह्लाद	-11.7148
िकदत्तांशप्रकारा	-11.7148
िकाचारोऽस्माभि	-11.7148
ुशासनजनक	-11.7148
ूक्ष्मातिसूक्ष्म	-11.7148
ैमासिक	-11.7148
ैयक्तिकस्वच्छताय	-11.7148
ोपद्वीप	-11.7148
ಜ	-11.7148
ವ	-11.7148
ಸ	-11.7148
ಾ	-11.7148
•	-11.7148
▁01/01/2017	-11.7148
▁03:2	-11.7148
▁080	-11.7148
▁Branch	-11.7148
▁Channel	-11.7148
▁Correctness	-11.7148
▁Direct	-11.7148
▁Inventory	-11.7148
▁NCBI	-11.7148
▁Pricing	-11.7148
▁Question	-11.7148
▁Reload	-11.7148
▁Restrict	-11.7148
▁STATEMENT	-11.7148
▁Ship	-11.7148
▁Snap	-11.7148
▁Thanks	-11.7148
▁Threshold	-11.7148
▁Transaction	-11.7148
▁Translat	-11.7148
▁beamer	-11.7148
▁border	-11.7148
▁clause	-11.7148
▁department	-11.7148
▁doPost	-11.7148
▁frontacc	-11.7148
▁frontaccounting	-11.7148
▁gaps	-11.7148
▁given	-11.7148
▁initialization	-11.7148
▁isomerism	-11.7148
▁kern	-11.7148
▁parenthesis	-11.7148
▁permission	-11.7148
▁session	-11.7148
▁subcategory	-11.7148
▁swap	-11.7148
▁theorem	-11.7148
▁twenty	-11.7148
▁week	-11.7148
▁widgets	-11.7148
▁अचेष्टन्त	-11.7148
▁अथर्ववेद	-11.7148
▁अपक्वावस्थाया	-11.7148
▁अब्रुव	-11.7148
▁अर्ग्युमेण्ट्	-11.7148
▁अष्टाध्याय्या	-11.7148
▁असमीचीन	-11.7148
▁आच्छााद	-11.7148
▁आदिरन्तश्च	-11.7148
▁आधुनिक	-11.7148
▁आध्बे	-11.7148
▁आरभमाण	-11.7148
▁आरेभे	-11.7148
▁इतालियादेश	-11.7148
▁इस्रायेलीयवंश	-11.7148
▁इस्रायेल्वंश	-11.7148
▁ईशबीयाब्द	-11.7148
▁उपयोकृ	-11.7148
▁एन्विरोन्मे	-11.7148
▁ऑक्सीजन	-11.7148
▁ओक्सिज	-11.7148
▁करिष्यसि	-11.7148
▁कान्स्टंट	-11.7148
▁कार्बोहाइड्रेट	-11.7148
▁किमप्युत्तर	-11.7148
▁कुर्य्युः	-11.7148
▁केचिदूचु	-11.7148
▁क्रीणाति	-11.7148
▁गवेषयन्	-11.7148
▁गाण्डीव	-11.7148
▁गुणैर्युत	-11.7148
▁गृहीत्वेश्वर	-11.7148
▁गृह्लीथ	-11.7148
▁गोधूमा	-11.7148
▁गोमेद	-11.7148
▁ग्रुप्	-11.7148
▁चिक्रोड	-11.7148
▁जनकराग	-11.7148
▁जन्यराग	-11.7148
▁जागृत	-11.7148
▁जैवावनत	-11.7148
▁तद्पश्चात	-11.7148
▁तन्निर्दिष्ट	-11.7148
▁तपस्विन	-11.7148
▁तस्माद्धेतो	-11.7148
▁तेजोमय	-11.7148
▁थुयातीरा	-11.7148
▁दम्मेषक्नगर	-11.7148
▁दिव्यदूता	-11.7148
▁दुःसाहसिन	-11.7148
▁दृष्टेरगोचर	-11.7148
▁देवपूजकाना	-11.7148
▁दोहराऐं	-11.7148
▁द्वादशवर्षवयस्क	-11.7148
▁धार्तराष्ट्र	-11.7148
▁धार्मिक	-11.7148
▁नवनीतस्य	-11.7148
▁नाइट्रोजन	-11.7148
▁निक्षेप्स्यामि	-11.7148
▁निगृह्ण	-11.7148
▁निर्देष्टु	-11.7148
▁पञ्जीकृतव	-11.7148
▁पद्मनाभ	-11.7148
▁परिचारिका	-11.7148
▁परिभ्रामित	-11.7148
▁परिशीलनीय	-11.7148
▁पहचान	-11.7148
▁पहुंच	-11.7148
▁पान्थशालाया	-11.7148
▁पापमोचन	-11.7148
▁पाषाणैराह	-11.7148
▁पिशाच	-11.7148
▁पुनरेकवारं	-11.7148
▁पूरयितव्या	-11.7148
▁प्रतियोगिताया	-11.7148
▁प्रफुल्ल	-11.7148
▁प्रयुज्यते	-11.7148
▁प्रविविशुः	-11.7148
▁प्राकाशत	-11.7148
▁प्रावोचन्	-11.7148
▁प्रोटोजा	-11.7148
▁फ़ीड्	-11.7148
▁फिरूशी	-11.7148
▁फिरूश्य	-11.7148
▁फेफड	-11.7148
▁फेफड़ो	-11.7148
▁फ्लोट्	-11.7148
▁बंगालप्र	-11.7148
▁बन्धुबान्धव	-11.7148
▁बरब्बा	-11.7148
▁बर्णब्बापौल	-11.7148
▁बहूपयोग	-11.7148
▁बास्केट्	-11.7148
▁बुध्यतां	-11.7148
▁बुभुज	-11.7148
▁बृहस्पत	-11.7148
▁बैकस्ट्रेच	-11.7148
▁ब्रुव	-11.7148
▁भवामस्तदर्थ	-11.7148
▁भोजनपाचन	-11.7148
▁भोजनोपविष्ट	-11.7148
▁मयाश्रावि	-11.7148
▁महामहिम	-11.7148
▁यशस्वी	-11.7148
▁यावज्जीव	-11.7148
▁यिशयिय	-11.7148
▁युष्माभिरश्राव	-11.7148
▁रज्जू	-11.7148
▁र्दृष्टान्त	-11.7148
▁र्यतितव्यं	-11.7148
▁र्यिरूशालम	-11.7148
▁र्यिहूदीय	-11.7148
▁लचीलेपन	-11.7148
▁लोकनिवह	-11.7148
▁लौहतत्त्वम	-11.7148
▁वाक्पटु	-11.7148
▁वाग्दत्ता	-11.7148
▁वाग्युद्ध	-11.7148
▁वामजानुन	-11.7148
▁वामनासिक	-11.7148
▁वाल्मीक	-11.7148
▁विख्यास्यते	-11.7148
▁विदेशिभ्यः	-11.7148
▁विषयुक्ततत्वा	-11.7148
▁व्रीहि	-11.7148
▁शाककर्त	-11.7148
▁शिखिम	-11.7148
▁शिष्यानुपद	-11.7148
▁शुद्धोच्चारण	-11.7148
▁संक्राम्यन्ति	-11.7148
▁संपर्क	-11.7148
▁सन्निधावुप	-11.7148
▁सप्तमुद्राणा	-11.7148
▁सब्स्क्रिप्षन्	-11.7148
▁सहस्रार्च	-11.7148
▁सिंहासनोपविष्ट	-11.7148
▁सुग्रीव	-11.7148
▁सुप्तावस्थाया	-11.7148
▁सृजामः	-11.7148
▁सैक्लोहेक्स	-11.7148
▁सोन्यशिष्य	-11.7148
▁स्टॆट्मे	-11.7148
▁स्टेण्डर्ड्	-11.7148
▁स्वप्नदर्शन	-11.7148
▁स्वमुन्नम	-11.7148
▁हड़प्पा	-11.7148
क्यान्वास्	-11.7148
मज्जक	-11.7148
संलग्ना	-11.7148
▁Addition	-11.7148
▁help	-11.7148
▁अमृत	-11.7148
▁बहुशिर	-11.7148
▁सामञ्जस्य	-11.7148
▁स्थास्यामि	-11.7148
▁हानिर्भवति	-11.7148
FASTA	-11.7148
apps	-11.7148
argv	-11.7148
magnif	-11.7148
उपलक्ष्य	-11.7148
क्षिणनासिकाछिद्र	-11.7148
पञ्चभुजम	-11.7148
पेलवधूसरवर्ण	-11.7148
प्रतिरोधक	-11.7148
मार्गदर्शका	-11.7148
वचनान्त	-11.7148
विशषता	-11.7148
साधवः	-11.7148
सीनयपर्व्वत	-11.7148
ाज्ञापयत्	-11.7148
ारुरोह	-11.7148
ुत्थाप्य	-11.7148
ृप्तवन्तः	-11.7148
▁Comm	-11.7148
▁ETC	-11.7148
▁Flow	-11.7148
▁Plann	-11.7148
▁Renew	-11.7148
▁VII	-11.7148
▁clone	-11.7148
▁connecti	-11.7148
▁design	-11.7148
▁mysql	-11.7148
▁temp	-11.7148
▁vlc	-11.7148
▁अचकथ	-11.7148
▁अत्यावश्यक	-11.7148
▁अप्रेषय	-11.7148
▁अमृततोय	-11.7148
▁आखायादेश	-11.7148
▁आज्ञापयत्	-11.7148
▁आमाशय	-11.7148
▁इडली	-11.7148
▁इत्यस्मादधिक	-11.7148
▁उड्डय	-11.7148
▁उपवेशितवा	-11.7148
▁कलङ्कित	-11.7148
▁किण्व	-11.7148
▁खींचे	-11.7148
▁गरुड	-11.7148
▁गवेषण	-11.7148
▁गुटिकापा	-11.7148
▁गृहगोधिका	-11.7148
▁ग्रन्थसूच	-11.7148
▁ग्रिड्	-11.7148
▁चिबुक	-11.7148
▁जम्बीर	-11.7148
▁जैतुन	-11.7148
▁जोड़ों	-11.7148
▁टोकन्	-11.7148
▁ट्रान्स्क्रि	-11.7148
▁तीरसमीप	-11.7148
▁तुष्टिजनक	-11.7148
▁दण्डकारण्यवासि	-11.7148
▁दध्न	-11.7148
▁दानशीलता	-11.7148
▁दूषय	-11.7148
▁दोषमारोपय	-11.7148
▁द्विचक्रिका	-11.7148
▁न्यदध	-11.7148
▁परमसुख	-11.7148
▁पाठमिममनुसर्तु	-11.7148
▁पुच्छलतारा	-11.7148
▁प्रकाशमानभाग	-11.7148
▁प्रगल्भ	-11.7148
▁प्रयुज्यमा	-11.7148
▁प्राकाशय	-11.7148
▁प्रारब्ध	-11.7148
▁प्रिफ़रेन्स	-11.7148
▁भाराक्रान्ता	-11.7148
▁मटीरियल्	-11.7148
▁मतथि	-11.7148
▁ममैतस्या	-11.7148
▁महानिद्राग	-11.7148
▁रक्तवाहका	-11.7148
▁राज्याभिषेकस	-11.7148
▁रिक्वेस्ट्	-11.7148
▁रुक्मिण	-11.7148
▁रेक्टाङ्गल्	-11.7148
▁रोमानगर	-11.7148
▁र्लोचना	-11.7148
▁वशिष्ठ	-11.7148
▁वशीकृतं	-11.7148
▁विधद्वयमस्ति	-11.7148
▁विनंक्ष्य	-11.7148
▁विवराणान	-11.7148
▁शुश्रुव	-11.7148
▁शूर्पणखा	-11.7148
▁शोकयुक्तीकृतस्त	-11.7148
▁संकीर्ण	-11.7148
▁सर्व्वमानवाना	-11.7148
▁सर्षपबीज	-11.7148
▁सुगन्धित	-11.7148
▁सूचयितु	-11.7148
▁स्मुर्णा	-11.7148
▁स्वगतिविध	-11.7148
▁स्वाभाविक	-11.7148
▁हृत्वा	-11.7148
MethodDemo	-11.7148
Share	-11.7148
Trans	-11.7148
XML	-11.7148
flow	-11.7148
rogen	-11.7148
एड्मिन	-11.7148
कान्नानगर	-11.7148
चकचिह्नं	-11.7148
डाइऑकसाइड	-11.7148
त्मश्लाघ	-11.7148
दुःखभोग	-11.7148
पवादकथा	-11.7148
ब्रेक्पोइण्ट्	-11.7148
मत्स्येन्द्र	-11.7148
ळ	-11.7148
हिरण्यगर्भ	-11.7148
ाण्डर्ड्	-11.7148
ात्मिकभाव	-11.7148
ान्तर्व्वर्त्त	-11.7148
्युपद्वीप	-11.7148
▁axis	-11.7148
▁handle	-11.7148
Z	-12.6918
|	-12.6926
́	-12.7148
<	-12.7148
}	-12.7148
३	-12.7148
७	-12.7148
ಪ	-12.7148
ೇ	-12.7148
	-12.7148
२	-12.7148
ರ	-13.2094
#	-13.2095
ऑ	-13.2096
J	-13.2097
W	-13.2098
ञ	-13.2099
