<pad>	0
<unk>	0
<s>	0
</s>	0
▁the	-2.98798
.	-3.08511
,	-3.18572
▁and	-3.79785
▁of	-3.98881
▁to	-4.07775
s	-4.10053
▁"	-4.32003
▁is	-4.33427
▁in	-4.39698
▁a	-4.53759
."	-4.64465
▁	-4.73637
▁that	-4.86455
▁on	-4.92282
▁I	-4.93264
:	-5.03408
ing	-5.10262
▁this	-5.13776
▁are	-5.22066
▁for	-5.23813
▁be	-5.26414
▁you	-5.28482
▁we	-5.30038
▁will	-5.31038
▁with	-5.44087
▁it	-5.45751
▁have	-5.47881
▁not	-5.51239
▁as	-5.52913
▁he	-5.5731
ed	-5.57753
▁all	-5.64984
▁can	-5.72208
-	-5.72514
▁The	-5.73696
▁by	-5.76662
▁unto	-5.77197
▁him	-5.78525
▁from	-5.78535
▁which	-5.81056
And	-5.84364
;	-5.85064
l	-5.89743
▁us	-5.91579
▁them	-5.9341
'	-5.93858
d	-5.9832
▁see	-5.99304
▁We	-6.01032
"	-6.02842
▁they	-6.06073
▁or	-6.07073
e	-6.08982
▁at	-6.10797
▁Now	-6.14701
▁one	-6.17458
▁was	-6.18734
▁your	-6.19295
▁who	-6.23557
▁his	-6.24088
▁ye	-6.25201
▁shal	-6.28199
▁Let	-6.28503
▁an	-6.2888
?	-6.30131
▁This	-6.3078
▁also	-6.31352
▁me	-6.32783
▁click	-6.35452
▁tutorial	-6.35503
▁In	-6.37035
▁our	-6.38085
▁has	-6.38276
▁God	-6.38478
▁when	-6.39507
▁here	-6.3994
▁You	-6.44222
▁type	-6.46049
▁there	-6.48623
y	-6.51035
t	-6.51464
ly	-6.52511
▁do	-6.55844
▁A	-6.56819
▁but	-6.58015
▁said	-6.58026
▁And	-6.59952
▁two	-6.61482
▁into	-6.62072
▁now	-6.65067
▁file	-6.6527
▁So	-6.6562
▁if	-6.69295
’	-6.70137
▁Click	-6.70203
▁It	-6.71201
▁'	-6.73117
▁To	-6.74755
▁let	-6.75646
▁up	-6.75666
▁name	-6.75676
▁these	-6.76555
)	-6.78263
▁should	-6.78606
▁their	-6.80377
▁man	-6.81254
▁(	-6.83264
▁out	-6.84091
▁using	-6.84495
al	-6.85417
▁go	-6.85803
▁get	-6.85835
▁select	-6.85909
▁any	-6.86025
▁S	-6.86269
▁then	-6.87631
▁thou	-6.88002
▁Jesus	-6.89237
▁about	-6.89766
▁things	-6.9194
▁my	-6.92129
▁were	-6.92175
▁so	-6.93711
▁how	-6.93873
▁Lord	-6.93907
▁come	-6.95323
▁may	-6.96374
▁right	-6.97028
▁give	-6.97531
▁had	-6.97641
▁other	-6.98543
a	-6.98626
en	-6.99023
▁no	-7.00492
▁more	-7.00856
▁what	-7.02785
▁new	-7.02795
▁first	-7.02798
▁some	-7.06191
▁space	-7.06221
▁body	-7.07603
▁One	-7.09906
▁am	-7.10286
▁For	-7.11169
▁display	-7.11464
For	-7.11667
▁know	-7.11718
▁like	-7.12622
▁C	-7.12929
▁called	-7.14131
▁page	-7.14641
er	-7.15272
▁back	-7.15549
th	-7.16119
▁same	-7.16296
▁P	-7.16697
▁through	-7.17076
▁use	-7.17255
▁Here	-7.17865
▁B	-7.18401
But	-7.19266
▁option	-7.19318
If	-7.19709
▁say	-7.21905
▁button	-7.24208
▁s	-7.25381
▁learn	-7.25517
▁Enter	-7.25882
▁day	-7.2597
▁F	-7.26205
r	-7.26466
▁time	-7.2692
▁He	-7.2884
hath	-7.28851
▁press	-7.2927
▁before	-7.30161
▁many	-7.30379
▁“	-7.30871
▁line	-7.31323
▁down	-7.31935
▁Boy	-7.3196
▁class	-7.32736
▁because	-7.32809
▁used	-7.32844
▁command	-7.33542
▁left	-7.33706
▁image	-7.33854
▁only	-7.34437
▁-	-7.34711
▁Christ	-7.35533
▁method	-7.35724
▁want	-7.36469
▁number	-7.36699
▁both	-7.37385
st	-7.38006
▁create	-7.38077
▁good	-7.39457
,"	-7.39733
n	-7.40089
▁Then	-7.40233
▁T	-7.40512
▁came	-7.41044
eth	-7.41577
▁change	-7.42281
h	-7.42401
?"	-7.42663
▁great	-7.42895
▁make	-7.43078
▁where	-7.43253
▁text	-7.43314
▁again	-7.45123
in	-7.45682
▁after	-7.46125
▁take	-7.46418
▁window	-7.46589
▁program	-7.50323
▁saying	-7.51207
▁dot	-7.51759
▁way	-7.53204
▁people	-7.53662
▁thy	-7.53672
▁layer	-7.54231
▁than	-7.54753
▁different	-7.54777
▁link	-7.55267
▁output	-7.55932
▁set	-7.56108
▁her	-7.56323
▁water	-7.56458
ion	-7.5665
es	-7.56845
▁spoken	-7.57311
▁These	-7.57455
▁thee	-7.57859
/	-7.5787
▁What	-7.5828
▁box	-7.58317
▁Spoken	-7.59423
f	-7.60178
▁whom	-7.60685
▁another	-7.61855
o	-7.62378
▁Tutorial	-7.62427
▁add	-7.62508
▁food	-7.62942
▁details	-7.63147
▁look	-7.63742
▁word	-7.63742
▁every	-7.64201
▁made	-7.65386
▁field	-7.66325
▁please	-7.66371
ous	-7.66631
▁those	-7.67906
▁following	-7.68138
▁2	-7.68379
▁Type	-7.6878
▁value	-7.68825
▁tool	-7.69016
▁while	-7.6928
▁start	-7.69348
c	-7.70032
▁next	-7.70465
▁f	-7.71065
S	-7.72147
se	-7.72889
▁own	-7.7305
▁Next	-7.73114
▁‘	-7.73133
▁available	-7.73151
▁write	-7.73157
The	-7.73293
▁enter	-7.73701
”	-7.73946
▁went	-7.74538
▁done	-7.74599
▁There	-7.74772
▁t	-7.75847
ither	-7.77167
▁code	-7.77212
▁equal	-7.77246
▁open	-7.77351
▁end	-7.77701
Then	-7.77794
▁must	-7.78634
▁given	-7.78786
▁side	-7.79793
▁Save	-7.8008
▁men	-7.81237
▁tab	-7.81258
m	-7.81437
▁D	-7.8181
▁even	-7.82136
or	-7.82673
▁O	-7.82859
▁bar	-7.83115
▁E	-7.83154
▁world	-7.84248
▁work	-7.84386
▁between	-7.84482
▁life	-7.84506
▁under	-7.85252
▁hand	-7.85288
▁Select	-7.8537
▁1	-7.85429
▁etc	-7.85989
▁therefore	-7.86
▁shown	-7.86041
1	-7.86339
ation	-7.8693
▁Go	-7.86994
▁saith	-7.87528
▁As	-7.87593
▁menu	-7.87627
▁bring	-7.87654
▁check	-7.88195
▁head	-7.88394
▁files	-7.88409
▁place	-7.88767
▁variable	-7.89063
▁Father	-7.8909
▁They	-7.89105
▁default	-7.89126
▁But	-7.89251
▁top	-7.894
▁love	-7.90452
▁print	-7.9104
▁plants	-7.91174
▁over	-7.91682
▁assignment	-7.92292
▁did	-7.92304
very	-7.92329
T	-7.93393
▁mind	-7.93525
▁need	-7.93691
▁course	-7.93929
▁Press	-7.93931
▁project	-7.93952
▁such	-7.93953
▁upon	-7.9402
est	-7.94497
▁user	-7.94694
A	-7.94722
▁would	-7.95597
▁example	-7.95599
▁within	-7.96325
i	-7.96369
▁vari	-7.96907
▁together	-7.97291
▁main	-7.97323
▁information	-7.97367
▁part	-7.97372
▁means	-7.97403
▁i	-7.97728
each	-7.97885
ill	-7.98146
▁record	-7.98448
g	-7.98567
▁heaven	-7.9886
▁bottom	-7.99015
▁found	-7.99031
▁think	-8.00102
▁list	-8.00274
▁earth	-8.00464
▁dialog	-8.0077
▁against	-8.00884
▁hands	-8.00885
▁created	-8.01255
I	-8.01611
▁put	-8.01823
▁form	-8.02151
▁power	-8.0258
▁•	-8.02827
▁learnt	-8.02879
▁eyes	-8.03841
▁show	-8.04531
▁c	-8.04547
▁function	-8.04563
▁M	-8.0459
▁become	-8.05329
▁might	-8.06072
ive	-8.07754
▁small	-8.08116
▁color	-8.08306
▁heard	-8.08349
▁1.	-8.08753
▁G	-8.09321
▁selected	-8.09393
▁above	-8.10048
▁system	-8.1008
▁without	-8.10251
▁icon	-8.10308
▁help	-8.10342
▁Son	-8.10399
▁she	-8.10625
2	-8.11101
▁drop	-8.11973
▁three	-8.11996
▁File	-8.12016
▁law	-8.12061
▁Welcome	-8.12077
▁disciples	-8.12212
▁un	-8.13454
▁process	-8.13503
▁choose	-8.13999
▁3	-8.14098
▁options	-8.14169
▁array	-8.14252
▁away	-8.14254
▁among	-8.14447
▁values	-8.14553
▁practice	-8.14565
▁being	-8.14786
▁displayed	-8.15048
▁speak	-8.15372
▁faith	-8.15822
_	-8.16028
▁Linux	-8.16037
▁data	-8.16037
▁children	-8.16038
▁version	-8.16047
▁Ubuntu	-8.16066
▁house	-8.16408
▁long	-8.16459
▁tutorials	-8.17671
▁folder	-8.18131
▁already	-8.18133
▁himself	-8.18137
▁sent	-8.18138
▁move	-8.18289
▁How	-8.18341
▁opens	-8.18476
▁statement	-8.18577
▁son	-8.18927
▁its	-8.19162
▁save	-8.20025
▁run	-8.20248
▁directory	-8.20259
▁saw	-8.20274
▁web	-8.20545
▁section	-8.20723
▁colour	-8.20736
▁error	-8.20743
▁able	-8.21436
▁pass	-8.2204
▁Do	-8.22324
▁inside	-8.22444
▁search	-8.22453
▁whole	-8.22523
▁breathing	-8.22799
▁book	-8.23027
▁thing	-8.23113
▁words	-8.23176
on	-8.23193
▁ne	-8.23308
▁b	-8.23398
▁e	-8.23555
▁four	-8.24132
▁Project	-8.24656
▁terminal	-8.24664
▁p	-8.25021
▁sequence	-8.25204
▁object	-8.25278
▁Who	-8.26904
▁keep	-8.26917
▁important	-8.26919
▁written	-8.26928
▁Ctrl	-8.26929
▁knowledge	-8.26929
▁answered	-8.27144
▁does	-8.27193
able	-8.27319
B	-8.27363
▁just	-8.27483
▁second	-8.27494
▁message	-8.27526
▁eye	-8.27589
▁heart	-8.27706
▁2.	-8.28672
▁helps	-8.28875
and	-8.29118
▁Koha	-8.29242
▁brought	-8.2925
▁cast	-8.29261
▁That	-8.29667
▁mother	-8.29949
▁legs	-8.30211
In	-8.30806
ness	-8.3112
▁find	-8.31562
▁Moodle	-8.31623
▁Firefox	-8.31723
▁home	-8.3174
▁known	-8.31867
▁3.	-8.32149
ve	-8.32232
▁brackets	-8.32657
▁named	-8.32858
ever	-8.33233
us	-8.33475
▁believe	-8.33636
▁R	-8.3366
▁lines	-8.33709
▁close	-8.3387
lease	-8.33944
▁eat	-8.34007
▁brethren	-8.34064
▁per	-8.34081
▁lesson	-8.34092
▁blood	-8.34099
H	-8.34515
▁seen	-8.34792
▁loop	-8.34815
▁When	-8.34815
▁appears	-8.35006
▁read	-8.35734
▁point	-8.36258
▁V	-8.36433
▁double	-8.36562
▁voice	-8.36562
▁nature	-8.36563
▁nothing	-8.36571
▁light	-8.36604
▁took	-8.36698
▁area	-8.36928
▁+	-8.36947
▁condition	-8.37413
!	-8.37824
”.	-8.37895
▁re	-8.38125
▁objects	-8.38422
▁website	-8.39126
▁kingdom	-8.39127
▁path	-8.39136
▁city	-8.39148
▁Add	-8.39233
▁well	-8.39639
▁All	-8.39683
▁hear	-8.39818
▁added	-8.3994
▁test	-8.4087
ic	-8.41392
▁return	-8.41408
▁execute	-8.41605
▁India	-8.41694
▁Yoga	-8.41758
▁System	-8.41758
▁Student	-8.41795
▁ground	-8.41854
(	-8.41876
▁My	-8.42093
ce	-8.42759
▁case	-8.42768
▁table	-8.4279
▁student	-8.42834
hose	-8.43242
p	-8.43838
▁Child	-8.44458
▁true	-8.44461
▁straight	-8.44461
▁peace	-8.44461
▁Notice	-8.44461
▁brother	-8.44461
▁download	-8.44462
▁little	-8.44463
▁certain	-8.44475
▁Library	-8.44477
▁Note	-8.44506
▁switch	-8.44515
▁Java	-8.44525
▁Create	-8.44554
▁last	-8.44639
▁most	-8.44755
▁Rama	-8.44789
▁receive	-8.45141
L	-8.45241
▁question	-8.45581
()	-8.45638
ment	-8.4613
▁changes	-8.46305
▁forth	-8.46545
C	-8.46906
▁days	-8.47116
▁white	-8.47239
▁basic	-8.47257
▁Krishna	-8.47305
hall	-8.47397
▁bit	-8.47455
▁n	-8.47781
F	-8.49028
▁sin	-8.49078
▁live	-8.49153
down	-8.49171
He	-8.49447
rom	-8.50037
▁access	-8.50096
▁could	-8.50097
▁dead	-8.50109
▁having	-8.50121
▁try	-8.5015
▁much	-8.50166
▁rest	-8.50205
▁slash	-8.50269
▁works	-8.50442
▁air	-8.50826
▁string	-8.51379
▁key	-8.51422
▁tree	-8.51464
tutorial	-8.52134
Now	-8.52138
▁complete	-8.52168
▁draw	-8.52385
ur	-8.52786
▁earlier	-8.53037
▁temple	-8.53037
▁music	-8.53039
▁constructor	-8.53044
▁structure	-8.53045
▁feet	-8.53053
▁gave	-8.53082
▁taken	-8.53237
▁selection	-8.53318
▁fields	-8.5397
▁w	-8.54145
▁application	-8.54249
▁teacher	-8.54387
▁l	-8.54611
▁follow	-8.55447
▁clean	-8.55807
▁Jerusalem	-8.56067
▁browser	-8.56112
▁cannot	-8.56131
▁variables	-8.56208
▁according	-8.56215
Change	-8.56548
▁5	-8.56566
▁less	-8.56612
▁10	-8.56996
▁ever	-8.57067
org	-8.57468
▁father	-8.57502
ies	-8.57683
▁format	-8.57811
P	-8.57895
▁hast	-8.58129
▁note	-8.5882
▁shows	-8.58865
▁control	-8.58885
▁truth	-8.59179
▁similar	-8.59192
Which	-8.59192
▁summarize	-8.59197
▁death	-8.59197
▁behold	-8.59202
▁old	-8.59203
▁glory	-8.59208
▁evil	-8.59213
▁With	-8.59295
▁H	-8.59295
▁Jews	-8.59486
▁0	-8.59527
▁too	-8.60131
O	-8.60167
▁face	-8.60374
ha	-8.60579
▁order	-8.60607
▁yet	-8.60771
ll	-8.60816
▁understand	-8.61772
It	-8.61785
x	-8.61863
▁spirit	-8.62039
▁mouth	-8.62418
▁spake	-8.62418
▁muscles	-8.62449
▁Manager	-8.62457
▁sit	-8.62511
▁below	-8.62523
▁First	-8.62554
▁users	-8.62752
▁nor	-8.62824
▁saved	-8.62839
ther	-8.63031
▁elements	-8.63272
▁touch	-8.63332
▁don	-8.63494
▁result	-8.64086
▁fruit	-8.64114
▁call	-8.64698
an	-8.64783
When	-8.64844
One	-8.64911
ers	-8.65103
▁prompt	-8.65357
▁person	-8.65644
▁seven	-8.65657
▁multiple	-8.65752
▁fire	-8.6576
▁screen	-8.65769
▁More	-8.65775
▁common	-8.65778
▁single	-8.65804
▁animals	-8.66066
▁cometh	-8.66221
▁off	-8.66257
▁W	-8.66944
▁support	-8.67445
▁pattern	-8.67472
k	-8.68586
▁clicking	-8.68591
▁sea	-8.68663
▁Re	-8.68727
▁visit	-8.68784
▁delete	-8.68932
▁Spirit	-8.69199
▁around	-8.69199
▁flesh	-8.69199
▁password	-8.692
▁living	-8.69203
as	-8.69204
▁Arjuna	-8.69226
ry	-8.69238
▁canvas	-8.69244
▁input	-8.69246
▁date	-8.69293
▁awk	-8.69403
▁prophets	-8.69763
▁got	-8.70153
▁entered	-8.70183
▁full	-8.70419
▁tell	-8.71051
▁source	-8.71081
▁leaves	-8.71649
This	-8.7187
▁methods	-8.71967
▁perform	-8.72365
▁ask	-8.72434
▁g	-8.72742
▁FrontAccounting	-8.72771
▁position	-8.72778
▁semicolon	-8.72822
▁art	-8.72985
▁Name	-8.73127
mission	-8.73201
▁4.	-8.733
▁indicate	-8.73375
).	-8.73479
u	-8.7352
soever	-8.73558
▁simple	-8.73803
▁compile	-8.74166
▁doing	-8.7451
▁king	-8.75257
txt	-8.75532
spoken	-8.7557
▁numbers	-8.75574
it	-8.75681
▁brush	-8.76469
ं	-8.76473
▁typing	-8.76475
▁video	-8.76475
▁current	-8.76475
▁mask	-8.76476
▁righteousness	-8.76486
▁chief	-8.76496
▁IDE	-8.76528
▁increase	-8.76705
line	-8.76786
▁believed	-8.7687
▁happens	-8.76891
to	-8.7726
▁After	-8.77331
3	-8.77928
▁dis	-8.78022
▁others	-8.78643
▁bracket	-8.78751
▁students	-8.78818
▁comes	-8.79098
""	-8.79151
▁breath	-8.79455
To	-8.79539
D	-8.79694
▁fill	-8.80077
ought	-8.8009
▁parts	-8.80179
▁Eclipse	-8.80321
▁copy	-8.80321
▁possible	-8.80321
hyphen	-8.80321
▁better	-8.80321
▁particular	-8.80321
▁Open	-8.80341
▁Teacher	-8.80341
▁amount	-8.80346
▁required	-8.80387
▁Paul	-8.80448
▁OS	-8.80495
▁size	-8.80738
▁mode	-8.80767
▁stand	-8.81398
▁leave	-8.81492
out	-8.81735
▁answer	-8.82324
▁interface	-8.82459
▁circle	-8.82459
▁leg	-8.82662
▁int	-8.82823
▁""	-8.83025
After	-8.83403
▁install	-8.839
▁paint	-8.83907
▁remove	-8.84202
▁previous	-8.84321
▁email	-8.84324
▁grace	-8.8433
▁hold	-8.84345
▁account	-8.84379
▁Make	-8.84383
▁meaning	-8.84422
▁quotes	-8.8457
▁greater	-8.84646
▁address	-8.84656
▁ship	-8.85025
ance	-8.85033
▁d	-8.85119
b	-8.85347
▁opened	-8.85427
▁4	-8.8547
▁year	-8.85486
▁sun	-8.85488
▁types	-8.85538
ld	-8.86156
▁include	-8.86347
▁corner	-8.86682
re	-8.86962
▁cause	-8.87127
ir	-8.87666
▁cow	-8.87775
▁suffer	-8.87815
ting	-8.88162
▁worship	-8.88296
▁church	-8.88426
▁plu	-8.88465
▁Observe	-8.88487
▁multitude	-8.88487
▁Under	-8.88488
▁beginning	-8.8849
▁country	-8.88498
▁import	-8.88507
▁John	-8.88509
▁index	-8.88513
▁pull	-8.88514
▁front	-8.88548
▁Come	-8.88555
▁send	-8.88556
▁milk	-8.88589
▁New	-8.88594
▁server	-8.88605
▁declared	-8.88611
▁view	-8.88676
▁raise	-8.88822
▁received	-8.8891
▁site	-8.89177
▁steps	-8.89681
▁6	-8.89943
▁appear	-8.90067
▁5.	-8.90621
▁explain	-8.90704
▁block	-8.91158
▁round	-8.91179
▁sub	-8.91682
ty	-8.91723
▁whe	-8.92628
▁Edit	-8.928
–	-8.92835
▁garden	-8.92835
▁yourselves	-8.9284
▁blue	-8.92851
▁affection	-8.92866
▁Peter	-8.92903
▁Sale	-8.92904
▁holy	-8.92922
▁editor	-8.92937
▁static	-8.92939
▁unti	-8.92963
▁Keep	-8.9298
▁says	-8.9304
▁shew	-8.93209
▁k	-8.93253
▁installed	-8.93275
▁working	-8.94677
▁cur	-8.94925
▁sound	-8.94931
▁Sit	-8.95088
▁On	-8.95142
w	-8.9537
▁trees	-8.95379
▁far	-8.95406
▁document	-8.95568
▁talk	-8.95583
ar	-8.95657
".	-8.95675
▁edit	-8.95736
▁cloth	-8.96009
+	-8.96069
▁K	-8.96549
ya	-8.96876
They	-8.96992
ure	-8.97124
▁?	-8.97188
▁high	-8.97257
▁grow	-8.973
▁protect	-8.97326
▁ten	-8.97341
up	-8.97358
▁present	-8.97368
ः	-8.97381
▁XAMPP	-8.97381
▁black	-8.97381
▁wife	-8.97381
▁visible	-8.97381
▁stretch	-8.97381
▁keyboard	-8.97383
▁why	-8.97401
▁category	-8.97405
▁making	-8.97406
▁later	-8.97411
▁Why	-8.97417
▁always	-8.9773
▁followed	-8.97961
▁red	-8.98237
▁parameters	-8.9829
▁observe	-8.99188
▁years	-8.99276
te	-8.99631
▁star	-8.99795
▁database	-9.00183
▁questions	-9.00207
▁level	-9.00355
ship	-9.00647
▁refer	-9.00699
▁watch	-9.00865
▁remember	-9.01004
As	-9.01033
mong	-9.01087
less	-9.01252
▁practices	-9.01254
one	-9.01448
▁de	-9.01488
▁perfect	-9.01593
▁bear	-9.01848
▁times	-9.0189
▁correct	-9.01994
▁mouse	-9.02143
▁rectangle	-9.02143
▁laid	-9.02148
▁sake	-9.02151
▁computer	-9.02159
▁fell	-9.02165
▁minus	-9.02168
▁never	-9.022
▁Search	-9.02212
▁OK	-9.02215
▁yoga	-9.02227
▁study	-9.02283
▁Indian	-9.02329
▁sure	-9.02331
▁stood	-9.02353
▁coming	-9.02436
▁asked	-9.02661
▁near	-9.02888
ity	-9.03523
▁palms	-9.03541
▁once	-9.03555
▁At	-9.03755
ge	-9.04017
na	-9.04598
at	-9.04736
▁An	-9.04831
▁hour	-9.05188
the	-9.05299
▁blank	-9.05305
▁action	-9.05459
▁night	-9.05495
▁o	-9.05875
▁seed	-9.06036
▁statements	-9.06047
While	-9.0621
That	-9.06232
▁friend	-9.06326
▁free	-9.0661
▁functions	-9.06654
▁fear	-9.06757
▁clear	-9.07016
▁r	-9.07065
▁stone	-9.07105
▁floor	-9.07143
▁nostril	-9.07143
▁false	-9.07143
▁green	-9.07143
▁kept	-9.07143
▁everything	-9.07145
▁thine	-9.07147
RD	-9.07155
▁Run	-9.07156
▁panel	-9.07162
▁Move	-9.07167
▁story	-9.07167
▁Sthiti	-9.07169
▁third	-9.07176
▁teach	-9.07187
▁land	-9.07193
▁useful	-9.0721
▁Breathing	-9.07262
▁Text	-9.07262
▁fast	-9.07281
▁See	-9.07362
▁Thou	-9.07452
le	-9.07545
▁dur	-9.07842
ah	-9.07885
nd	-9.08236
▁priests	-9.08587
▁servants	-9.08614
is	-9.0929
▁fruits	-9.09745
▁stud	-9.1005
▁plant	-9.10255
com	-9.10331
▁begin	-9.10546
▁content	-9.10609
click	-9.10779
▁joy	-9.10843
▁item	-9.11
box	-9.1107
Therefore	-9.11463
▁play	-9.1161
▁Bo	-9.12034
▁normal	-9.1224
witch	-9.12304
ternal	-9.12381
▁sign	-9.12397
▁Israel	-9.124
▁Abraham	-9.12406
▁Budget	-9.12406
▁Inkscape	-9.12406
▁entire	-9.12406
▁further	-9.12406
▁gospel	-9.12406
▁library	-9.12406
▁oxygen	-9.12406
▁effect	-9.12408
▁creation	-9.12411
▁few	-9.12424
▁child	-9.12432
▁conduct	-9.1244
▁workshops	-9.12458
▁java	-9.12484
▁contact	-9.12585
▁departed	-9.12624
la	-9.1265
▁Some	-9.12785
▁raised	-9.12831
▁arms	-9.13433
ical	-9.13645
▁L	-9.13655
▁balance	-9.13757
▁marks	-9.13853
▁changed	-9.13991
▁desire	-9.14024
cial	-9.14083
▁members	-9.14925
▁war	-9.14953
4	-9.15224
▁Be	-9.15409
▁Book	-9.16188
▁mountain	-9.16217
▁language	-9.16217
▁angel	-9.16268
▁finger	-9.16292
ch	-9.16589
▁drag	-9.16612
▁st	-9.16916
▁feel	-9.17287
▁store	-9.1784
▁final	-9.17877
ate	-9.17911
▁Write	-9.17916
age	-9.17948
▁Desktop	-9.17961
▁doubt	-9.17961
▁group	-9.17961
▁symbol	-9.17961
▁Code	-9.17962
▁thread	-9.17962
://	-9.17963
▁series	-9.17964
▁running	-9.1797
▁themselves	-9.1797
▁successfully	-9.17985
▁manner	-9.17987
▁।	-9.17991
▁wish	-9.18
▁bread	-9.18003
▁soil	-9.18008
▁Tool	-9.1801
▁lest	-9.18036
▁self	-9.18099
▁rele	-9.18109
▁Windows	-9.1811
▁else	-9.18202
tp	-9.18283
▁based	-9.18288
▁Course	-9.18525
▁going	-9.18545
▁names	-9.19209
▁relate	-9.19483
2.	-9.19517
▁lo	-9.19935
▁priest	-9.22163
▁palm	-9.22165
▁servant	-9.22172
▁bow	-9.22198
▁step	-9.22261
▁character	-9.22426
ti	-9.22447
'.	-9.22706
Q	-9.22741
of	-9.22931
•	-9.22936
▁No	-9.23195
▁pray	-9.23348
▁lea	-9.23376
▁kill	-9.235
▁serve	-9.23583
▁base	-9.23588
▁proper	-9.23667
▁born	-9.23688
▁GIMP	-9.23844
▁machine	-9.23844
▁obtain	-9.23844
▁cursor	-9.23845
▁woman	-9.23845
▁lord	-9.23846
▁minister	-9.23849
▁fall	-9.23853
▁kindness	-9.23863
▁Sanskrit	-9.23875
▁username	-9.23875
▁courses	-9.23879
▁chest	-9.23893
▁Many	-9.23895
▁certificates	-9.23902
▁assigned	-9.23903
▁sight	-9.23914
▁needle	-9.23926
▁material	-9.2393
▁Close	-9.23986
▁cried	-9.23999
ful	-9.2401
▁Give	-9.2403
▁Pranayama	-9.24061
▁notice	-9.24073
▁She	-9.24099
▁angle	-9.24115
▁walked	-9.24161
▁preached	-9.24182
▁settings	-9.24207
▁wise	-9.2431
▁Pharisees	-9.24311
▁His	-9.24323
▁filled	-9.24439
▁contains	-9.25038
▁operators	-9.25143
▁du	-9.25545
▁x	-9.25575
6	-9.26317
ize	-9.2662
▁keys	-9.27354
▁sins	-9.2751
▁drink	-9.27544
▁mark	-9.27574
▁v	-9.27679
▁title	-9.27979
ra	-9.28057
▁toes	-9.28115
▁thought	-9.28399
▁column	-9.28424
▁:	-9.28649
▁mov	-9.28677
1.	-9.28903
Jesus	-9.29192
There	-9.29261
You	-9.2948
▁beings	-9.29564
▁respective	-9.29964
▁strong	-9.29992
vant	-9.30035
▁witness	-9.30036
▁David	-9.30094
▁parentheses	-9.30094
▁regard	-9.30094
▁Number	-9.30094
▁empty	-9.30097
▁pop	-9.30113
▁count	-9.30126
▁Also	-9.30127
▁gray	-9.30137
tal	-9.30171
▁Z	-9.30186
▁divided	-9.30188
▁cooking	-9.30198
▁cut	-9.30276
▁roll	-9.30307
▁ht	-9.30345
▁worshippe	-9.30389
▁completely	-9.3042
j	-9.3043
▁seek	-9.30595
▁features	-9.30596
▁executed	-9.30816
’.	-9.30953
▁knees	-9.31146
ear	-9.3119
ence	-9.31308
▁characters	-9.31625
ne	-9.32307
ana	-9.32333
▁cows	-9.32677
R	-9.32726
▁age	-9.33784
ter	-9.3383
▁allow	-9.3424
el	-9.34382
▁integer	-9.34801
▁square	-9.34946
ine	-9.34972
▁problem	-9.34999
▁stop	-9.35035
▁shape	-9.35052
▁flower	-9.35114
▁movement	-9.35157
▁arrow	-9.35181
▁human	-9.35232
Wherefore	-9.3566
▁j	-9.35784
ble	-9.36114
▁N	-9.36171
by	-9.36206
▁trust	-9.36288
▁preach	-9.36399
▁lead	-9.36484
▁judge	-9.36487
▁health	-9.36641
@	-9.36656
▁develop	-9.36738
ásana	-9.3676
▁judgment	-9.3676
▁identify	-9.3676
▁stitch	-9.36761
▁vertical	-9.36761
▁consider	-9.36764
▁taught	-9.36772
▁lower	-9.36774
▁respect	-9.36774
▁execution	-9.36776
▁comma	-9.36781
▁wine	-9.36785
▁foot	-9.36799
▁apart	-9.36804
▁Path	-9.36831
▁=	-9.36835
▁itself	-9.36839
▁improve	-9.36845
▁cross	-9.3686
▁Display	-9.36923
▁meat	-9.37042
▁charge	-9.37134
▁Use	-9.37173
▁ready	-9.37179
▁NMEICT	-9.37181
▁Again	-9.37246
▁rise	-9.37476
M	-9.37507
▁defined	-9.3751
▁King	-9.37536
▁returned	-9.37762
▁passed	-9.37978
▁sat	-9.37991
▁organisms	-9.37995
▁While	-9.38029
G	-9.3819
▁ought	-9.38324
v	-9.38383
name	-9.38531
▁angels	-9.38844
++.	-9.38975
▁grade	-9.3914
▁opening	-9.39867
▁Sita	-9.40269
▁layers	-9.40278
▁fathers	-9.40534
▁follows	-9.40625
ern	-9.40765
ta	-9.40922
▁disease	-9.41867
▁administrator	-9.41945
▁comment	-9.42046
▁devil	-9.42171
▁element	-9.42235
▁slider	-9.4224
▁colours	-9.42246
▁commandment	-9.42263
▁forward	-9.42315
long	-9.42456
▁curve	-9.42507
ual	-9.42538
▁continue	-9.42632
▁pre	-9.42868
▁walk	-9.42917
Let	-9.4302
9	-9.43049
These	-9.43253
So	-9.43271
▁relax	-9.43468
▁cover	-9.43526
▁promise	-9.4357
▁records	-9.43647
▁forms	-9.43722
▁short	-9.43741
▁deep	-9.43747
▁hard	-9.43801
croll	-9.43804
▁represent	-9.439
▁grep	-9.43903
▁QUESTIONS	-9.43903
▁neck	-9.43903
▁verily	-9.43903
▁wisdom	-9.43903
▁Netbeans	-9.43904
▁keyword	-9.43904
▁knew	-9.43906
▁subject	-9.43906
▁began	-9.43908
▁immediately	-9.43909
▁concentration	-9.43911
▁carbon	-9.43942
▁folk	-9.43942
▁Order	-9.43943
▁break	-9.43943
▁moon	-9.43945
▁inhaling	-9.43945
▁Simon	-9.43946
▁automatically	-9.43947
▁Holy	-9.43952
▁login	-9.43958
▁requirement	-9.43966
▁devotion	-9.43967
▁installation	-9.43976
▁mentioned	-9.44004
lace	-9.44008
▁row	-9.44009
▁sort	-9.44012
▁Take	-9.44016
▁Page	-9.44026
▁script	-9.44086
▁blessed	-9.44086
▁sky	-9.44091
end	-9.44109
▁slowly	-9.44115
▁Employee	-9.44147
▁boxes	-9.44386
▁desired	-9.44395
▁non	-9.44474
▁ears	-9.44532
▁arguments	-9.44733
cient	-9.44746
▁Step	-9.45004
▁Yes	-9.45192
▁reach	-9.45223
▁moved	-9.45278
▁drawing	-9.45479
▁diseases	-9.45638
▁god	-9.45646
▁humans	-9.4576
ut	-9.45979
▁items	-9.46278
▁forest	-9.46399
▁m	-9.46775
▁commanded	-9.47101
▁id	-9.47174
Be	-9.4721
alk	-9.4749
▁br	-9.47769
▁30	-9.47944
uch	-9.47965
sha	-9.4801
7	-9.48345
▁toward	-9.48368
▁seeing	-9.48472
Once	-9.49102
efore	-9.49205
ally	-9.4932
ach	-9.49406
▁soul	-9.49637
no	-9.49677
▁books	-9.49686
▁slide	-9.49819
▁tongue	-9.49836
▁boy	-9.4985
▁kind	-9.49856
▁root	-9.49893
▁operator	-9.49922
▁icons	-9.50487
came	-9.507
▁remain	-9.50953
▁proceed	-9.51105
▁shoulder	-9.51108
▁custom	-9.51266
▁11	-9.51274
▁dance	-9.51426
▁except	-9.51535
▁offer	-9.51575
▁Or	-9.51585
▁16.04	-9.51595
▁Galilee	-9.51595
▁Stroke	-9.51595
▁synagogue	-9.51595
▁exhaling	-9.51596
▁reason	-9.51596
▁General	-9.51596
▁morning	-9.51596
▁natural	-9.51597
▁Exce	-9.51597
▁arose	-9.51597
▁Moses	-9.51597
▁extension	-9.51597
▁middle	-9.51597
▁wind	-9.51599
rote	-9.516
▁role	-9.516
▁instance	-9.51602
▁scribes	-9.51602
▁ourselves	-9.51603
▁mine	-9.51604
▁thyself	-9.51607
▁thus	-9.51613
▁module	-9.51618
▁report	-9.51619
▁original	-9.51621
▁Blur	-9.51628
▁sorrow	-9.51635
▁built	-9.51638
▁Similarly	-9.51645
▁likewise	-9.51645
▁background	-9.51671
▁elbows	-9.51673
▁Gentiles	-9.51674
▁match	-9.51674
▁Just	-9.51699
▁tip	-9.51703
▁pose	-9.51714
▁&	-9.51785
▁room	-9.51785
▁lay	-9.51817
▁delivered	-9.51829
▁exc	-9.51836
▁soldiers	-9.51837
▁Item	-9.51885
▁weight	-9.52037
▁bad	-9.52067
▁Sam	-9.52206
▁components	-9.52218
▁removed	-9.52285
▁IN	-9.52404
!"	-9.52454
Hatha	-9.52801
▁today	-9.52839
▁birds	-9.52911
▁provide	-9.5303
▁printed	-9.53536
▁flowers	-9.53633
▁formed	-9.53917
▁fingers	-9.54157
▁ch	-9.54309
ति	-9.54514
▁recording	-9.54532
▁care	-9.54628
▁initialize	-9.54856
▁Ra	-9.56439
V	-9.56573
▁con	-9.56984
Ye	-9.57436
way	-9.57557
++	-9.57618
5	-9.5763
▁List	-9.57905
▁User	-9.58024
▁alphabet	-9.58062
▁minute	-9.58144
▁lot	-9.58177
▁build	-9.58179
▁village	-9.58183
▁parameter	-9.58251
▁package	-9.58253
▁detail	-9.58278
▁contain	-9.58289
man	-9.58292
▁/	-9.58356
▁images	-9.58462
▁posture	-9.58488
iv	-9.58558
How	-9.59022
most	-9.59067
\	-9.59116
We	-9.59214
▁convert	-9.59578
EN	-9.59639
▁locate	-9.59654
▁Main	-9.59723
▁generate	-9.59777
▁large	-9.59898
lowly	-9.599
▁Repeat	-9.599
▁righteous	-9.59905
▁doctrine	-9.59929
▁quiz	-9.59929
▁HTML	-9.59929
▁Panel	-9.59929
▁exhale	-9.59929
▁length	-9.59929
▁request	-9.59929
▁gift	-9.59929
▁presence	-9.59929
▁zoom	-9.59929
▁Build	-9.59929
▁calm	-9.59929
▁Last	-9.59929
▁rejoice	-9.59929
▁Vishnu	-9.5993
▁wrath	-9.5993
▁Person	-9.59932
▁concern	-9.59932
▁border	-9.59933
▁local	-9.59933
▁upload	-9.59936
▁company	-9.59936
▁energy	-9.59936
▁Ghost	-9.59942
▁awareness	-9.59946
▁maintain	-9.59946
▁rather	-9.59946
▁poor	-9.59952
▁picture	-9.59969
▁fight	-9.59969
▁often	-9.59971
▁software	-9.59974
▁Finish	-9.59975
▁easily	-9.59975
▁label	-9.59975
▁Suppose	-9.59975
▁fulfilled	-9.59975
▁eternal	-9.59975
▁focus	-9.59977
▁permission	-9.59988
▁Editor	-9.6001
▁everyone	-9.60018
▁setup	-9.6003
▁Amen	-9.60038
gmail	-9.60039
▁Shift	-9.60054
▁bacteria	-9.60055
▁though	-9.60064
width	-9.60097
▁harmful	-9.60138
▁preferences	-9.60158
▁development	-9.60163
▁sum	-9.60218
Maintain	-9.60229
▁fix	-9.60253
▁young	-9.60259
▁forum	-9.60262
▁Start	-9.60264
▁buttocks	-9.60307
▁Every	-9.60438
▁Asanas	-9.60607
▁devotees	-9.60761
▁faithful	-9.60849
▁performed	-9.60873
do	-9.6095
ell	-9.6102
▁friends	-9.61331
▁placed	-9.61447
mi	-9.61552
▁slides	-9.61825
ent	-9.61861
▁hearing	-9.62038
nother	-9.62059
▁shapes	-9.62125
▁txt	-9.62135
▁movements	-9.62142
▁eating	-9.62164
ver	-9.62443
▁past	-9.62544
▁Types	-9.62574
▁8	-9.6264
me	-9.62828
un	-9.62931
E	-9.63365
ide	-9.63466
ave	-9.64087
ni	-9.64158
NA	-9.64365
▁Fee	-9.64859
▁Choose	-9.65198
▁real	-9.65279
▁Shri	-9.65286
va	-9.6536
▁ra	-9.66152
▁reduce	-9.66207
▁destroy	-9.66566
▁learning	-9.66687
atch	-9.66726
▁sections	-9.66948
▁thousand	-9.67067
▁sons	-9.67204
▁chariot	-9.67206
▁river	-9.67301
▁fund	-9.67331
ight	-9.675
▁commands	-9.67514
Name	-9.67604
ort	-9.67843
▁Hav	-9.67884
with	-9.68095
▁goes	-9.68098
▁clos	-9.68296
▁Can	-9.68326
क	-9.68451
▁depart	-9.68522
▁manifest	-9.68566
▁turn	-9.6863
▁attain	-9.68732
▁dark	-9.68794
▁slow	-9.68933
*	-9.68991
ick	-9.69003
▁Check	-9.69004
▁appro	-9.69014
▁Navigat	-9.6902
▁correspond	-9.6902
▁Content	-9.6902
▁Continue	-9.6902
▁Package	-9.6902
▁Remove	-9.6902
▁centre	-9.6902
▁choice	-9.6902
▁contribute	-9.6902
▁difficult	-9.6902
▁Sometimes	-9.6902
▁worthy	-9.6902
Saying	-9.6902
▁>>	-9.6902
▁necessary	-9.6902
▁women	-9.69021
▁multi	-9.69021
▁addition	-9.69022
▁Mozilla	-9.69022
▁outside	-9.69022
▁location	-9.69023
▁honour	-9.69023
▁matter	-9.69034
▁iron	-9.69039
▁astonished	-9.69041
▁Mother	-9.69042
ger	-9.69045
▁darkness	-9.69046
▁creating	-9.69069
▁environment	-9.6907
▁Insert	-9.6907
▁powerful	-9.69073
▁Dharma	-9.69081
▁spine	-9.69083
▁pure	-9.69089
▁big	-9.69099
▁sitting	-9.69101
▁Mary	-9.69104
▁fine	-9.69121
▁piece	-9.69157
▁army	-9.69161
▁cup	-9.69162
▁scroll	-9.69163
▁pressure	-9.69165
▁Say	-9.69174
▁flow	-9.69262
▁speaketh	-9.69302
▁believeth	-9.69354
pri	-9.69371
▁bend	-9.69408
▁turned	-9.69411
▁special	-9.6942
▁sing	-9.6951
▁stored	-9.69556
▁Locat	-9.69568
▁Us	-9.69618
et	-9.69809
▁actual	-9.69846
Hav	-9.69883
▁parents	-9.69934
▁letters	-9.701
▁states	-9.70101
▁Lo	-9.70223
HY	-9.70441
▁door	-9.70612
▁tag	-9.70623
Who	-9.7071
▁Therefore	-9.70727
▁20	-9.70819
ious	-9.70919
10	-9.7133
▁se	-9.7145
ists	-9.72538
▁gather	-9.72577
op	-9.72768
demo	-9.72917
cent	-9.73081
asana	-9.73221
▁100	-9.73465
ins	-9.73548
▁arm	-9.73963
▁includ	-9.73982
▁results	-9.73987
▁ways	-9.74104
veral	-9.75059
▁logo	-9.75183
▁experience	-9.75452
li	-9.75468
ons	-9.75701
▁Operat	-9.75777
ash	-9.75863
ER	-9.7614
▁hearts	-9.76235
▁difference	-9.77203
▁dwell	-9.7721
▁stay	-9.77283
▁molecule	-9.77288
▁bird	-9.77316
▁knee	-9.77328
▁prophet	-9.77351
▁design	-9.77392
▁player	-9.77441
▁song	-9.7771
ice	-9.77833
▁fi	-9.77867
Where	-9.7809
defined	-9.78092
while	-9.78115
What	-9.78115
▁Print	-9.78212
▁Con	-9.78436
her	-9.78586
▁Un	-9.78736
▁reverse	-9.78749
▁h	-9.78808
▁depend	-9.78839
▁asana	-9.78938
eople	-9.78994
Demo	-9.79018
ो	-9.7902
▁Browse	-9.7902
▁Geeta	-9.7902
▁Herod	-9.7902
▁OPAC	-9.7902
▁Patron	-9.7902
▁Thank	-9.7902
▁URL	-9.7902
▁categories	-9.7902
▁future	-9.7902
▁instead	-9.7902
▁rebuke	-9.7902
▁speech	-9.7902
trunk	-9.7902
▁Samsara	-9.7902
▁absorb	-9.7902
▁region	-9.7902
▁Team	-9.7902
▁brain	-9.7902
▁Upload	-9.7902
▁sheep	-9.7902
▁speed	-9.7902
▁indeed	-9.7902
google	-9.79021
TEX	-9.79021
▁KTouch	-9.79021
▁division	-9.79021
▁fondness	-9.79021
▁wait	-9.79022
▁salvation	-9.79022
▁throne	-9.79022
▁rotation	-9.79023
▁guideline	-9.79024
▁history	-9.79024
▁Namaskara	-9.79026
▁sleep	-9.79026
▁duplicate	-9.79029
▁Ramayana	-9.79031
▁Draw	-9.79034
▁upper	-9.79038
▁alone	-9.79039
▁extract	-9.7904
▁session	-9.7905
▁examples	-9.79057
ities	-9.79059
▁12	-9.7906
▁range	-9.79069
▁expand	-9.7907
▁pixel	-9.79074
▁Google	-9.79076
▁directories	-9.79076
▁temperature	-9.79076
▁graphic	-9.79076
▁Compile	-9.79077
▁Water	-9.79079
▁Company	-9.79085
▁Setup	-9.79086
▁attempt	-9.79087
PH	-9.791
▁admin	-9.79124
▁makes	-9.79176
▁unit	-9.79186
▁gone	-9.79243
▁dioxide	-9.79272
▁fail	-9.79274
▁Gita	-9.79288
▁whatsoever	-9.79288
▁backwards	-9.79373
▁existing	-9.79395
▁provided	-9.79395
▁bones	-9.79453
▁ii	-9.79461
▁products	-9.79482
▁lungs	-9.79482
▁benefits	-9.79491
ASANA	-9.79537
▁none	-9.7958
▁listen	-9.79601
▁hide	-9.79825
▁Behold	-9.79876
▁mighty	-9.79896
▁7	-9.79916
▁explained	-9.79967
▁appeared	-9.79973
▁exercises	-9.80033
▁Per	-9.80074
ri	-9.80163
▁fac	-9.80199
▁playing	-9.80263
▁Prana	-9.8029
▁heels	-9.80404
▁nations	-9.80404
▁Rol	-9.8055
▁painting	-9.80687
▁Jan	-9.80736
▁songs	-9.8079
are	-9.80907
▁rivers	-9.80961
z	-9.81118
▁packages	-9.81146
vernment	-9.81361
▁pleased	-9.8139
ps	-9.81512
▁month	-9.81782
ptic	-9.81819
sion	-9.82417
nah	-9.8249
ka	-9.82542
ently	-9.82572
▁0.	-9.82729
▁seeds	-9.82848
▁stars	-9.82871
em	-9.8309
▁Pa	-9.83156
▁rounds	-9.8321
▁replace	-9.83437
▁die	-9.83481
pers	-9.83733
▁org	-9.83743
▁7.	-9.83945
▁sources	-9.84165
ull	-9.85525
W	-9.85578
ap	-9.86125
▁Ma	-9.86168
▁conditions	-9.86281
▁sh	-9.86607
am	-9.8662
▁simpl	-9.86928
▁ha	-9.87151
Try	-9.87202
ms	-9.87307
▁diet	-9.87327
▁errors	-9.87646
day	-9.8767
▁ran	-9.87888
overnment	-9.87911
ually	-9.87952
▁houses	-9.88039
▁modif	-9.88116
▁pencil	-9.88173
▁master	-9.88175
tha	-9.88247
▁stem	-9.88303
▁parable	-9.8833
be	-9.88341
▁node	-9.88357
▁direction	-9.88412
if	-9.88417
▁prayer	-9.88419
▁Sh	-9.8848
▁Dur	-9.88536
▁organism	-9.88719
K	-9.88726
▁doth	-9.88749
▁hu	-9.89003
www	-9.89043
▁Pro	-9.89177
Behold	-9.89184
field	-9.89227
▁seat	-9.89411
ary	-9.89616
▁chant	-9.89636
▁collect	-9.89792
▁hope	-9.89799
▁rotate	-9.89843
▁strength	-9.90031
▁success	-9.90115
▁author	-9.90118
▁Class	-9.90121
▁Stretch	-9.90131
▁extreme	-9.90131
▁Database	-9.90131
▁Joseph	-9.90131
▁Journal	-9.90131
▁MARC	-9.90131
▁baptized	-9.90131
▁engine	-9.90131
▁essential	-9.90131
▁exhalation	-9.90131
▁fabric	-9.90131
▁famous	-9.90131
▁mercy	-9.90131
▁qualities	-9.90131
▁safe	-9.90131
▁sepulchre	-9.90131
▁stream	-9.90131
▁unique	-9.90131
▁easy	-9.90131
▁11.10	-9.90131
▁Double	-9.90132
▁memory	-9.90132
▁taste	-9.90132
▁combin	-9.90132
▁Level	-9.90132
▁labour	-9.90132
▁abundan	-9.90132
▁resurrection	-9.90133
▁Lamb	-9.90133
▁assume	-9.90133
▁dashboard	-9.90133
▁Delet	-9.90134
▁Posture	-9.90135
▁Tadasana	-9.90135
▁entry	-9.90136
Inhale	-9.90136
Two	-9.90137
▁forget	-9.90137
▁Apache	-9.90141
▁alert	-9.90141
▁applet	-9.90141
▁anything	-9.90142
▁Raja	-9.90143
▁Server	-9.90146
▁universe	-9.90147
▁overrid	-9.90148
▁grid	-9.90148
pdf	-9.90156
▁syntax	-9.90164
▁medium	-9.90168
▁wilt	-9.90174
▁bound	-9.90177
▁Sync	-9.90179
▁manifestation	-9.90181
▁Admin	-9.90194
▁protein	-9.90194
▁Since	-9.90194
▁Vyayama	-9.90195
▁Surya	-9.90195
▁relaxation	-9.90196
▁mount	-9.90197
▁Master	-9.90197
▁stage	-9.902
▁capital	-9.90212
▁ascend	-9.90225
▁Right	-9.90225
▁Manage	-9.90226
▁indicator	-9.90239
▁directly	-9.9024
▁standard	-9.90249
▁cooked	-9.9025
▁upwards	-9.90254
▁accuse	-9.90258
▁Stand	-9.90278
▁public	-9.90283
▁pot	-9.90284
▁physic	-9.90286
▁birth	-9.90303
▁DO	-9.90303
▁Home	-9.90304
▁println	-9.90304
▁specific	-9.90322
▁Checkout	-9.90322
behind	-9.90329
▁Sun	-9.90335
▁revealed	-9.9034
▁18	-9.90341
▁band	-9.90354
▁sharpen	-9.90364
▁giv	-9.90364
▁scale	-9.90433
▁Maths	-9.90445
▁insects	-9.90446
▁finally	-9.90449
▁Hence	-9.90478
▁Syn	-9.90491
nside	-9.90565
▁gold	-9.90605
▁height	-9.90633
▁served	-9.90653
▁printf	-9.90666
▁su	-9.90701
▁Test	-9.90731
▁dai	-9.90736
▁Verily	-9.90753
▁relaxed	-9.9076
▁apostles	-9.90856
▁scriptures	-9.90857
Email	-9.90912
▁belong	-9.91016
▁places	-9.91054
▁thighs	-9.91063
▁elders	-9.91063
▁heads	-9.9109
▁Where	-9.91204
▁committ	-9.91231
▁Missi	-9.91237
▁clothes	-9.91241
▁Creat	-9.9135
▁spiritual	-9.91508
▁prompted	-9.91509
ory	-9.9151
uddhi	-9.9162
▁printer	-9.91641
▁joints	-9.91687
▁organs	-9.91756
▁editing	-9.91784
▁cd	-9.91842
▁ma	-9.9187
▁log	-9.91879
▁outer	-9.91891
▁directions	-9.91896
▁Nation	-9.9209
▁players	-9.9215
00	-9.9221
▁tags	-9.92247
▁postures	-9.92523
▁ones	-9.92661
▁gods	-9.92943
▁devils	-9.92945
▁sliders	-9.92953
▁stops	-9.93156
sa	-9.9326
▁explore	-9.93379
ho	-9.93387
▁sow	-9.93672
da	-9.93675
ew	-9.93745
▁treasure	-9.93939
▁looked	-9.93977
▁contents	-9.94001
▁endow	-9.94079
▁Su	-9.94271
▁Refer	-9.94818
▁printing	-9.94914
▁Ja	-9.95382
▁"""	-9.95441
▁Guru	-9.95502
▁total	-9.95539
▁kings	-9.95721
wards	-9.95792
rofile	-9.96071
▁patterns	-9.96146
ro	-9.96272
▁Ne	-9.9637
om	-9.9669
solution	-9.96703
ecause	-9.96815
▁teachers	-9.97061
▁40	-9.97217
▁para	-9.97407
▁observ	-9.97631
vi	-9.98372
ot	-9.98923
▁paste	-9.98973
remen	-9.99343
ring	-9.99645
4.	-9.99656
8	-9.99716
▁Di	-10.0008
▁Account	-10.0013
sk	-10.0039
--	-10.0042
▁organ	-10.005
select	-10.0051
▁raga	-10.0067
▁spread	-10.007
▁Ye	-10.0074
▁purpose	-10.0082
▁chapter	-10.0082
▁Practice	-10.0083
▁figure	-10.0084
▁occur	-10.0085
▁beast	-10.0088
▁frame	-10.0097
▁hid	-10.0102
▁nation	-10.011
▁joint	-10.011
▁cell	-10.0125
Of	-10.0133
▁sed	-10.0144
ite	-10.0153
▁Ste	-10.0153
ped	-10.0156
vision	-10.0162
where	-10.0167
Again	-10.017
Spoken	-10.0173
type	-10.0173
▁heel	-10.0178
ids	-10.018
▁familiar	-10.0195
▁chang	-10.0198
▁deliver	-10.0205
▁discuss	-10.0217
▁obey	-10.0217
▁repeat	-10.0219
▁comfort	-10.0219
▁perish	-10.0223
▁load	-10.0224
▁medicin	-10.0229
▁deceive	-10.023
▁invoke	-10.0232
ike	-10.0235
▁define	-10.0238
▁prepare	-10.0244
▁loud	-10.0244
divid	-10.0244
▁bright	-10.0245
▁declare	-10.0246
▁release	-10.0246
▁cat	-10.0251
▁six	-10.0254
oken	-10.0255
▁rich	-10.0257
▁digest	-10.0258
▁MarcEdit	-10.0258
belief	-10.026
ducation	-10.026
tly	-10.0262
्य	-10.0262
ise	-10.0262
ण	-10.0263
▁Egypt	-10.0263
▁boat	-10.0263
JDK	-10.0263
]	-10.0263
▁CTRL	-10.0263
▁Default	-10.0263
▁Dronacharya	-10.0263
▁Entry	-10.0263
▁MariaDB	-10.0263
▁MikTeX	-10.0263
▁Rotate	-10.0263
▁Supplier	-10.0263
▁abdomen	-10.0263
▁beseech	-10.0263
▁compassion	-10.0263
▁constant	-10.0263
▁enhance	-10.0263
▁enjoy	-10.0263
▁erect	-10.0263
▁flag	-10.0263
▁glorify	-10.0263
▁hydrogen	-10.0263
▁matrix	-10.0263
▁patience	-10.0263
▁redirect	-10.0263
▁twice	-10.0263
▁yesterday	-10.0263
▁German	-10.0263
▁Tax	-10.0263
▁accept	-10.0263
▁activity	-10.0263
▁waist	-10.0263
▁PHP	-10.0263
▁half	-10.0263
▁prevent	-10.0263
▁skin	-10.0263
▁North	-10.0263
▁Settings	-10.0263
▁exact	-10.0263
▁Yama	-10.0263
▁money	-10.0263
▁Gaussian	-10.0263
▁pleasure	-10.0263
▁English	-10.0263
▁teeth	-10.0263
▁programming	-10.0263
▁daughter	-10.0263
▁gradient	-10.0263
▁confidence	-10.0264
▁mineral	-10.0264
▁introduction	-10.0264
▁quit	-10.0264
▁governor	-10.0264
▁nerv	-10.0264
▁charity	-10.0264
▁Avogadro	-10.0264
▁generation	-10.0264
▁chosen	-10.0264
▁subscription	-10.0265
▁season	-10.0266
▁myself	-10.0267
ource	-10.0267
▁Line	-10.0267
▁ball	-10.0267
▁rate	-10.0268
▁conch	-10.0269
▁audi	-10.027
▁wide	-10.027
▁Calculus	-10.027
▁fellow	-10.027
▁attach	-10.027
▁gedit	-10.027
▁co	-10.027
90	-10.0271
▁Assignment	-10.0271
▁pollution	-10.0271
▁beloved	-10.0271
▁inhale	-10.0271
▁getDetails	-10.0271
▁activities	-10.0272
▁rain	-10.0272
▁Purchase	-10.0274
▁darker	-10.0275
▁eg	-10.0275
▁witnesses	-10.0276
▁lotus	-10.0276
▁vegetables	-10.0276
▁connected	-10.0276
abbath	-10.0277
gged	-10.0277
▁Today	-10.0278
▁Set	-10.0278
▁bestow	-10.0278
▁Wom	-10.028
▁forgive	-10.0281
mote	-10.0282
▁hence	-10.0282
▁Earth	-10.0283
▁OF	-10.0283
▁produced	-10.0283
▁3.3	-10.0284
▁brushes	-10.0284
▁praise	-10.0286
▁excellen	-10.0286
▁higher	-10.0287
▁across	-10.0287
▁drawn	-10.0293
▁healthy	-10.0294
▁Pilate	-10.0295
▁tears	-10.0298
dollar	-10.0303
▁weak	-10.0304
▁personal	-10.0307
▁Bank	-10.0308
▁mail	-10.0309
▁general	-10.0309
▁joining	-10.0319
▁destroyed	-10.032
▁Exhale	-10.0321
▁thanks	-10.0322
▁deeds	-10.0323
▁converted	-10.0324
ol	-10.0325
▁Up	-10.0325
▁needs	-10.0328
▁covered	-10.0335
▁aware	-10.0336
AL	-10.0342
▁expressions	-10.0346
▁killed	-10.0351
▁singing	-10.0362
▁Serials	-10.037
▁resources	-10.037
▁remaining	-10.0372
▁Log	-10.0373
▁bonds	-10.0377
▁Downloads	-10.0389
▁topics	-10.0393
lu	-10.0407
▁Pra	-10.0409
▁handles	-10.0411
▁Vedas	-10.0416
▁operations	-10.0417
ial	-10.0471
▁tabs	-10.0484
Y	-10.0485
▁molecules	-10.0489
▁yogi	-10.0503
ler	-10.0505
ant	-10.0505
▁soft	-10.051
di	-10.051
▁ID	-10.0525
▁understanding	-10.0532
▁villages	-10.0537
▁shed	-10.0538
▁pages	-10.056
▁boys	-10.0561
▁force	-10.0561
ose	-10.0566
▁U	-10.057
ay	-10.0576
▁thence	-10.0576
wise	-10.0596
▁shoulders	-10.0613
for	-10.0654
▁vi	-10.0659
▁namely	-10.0678
▁languages	-10.0682
▁mountains	-10.069
▁actions	-10.073
X	-10.0757
undo	-10.0778
ng	-10.0806
▁explains	-10.0806
ile	-10.0839
▁ti	-10.086
▁promote	-10.0867
ard	-10.087
▁tells	-10.0927
ang	-10.0937
ending	-10.1002
▁waste	-10.1021
▁Pr	-10.1054
▁lie	-10.1061
we	-10.1065
▁best	-10.111
▁fore	-10.1124
AND	-10.1127
▁salute	-10.1133
▁windows	-10.1147
let	-10.1151
ux	-10.1177
▁9	-10.1227
▁mothers	-10.128
0	-10.128
ist	-10.1282
llel	-10.1319
▁Back	-10.1321
▁Li	-10.1365
ides	-10.1367
um	-10.1378
ि	-10.1424
▁Gen	-10.1453
red	-10.146
rew	-10.1468
▁happen	-10.1482
ia	-10.1486
last	-10.1491
▁tradition	-10.1496
▁garment	-10.1496
▁husband	-10.1504
▁loose	-10.1506
▁sentence	-10.1512
▁shloka	-10.1516
▁sacrifice	-10.1518
▁Brahma	-10.152
▁operation	-10.1521
▁state	-10.1521
▁argument	-10.1522
▁disciple	-10.1526
▁Na	-10.1534
▁colors	-10.1537
ki	-10.1543
▁letter	-10.1548
▁u	-10.1552
▁th	-10.1552
right	-10.156
▁rec	-10.1576
space	-10.1597
NMEICT	-10.1599
slash	-10.1601
body	-10.1602
On	-10.1607
Ne	-10.1609
▁wor	-10.161
▁join	-10.1611
▁lift	-10.1612
▁pain	-10.1617
this	-10.1632
ad	-10.1636
▁char	-10.1639
nt	-10.1643
▁lock	-10.1645
▁increment	-10.1649
▁proce	-10.1651
▁require	-10.1655
low	-10.1656
▁demonstrate	-10.1662
all	-10.1665
▁separate	-10.1665
ches	-10.167
▁fun	-10.1672
▁Th	-10.1681
▁exhibit	-10.1685
▁mental	-10.1685
▁num	-10.1685
▁branch	-10.1686
▁Tab	-10.1687
▁post	-10.1688
▁Seq	-10.1689
▁term	-10.1689
xplain	-10.169
ल	-10.1691
nternet	-10.1691
cular	-10.1691
Align	-10.1692
Return	-10.1692
▁12.04	-10.1692
▁Antioch	-10.1692
▁Grade	-10.1692
▁LaTeX	-10.1692
▁Mathematics	-10.1692
▁Recall	-10.1692
▁Saturation	-10.1692
▁Saul	-10.1692
▁Supreme	-10.1692
▁Trataka	-10.1692
▁abstract	-10.1692
▁blind	-10.1692
▁catalog	-10.1692
▁copied	-10.1692
▁crucified	-10.1692
▁desktop	-10.1692
▁eclipse	-10.1692
▁glorified	-10.1692
▁invisible	-10.1692
▁magazine	-10.1692
▁mathematic	-10.1692
▁minimum	-10.1692
▁punishment	-10.1692
▁service	-10.1692
▁stuff	-10.1692
▁testimony	-10.1692
▁vendor	-10.1692
▁womb	-10.1692
▁Superlibrarian	-10.1692
▁moodle	-10.1692
▁supreme	-10.1692
▁talents	-10.1692
▁Typing	-10.1692
▁animation	-10.1692
▁compound	-10.1692
▁employee	-10.1692
▁filter	-10.1692
▁goshala	-10.1692
▁updated	-10.1692
▁team	-10.1692
▁stroke	-10.1692
▁progress	-10.1692
▁Himself	-10.1692
▁betray	-10.1692
▁random	-10.1692
▁Vajrasana	-10.1692
▁feedback	-10.1692
▁insert	-10.1692
▁concept	-10.1692
▁beautiful	-10.1692
▁grandfather	-10.1692
▁query	-10.1692
roperties	-10.1692
▁horns	-10.1692
▁adj	-10.1692
▁chair	-10.1692
gcc	-10.1692
▁Pada	-10.1692
▁bondage	-10.1692
▁Drive	-10.1692
▁pair	-10.1692
▁society	-10.1693
▁surface	-10.1693
▁rock	-10.1693
▁triangle	-10.1693
RGB	-10.1693
▁divine	-10.1694
▁Year	-10.1694
▁simultaneously	-10.1694
▁push	-10.1694
▁properties	-10.1694
▁awkdemo	-10.1695
▁hair	-10.1695
▁profile	-10.1695
otten	-10.1695
▁established	-10.1695
▁reference	-10.1695
▁wheel	-10.1695
▁carefully	-10.1696
▁gain	-10.1696
▁Stage	-10.1696
mic	-10.1697
▁cities	-10.1697
▁midst	-10.1698
▁smile	-10.1698
▁compare	-10.1698
▁Ba	-10.1698
▁200	-10.1699
▁Mee	-10.17
▁Grace	-10.17
▁String	-10.17
▁yourself	-10.17
▁gas	-10.1701
▁mango	-10.1701
▁Cow	-10.1701
▁Priya	-10.1702
▁pipe	-10.1703
▁pay	-10.1704
▁Bio	-10.1705
▁profit	-10.1705
▁quickly	-10.1705
▁hang	-10.1706
▁branches	-10.1706
▁saints	-10.1707
▁iii	-10.1707
▁comfortable	-10.1709
▁pH	-10.1709
▁protection	-10.171
▁specified	-10.1711
▁super	-10.1712
▁manage	-10.1714
▁JSP	-10.1714
▁Show	-10.1714
▁abdominal	-10.1714
▁testdir	-10.1717
▁Application	-10.1717
▁sewing	-10.1717
▁cleansed	-10.1718
▁Thus	-10.1719
▁aligned	-10.172
▁beside	-10.1721
▁ICT	-10.1722
▁reward	-10.1722
▁deeply	-10.1724
50	-10.1725
▁prepared	-10.1727
▁respectively	-10.1729
▁Sample	-10.173
▁Tur	-10.173
lessed	-10.173
▁sold	-10.1732
▁Sri	-10.1733
▁Options	-10.1733
▁deal	-10.1737
▁discussed	-10.1738
dure	-10.174
▁Look	-10.1745
▁died	-10.1749
▁meet	-10.1755
▁Veda	-10.1756
▁sometimes	-10.1761
▁Sum	-10.1763
▁soon	-10.1767
▁anger	-10.177
▁Even	-10.1789
underscore	-10.179
▁breathe	-10.1792
▁Web	-10.1792
▁prayed	-10.1794
▁X	-10.1795
tar	-10.1797
▁nose	-10.1811
▁crops	-10.1816
▁knoweth	-10.1824
tain	-10.1833
EG	-10.1835
ping	-10.1847
22	-10.1854
▁shlokas	-10.1871
▁sacrifices	-10.1872
▁beasts	-10.1899
▁Accounts	-10.19
▁beat	-10.1903
▁led	-10.1911
▁doeth	-10.1924
ny	-10.1925
DD	-10.1938
▁months	-10.194
III	-10.1942
▁therein	-10.1945
▁Brahman	-10.1949
▁asanas	-10.1955
▁loved	-10.1957
act	-10.1957
▁cri	-10.1994
▁Adi	-10.2009
over	-10.2012
▁kinds	-10.2037
▁tongues	-10.2039
▁Red	-10.2064
▁problems	-10.2096
▁reading	-10.2096
▁checked	-10.2115
▁columns	-10.2124
fully	-10.215
rs	-10.2181
ments	-10.2186
▁speaking	-10.2191
▁imp	-10.2203
▁tools	-10.2204
▁handle	-10.2228
ac	-10.2234
il	-10.2243
▁Tho	-10.2262
▁po	-10.2277
▁40.	-10.2311
ा	-10.2315
▁heading	-10.2349
▁causes	-10.2352
▁suppose	-10.2354
IN	-10.2402
▁al	-10.2414
olutions	-10.2422
Describ	-10.2438
▁pe	-10.2467
▁supports	-10.2498
ted	-10.2516
▁Mil	-10.254
▁fo	-10.2561
▁10.	-10.2567
id	-10.2586
ified	-10.2594
▁Mo	-10.2696
▁receives	-10.271
ative	-10.2717
ura	-10.2755
No	-10.2788
▁heal	-10.2791
▁sur	-10.2792
▁sa	-10.2807
▁loops	-10.2824
▁Sw	-10.2843
ward	-10.2843
ont	-10.2873
pt	-10.2882
▁messages	-10.2914
▁seconds	-10.2915
elated	-10.2944
▁sequences	-10.2945
▁pr	-10.2991
ak	-10.2998
ish	-10.3046
▁moves	-10.3056
▁De	-10.3058
▁che	-10.3059
▁exist	-10.3114
▁Method	-10.3162
▁period	-10.3163
▁culture	-10.3174
▁sister	-10.3177
▁ruler	-10.3178
▁technique	-10.318
▁Action	-10.3184
▁wall	-10.3185
▁exercise	-10.3186
▁devotee	-10.3189
▁Jew	-10.3192
▁tail	-10.3195
▁commit	-10.3195
hap	-10.32
▁animal	-10.3201
▁throw	-10.3203
cho	-10.3205
▁topic	-10.3212
▁parent	-10.3213
▁50	-10.3217
▁Import	-10.3254
Intro	-10.3255
Data	-10.3255
▁remov	-10.3256
numer	-10.3259
cpp	-10.326
Hello	-10.326
Verily	-10.3263
▁atom	-10.3263
Thou	-10.3267
Tutorial	-10.3268
Some	-10.3268
home	-10.3268
bject	-10.3301
▁repent	-10.3308
tenance	-10.331
ock	-10.3312
▁mix	-10.3314
▁descend	-10.3319
angled	-10.332
▁persecute	-10.3325
tr	-10.333
▁produce	-10.3331
▁quick	-10.3332
ster	-10.3336
▁glad	-10.3339
▁tempt	-10.3342
▁sharp	-10.3346
Details	-10.3347
▁heavens	-10.3347
▁spoke	-10.3352
▁mid	-10.3353
▁nigh	-10.3353
▁corrupt	-10.3354
unctions	-10.3354
tional	-10.3355
▁wicked	-10.3355
े	-10.3357
▁prison	-10.3357
य	-10.3357
arry	-10.3358
med	-10.3358
म	-10.3358
▁Juda	-10.3358
▁divide	-10.3358
á	-10.3358
▁diligen	-10.3358
—	-10.3358
▁16.05	-10.3358
▁Barnabas	-10.3358
▁Caesar	-10.3358
▁Column	-10.3358
▁Duryodhana	-10.3358
▁Filters	-10.3358
▁Jacob	-10.3358
▁Lazarus	-10.3358
▁Modif	-10.3358
▁Password	-10.3358
▁Python	-10.3358
▁Rishi	-10.3358
▁Terminal	-10.3358
▁View	-10.3358
▁Volume	-10.3358
▁broad	-10.3358
▁contribution	-10.3358
▁definition	-10.3358
▁descriptor	-10.3358
▁feast	-10.3358
▁inhalation	-10.3358
▁liberty	-10.3358
▁paragraph	-10.3358
▁sanskrit	-10.3358
▁serving	-10.3358
▁tabernacle	-10.3358
▁thieves	-10.3358
▁twelve	-10.3358
▁wilderness	-10.3358
▁Bhramari	-10.3358
▁Color	-10.3358
▁Ganga	-10.3358
▁Generate	-10.3358
▁beheld	-10.3358
▁distance	-10.3358
▁fornication	-10.3358
▁journey	-10.3358
▁transaction	-10.3358
ehicle	-10.3358
uzz	-10.3358
▁Element	-10.3358
▁abode	-10.3358
▁denote	-10.3358
▁pwd	-10.3358
▁satisfied	-10.3358
▁urine	-10.3358
▁yellow	-10.3358
▁tax	-10.3358
▁convers	-10.3358
▁stress	-10.3358
▁conformer	-10.3358
▁vain	-10.3358
▁AWK	-10.3358
▁Indra	-10.3358
▁Service	-10.3358
▁advance	-10.3359
▁honey	-10.3359
lamation	-10.3359
ntagon	-10.3359
▁Update	-10.3359
▁Static	-10.3359
kshma	-10.3359
▁Damascus	-10.3359
▁enough	-10.3359
▁Judaea	-10.3359
▁demonstration	-10.3359
▁household	-10.3359
acles	-10.3359
▁herbs	-10.3359
▁hidden	-10.3359
▁dumb	-10.3359
▁Animal	-10.3359
▁priority	-10.3359
▁hencefor	-10.3359
▁week	-10.3359
▁compilation	-10.3359
▁morrow	-10.3359
▁paper	-10.3359
▁wild	-10.3359
▁Shiva	-10.3359
▁50%	-10.3359
▁popular	-10.336
▁description	-10.336
▁webpage	-10.336
▁ellipse	-10.336
▁thief	-10.336
▁shame	-10.336
▁deny	-10.336
▁crown	-10.336
▁lobe	-10.336
▁declaration	-10.336
▁oil	-10.336
▁Read	-10.3361
▁tomorrow	-10.3361
▁Opacity	-10.3361
▁cold	-10.3361
▁navigation	-10.3361
▁Saviour	-10.3361
▁scope	-10.3362
▁Blu	-10.3362
rust	-10.3362
▁mir	-10.3362
avana	-10.3362
▁cutting	-10.3363
▁internet	-10.3363
▁suggestion	-10.3363
▁continuously	-10.3363
▁sloka	-10.3364
▁construct	-10.3364
▁carry	-10.3365
▁15	-10.3367
▁decide	-10.3367
▁hither	-10.3368
▁ego	-10.3368
▁Food	-10.3368
▁status	-10.3368
▁Green	-10.3368
▁1.6	-10.3369
▁Menu	-10.3369
▁buy	-10.3369
▁Help	-10.3369
▁adjust	-10.337
▁ability	-10.3371
▁gate	-10.3372
▁Arch	-10.3372
▁checkbox	-10.3372
▁trans	-10.3372
▁conque	-10.3373
▁humble	-10.3373
▁Learn	-10.3374
▁smok	-10.3374
▁since	-10.3374
▁grieved	-10.3375
▁Administration	-10.3375
▁bind	-10.3377
▁bottles	-10.3377
▁holes	-10.3377
▁strengthen	-10.3377
▁enrolled	-10.3377
▁riches	-10.3377
▁fig	-10.3377
▁phone	-10.3377
▁manually	-10.3377
▁Configur	-10.3381
▁noble	-10.3384
▁registered	-10.3384
▁churches	-10.3385
▁fact	-10.3386
▁center	-10.3386
▁Bookmarks	-10.3387
▁Bhagavad	-10.3388
▁wc	-10.339
▁separated	-10.3391
▁arithmetic	-10.3391
▁wax	-10.3392
▁finished	-10.3392
▁raw	-10.3392
▁Thy	-10.3392
▁Sup	-10.3393
▁mobil	-10.3394
nana	-10.3395
▁Sage	-10.3398
▁degree	-10.3398
▁butter	-10.3399
▁sage	-10.34
▁Am	-10.34
▁drive	-10.3402
▁Ved	-10.3402
▁Satya	-10.3403
▁hips	-10.3406
▁sir	-10.3407
▁sinners	-10.3408
▁Curves	-10.3408
▁Pandavas	-10.3408
▁lusts	-10.3408
▁bookmarks	-10.3409
▁goodness	-10.3409
▁reign	-10.341
▁outline	-10.3414
▁processes	-10.3414
▁clearly	-10.3415
▁freely	-10.3415
▁located	-10.3416
ika	-10.3419
take	-10.342
▁dimension	-10.3421
▁jsp	-10.3421
▁greatest	-10.3429
▁judged	-10.3431
▁attained	-10.3436
▁overcom	-10.3439
▁meter	-10.3441
▁Arrays	-10.3441
▁girls	-10.3441
▁lose	-10.3442
lew	-10.3451
▁Ok	-10.3455
▁Hello	-10.3456
▁cpp	-10.3459
Bless	-10.3461
▁Are	-10.3465
▁nutrients	-10.3474
▁clouds	-10.3474
IT	-10.3476
▁sail	-10.3478
▁share	-10.3479
dir	-10.3484
▁classes	-10.3484
▁cleanse	-10.3488
->	-10.3491
▁offen	-10.3499
▁linen	-10.3499
hi	-10.3503
▁feared	-10.3503
▁feeds	-10.3507
▁rules	-10.3507
▁offering	-10.3508
▁heat	-10.3526
▁Bar	-10.3527
▁Of	-10.3534
▁walls	-10.354
▁techniques	-10.354
Re	-10.3544
yama	-10.3604
▁occurs	-10.3607
Wo	-10.3622
March	-10.3626
nts	-10.3629
▁nodes	-10.3645
▁hell	-10.3651
▁closed	-10.3653
▁met	-10.3659
▁Bend	-10.367
▁translate	-10.3677
▁bodi	-10.3718
▁Ve	-10.3734
▁sides	-10.374
▁minutes	-10.3741
yah	-10.3758
▁inter	-10.3762
▁recite	-10.3779
las	-10.3822
▁Ch	-10.384
▁minded	-10.3842
hes	-10.3876
ft	-10.3927
▁ear	-10.3934
▁lives	-10.395
hana	-10.3979
▁resiz	-10.3992
flat	-10.3993
▁Other	-10.3997
go	-10.4009
▁optimize	-10.4013
ama	-10.4034
▁liked	-10.4063
yana	-10.4083
Knowing	-10.4085
▁blocks	-10.4119
ara	-10.4138
▁Va	-10.4168
▁answers	-10.4188
bi	-10.4189
▁heed	-10.4194
▁tri	-10.4227
areth	-10.424
▁tar	-10.4261
bha	-10.4261
▁en	-10.4263
ec	-10.4264
▁learned	-10.4274
nes	-10.4287
▁calculate	-10.4288
▁स	-10.4296
▁waters	-10.4315
▁Co	-10.4329
ware	-10.4359
▁pu	-10.4368
he	-10.4369
set	-10.4371
ole	-10.4392
▁Get	-10.4395
▁fina	-10.4402
▁)	-10.4416
▁console	-10.4419
Bring	-10.4421
▁Don	-10.4422
▁Sama	-10.4431
fore	-10.4447
oti	-10.447
▁worker	-10.4492
Not	-10.4495
▁strings	-10.4509
▁port	-10.4516
▁Maha	-10.4528
ST	-10.4529
son	-10.4575
mod	-10.4576
▁desir	-10.4597
view	-10.4658
ी	-10.4665
▁Pri	-10.4676
▁wr	-10.4708
ET	-10.4743
My	-10.4744
im	-10.4765
▁Dash	-10.4767
▁typed	-10.4776
men	-10.478
cel	-10.4791
pa	-10.4807
▁recit	-10.4872
▁elect	-10.4899
iving	-10.4905
ied	-10.4959
ON	-10.4992
▁indicat	-10.4994
▁tim	-10.5009
▁rais	-10.5021
ea	-10.5034
ba	-10.5044
bit	-10.5051
;)	-10.5052
tu	-10.5068
ksha	-10.5075
work	-10.5075
tic	-10.5089
▁suppl	-10.5114
complete	-10.5117
▁areas	-10.5127
▁Po	-10.5141
RE	-10.5156
▁suggest	-10.5157
▁diagram	-10.5163
▁Layer	-10.5172
▁rule	-10.5172
▁edge	-10.518
▁bond	-10.5183
▁Serial	-10.5184
▁resource	-10.5184
tra	-10.5185
▁elder	-10.5185
▁thigh	-10.5185
▁component	-10.5188
▁feature	-10.5189
▁Pharisee	-10.519
▁crop	-10.5195
▁feed	-10.5203
test	-10.5212
jo	-10.5215
▁refu	-10.5216
▁Download	-10.5218
▁Sa	-10.5226
▁Asana	-10.5236
ddress	-10.5242
▁sp	-10.5251
▁metal	-10.5257
.......	-10.526
▁rep	-10.5261
Even	-10.5262
Exhale	-10.5262
▁bless	-10.5264
more	-10.5265
Whom	-10.5266
stood	-10.5266
First	-10.5267
See	-10.5267
Firefox	-10.5267
Boy	-10.5268
Add	-10.5268
which	-10.5268
arrow	-10.5269
Un	-10.5269
case	-10.5269
pro	-10.527
else	-10.5284
▁stones	-10.5289
▁refresh	-10.5293
cus	-10.5303
from	-10.5307
▁align	-10.5316
▁finish	-10.5318
▁reveal	-10.5319
▁despise	-10.5319
▁defile	-10.5327
▁trib	-10.5329
▁trouble	-10.533
▁building	-10.5334
charya	-10.5337
orrow	-10.5338
▁forbid	-10.5339
▁Over	-10.5339
▁discipline	-10.5341
▁smooth	-10.5341
lar	-10.5347
apital	-10.5347
oftware	-10.5348
▁operat	-10.5349
ASH	-10.5351
special	-10.5353
▁possess	-10.5353
lways	-10.5354
▁Sukta	-10.5354
▁implement	-10.5354
▁Proper	-10.5354
▁Install	-10.5354
▁effort	-10.5357
7.0	-10.5357
obal	-10.5357
▁automatic	-10.5358
▁Auto	-10.5358
▁bapti	-10.5358
▁Sp	-10.5358
▁World	-10.5358
▁Yudhishth	-10.5358
▁intellect	-10.5358
▁श्	-10.5358
Submit	-10.5358
▁BLAST	-10.5358
▁Control	-10.5358
▁Ekalavya	-10.5358
▁GUI	-10.5358
▁History	-10.5358
▁Kapalabhati	-10.5358
▁Kauravas	-10.5358
▁Lanka	-10.5358
▁Lecture	-10.5358
▁Mudra	-10.5358
▁Mumbai	-10.5358
▁Normal	-10.5358
▁Palette	-10.5358
▁Pattern	-10.5358
▁Raymond	-10.5358
▁Reproduction	-10.5358
▁Staff	-10.5358
▁appoint	-10.5358
▁capacity	-10.5358
▁central	-10.5358
▁currency	-10.5358
▁desert	-10.5358
▁distribution	-10.5358
▁encourage	-10.5358
▁eyeballs	-10.5358
▁fervent	-10.5358
▁invoice	-10.5358
▁involve	-10.5358
▁major	-10.5358
▁marriage	-10.5358
▁multiplie	-10.5358
▁ordained	-10.5358
▁prince	-10.5358
▁remembrance	-10.5358
▁sample	-10.5358
▁school	-10.5358
▁separator	-10.5358
▁servlet	-10.5358
▁stipend	-10.5358
▁stomach	-10.5358
▁trumpet	-10.5358
▁unrighteousness	-10.5358
▁zero	-10.5358
▁Development	-10.5358
▁Macedonia	-10.5358
▁PDF	-10.5358
▁associat	-10.5358
▁battle	-10.5358
▁channel	-10.5358
▁constrain	-10.5358
▁covenant	-10.5358
▁goddess	-10.5358
▁indices	-10.5358
▁micro	-10.5358
ह	-10.5358
▁anoint	-10.5358
▁manufactur	-10.5358
▁quality	-10.5358
▁secret	-10.5358
▁shift	-10.5358
▁task	-10.5358
▁Bhagwa	-10.5358
▁lawyers	-10.5358
▁scan	-10.5358
▁Pvt	-10.5358
▁Sinha	-10.5358
▁Xfig	-10.5358
▁yield	-10.5358
▁Quiz	-10.5358
▁preced	-10.5358
▁restaurant	-10.5358
▁Silas	-10.5358
▁dragging	-10.5358
▁IITB	-10.5358
▁complex	-10.5358
▁entries	-10.5358
▁sanctified	-10.5358
▁introduce	-10.5358
▁quantity	-10.5358
▁Clone	-10.5358
▁captain	-10.5359
▁relation	-10.5359
▁gradually	-10.5359
▁modification	-10.5359
▁laptop	-10.5359
▁forehead	-10.5359
▁charioteer	-10.5359
PID	-10.5359
▁economy	-10.5359
▁private	-10.5359
▁_____	-10.5359
▁hurt	-10.5359
▁inode	-10.5359
▁delight	-10.5359
▁Yagya	-10.5359
ANS	-10.5359
▁Nitrogen	-10.5359
▁recommended	-10.5359
▁incarnation	-10.5359
▁excretion	-10.5359
▁saree	-10.5359
▁Preview	-10.5359
▁godliness	-10.5359
xml	-10.5359
▁industries	-10.5359
▁Launcher	-10.5359
▁attributes	-10.5359
▁Satan	-10.5359
jane	-10.5359
▁polit	-10.536
MIN	-10.536
not	-10.536
▁consciousness	-10.536
▁meditation	-10.536
yond	-10.536
▁something	-10.536
▁wealth	-10.536
▁counsel	-10.536
▁prophesy	-10.536
▁victory	-10.536
avy	-10.536
▁dirty	-10.536
zip	-10.5361
▁respirat	-10.5361
▁Bhim	-10.5361
▁alignment	-10.5361
▁authority	-10.5361
egular	-10.5361
▁acid	-10.5361
▁active	-10.5361
▁market	-10.5361
dot	-10.5361
▁easier	-10.5361
▁retain	-10.5361
▁production	-10.5361
▁Centre	-10.5362
▁guru	-10.5362
▁management	-10.5362
▁cool	-10.5362
▁Space	-10.5362
▁weapon	-10.5362
▁fool	-10.5362
▁rose	-10.5362
▁publican	-10.5362
▁Alt	-10.5362
▁enable	-10.5362
▁Bharat	-10.5362
▁Installation	-10.5363
▁grant	-10.5363
▁armies	-10.5363
▁err	-10.5363
▁launcher	-10.5363
▁interest	-10.5363
Basic	-10.5363
▁fishes	-10.5363
▁religion	-10.5364
▁unbelief	-10.5364
▁property	-10.5364
▁asleep	-10.5364
▁Tree	-10.5364
▁Standard	-10.5364
▁Suktam	-10.5364
▁modifier	-10.5365
uel	-10.5365
▁science	-10.5365
▁skip	-10.5365
▁subclass	-10.5365
▁Cook	-10.5365
▁moment	-10.5365
▁license	-10.5366
▁illustrate	-10.5366
▁sheet	-10.5366
▁dna	-10.5367
▁agriculture	-10.5367
▁marvell	-10.5368
▁token	-10.5368
▁Bharata	-10.5369
▁insom	-10.5369
▁manager	-10.5369
▁dragon	-10.537
▁ensure	-10.5371
▁formatting	-10.5371
▁Label	-10.5371
▁geeta	-10.5371
▁Philip	-10.5371
▁Arrow	-10.5371
▁Raju	-10.5371
▁fungi	-10.5371
▁plug	-10.5371
▁mudra	-10.5371
▁representation	-10.5371
▁peacock	-10.5371
▁colon	-10.5371
▁cowshed	-10.5371
▁sutra	-10.5371
▁Host	-10.5372
▁Children	-10.5373
▁sixth	-10.5374
▁chin	-10.5375
▁conc	-10.5375
▁Date	-10.5375
ze	-10.5376
▁dust	-10.5377
▁Dra	-10.5377
▁larger	-10.5378
▁Customer	-10.5378
▁avoid	-10.5378
liness	-10.538
▁maid	-10.5381
▁Hydrogens	-10.5381
▁Shlokas	-10.5381
▁partakers	-10.5381
▁nerves	-10.5381
▁vibrations	-10.5381
▁directed	-10.5381
▁positi	-10.5382
▁lid	-10.5383
▁constitut	-10.5383
▁sell	-10.5383
▁risen	-10.5384
▁sick	-10.5384
SE	-10.5384
▁Folder	-10.5384
▁grain	-10.5385
▁opt	-10.5385
▁submit	-10.5386
utput	-10.5389
▁weep	-10.5389
▁End	-10.539
▁6.	-10.5392
▁Balance	-10.5392
▁Likewise	-10.5393
▁Great	-10.5394
▁copies	-10.5395
▁leaven	-10.5399
uplicate	-10.5401
▁tenth	-10.5402
▁lion	-10.5405
▁000	-10.5405
istics	-10.5406
▁Rela	-10.5406
▁War	-10.5408
▁CD	-10.5408
▁pest	-10.5411
▁overloading	-10.5411
▁foundation	-10.5413
▁younger	-10.5413
▁idea	-10.5414
▁clockwise	-10.5414
▁Karma	-10.5414
▁render	-10.5414
▁eateth	-10.5416
▁Mark	-10.5417
▁properly	-10.5418
▁neg	-10.5418
iled	-10.542
▁Preferences	-10.5421
▁habits	-10.5421
ians	-10.5421
▁expel	-10.5422
▁organize	-10.5424
▁arrange	-10.5425
▁ahead	-10.5425
▁adopt	-10.5425
▁%	-10.5427
▁comforted	-10.5427
▁Table	-10.5432
▁receiveth	-10.5434
▁reader	-10.5434
▁cin	-10.5436
▁collected	-10.5436
▁Remember	-10.5437
▁Rest	-10.544
▁tak	-10.5441
▁rm	-10.5444
▁customer	-10.545
▁communicat	-10.5455
▁wear	-10.5458
▁horses	-10.5461
▁manifested	-10.5468
▁com	-10.547
▁Ani	-10.5473
ously	-10.5477
▁Sta	-10.5483
▁ago	-10.5492
▁numer	-10.5493
ita	-10.5495
▁clothe	-10.5496
▁ste	-10.5498
▁owner	-10.5501
▁Yogis	-10.5501
▁salts	-10.5502
▁thumbs	-10.5502
▁instructions	-10.5502
▁Puru	-10.5502
▁wonders	-10.5503
▁tribes	-10.5508
▁tend	-10.5509
▁builder	-10.5509
▁suffering	-10.5513
▁foregroun	-10.5524
aid	-10.5526
▁im	-10.5537
▁edges	-10.5544
▁leader	-10.5545
ram	-10.5546
▁singer	-10.5548
▁Com	-10.555
▁deleted	-10.5551
Initial	-10.5565
▁atoms	-10.5583
▁sisters	-10.5585
▁exists	-10.5585
▁pen	-10.5585
▁throws	-10.5586
dung	-10.5596
▁Well	-10.5601
table	-10.563
▁fertilizer	-10.563
▁pointer	-10.5641
ning	-10.5662
▁purposes	-10.5668
▁chapters	-10.5668
▁Practices	-10.5669
ani	-10.5676
ane	-10.5686
▁abs	-10.5696
▁cos	-10.5699
gs	-10.5699
Bean	-10.571
▁parables	-10.571
▁worlds	-10.5711
ner	-10.5715
▁hung	-10.572
tion	-10.5727
Yea	-10.5733
rac	-10.5747
gre	-10.5751
▁stays	-10.5751
Yes	-10.5752
▁dog	-10.576
3.	-10.5765
▁differences	-10.5765
▁continu	-10.5775
▁chariots	-10.5794
use	-10.5808
▁seem	-10.5827
▁goal	-10.5828
▁late	-10.5838
ma	-10.5854
▁decrease	-10.586
▁dances	-10.5873
▁roots	-10.5879
▁Users	-10.588
▁listed	-10.5889
▁y	-10.5903
Ex	-10.5916
▁curves	-10.5919
hee	-10.5925
▁net	-10.5926
▁May	-10.5927
▁needed	-10.5927
▁commandments	-10.5933
▁sha	-10.5939
▁squares	-10.5964
▁forg	-10.5965
▁thoughts	-10.6007
▁drinks	-10.6012
▁forwards	-10.6039
far	-10.6059
ony	-10.6061
?""	-10.6106
▁Tu	-10.6113
▁yea	-10.6119
▁contra	-10.6128
rought	-10.6129
ruly	-10.6152
cre	-10.6176
urge	-10.6183
▁9.	-10.6195
ups	-10.6197
pra	-10.621
▁levels	-10.6225
▁thinking	-10.6237
rise	-10.6253
▁documents	-10.6269
formed	-10.6269
ants	-10.6273
aja	-10.6275
▁!	-10.628
ira	-10.6322
ND	-10.6322
ned	-10.6341
▁checking	-10.6354
▁corners	-10.6358
▁measure	-10.6363
OM	-10.6365
den	-10.6366
▁kit	-10.6367
RO	-10.6383
▁Art	-10.6391
▁consol	-10.6395
▁25	-10.6396
▁evening	-10.6423
N	-10.6476
ological	-10.6478
▁var	-10.6484
U	-10.6488
ught	-10.6491
NG	-10.6508
hand	-10.651
ab	-10.6538
▁ho	-10.6539
▁gra	-10.6559
▁devo	-10.6584
sty	-10.6585
▁str	-10.66
TER	-10.6609
▁Non	-10.6626
dius	-10.6629
▁35	-10.6631
▁"(	-10.6679
ground	-10.67
▁gathere	-10.6701
les	-10.6726
▁sta	-10.6728
▁achieve	-10.6773
ail	-10.6792
my	-10.68
▁carrie	-10.6817
cout	-10.6818
▁disp	-10.6829
yo	-10.6867
vel	-10.6871
▁mean	-10.6907
न	-10.6924
nas	-10.6941
▁cases	-10.6949
ct	-10.6998
ron	-10.7004
▁inward	-10.7045
ray	-10.7047
▁tr	-10.7053
ore	-10.709
▁eats	-10.7096
standing	-10.7109
▁21	-10.7177
rya	-10.7185
tify	-10.719
▁fit	-10.7192
▁Br	-10.7209
har	-10.7245
van	-10.7246
▁goods	-10.7261
dhya	-10.7281
gat	-10.7287
▁std	-10.7305
fficient	-10.7321
▁Le	-10.7321
▁wash	-10.7337
1)	-10.7359
spect	-10.7366
spir	-10.7369
▁Pre	-10.7383
THI	-10.7411
lo	-10.7424
▁struct	-10.7449
ough	-10.7452
fix	-10.7495
▁300	-10.7508
▁commander	-10.751
▁arrays	-10.752
▁anti	-10.7537
lay	-10.7549
▁Y	-10.756
rel	-10.7563
vas	-10.7589
ural	-10.7589
our	-10.7613
ized	-10.7617
tam	-10.7622
lon	-10.763
▁wonder	-10.7631
ack	-10.7632
ung	-10.7641
▁toolbar	-10.7643
ree	-10.7644
▁sword	-10.7645
▁price	-10.7645
▁bride	-10.7645
▁stick	-10.7647
ruits	-10.7656
illa	-10.7658
sm	-10.7661
▁Dialog	-10.7663
▁bag	-10.7663
▁shortcut	-10.7664
▁coat	-10.7667
eness	-10.7672
▁planet	-10.7675
▁thumb	-10.7677
▁instruction	-10.7679
▁cloud	-10.768
▁nutrient	-10.768
▁salt	-10.7682
size	-10.7684
▁apostle	-10.7685
▁sense	-10.7687
▁expression	-10.7688
▁specif	-10.7688
▁game	-10.7689
▁scripture	-10.7691
▁---	-10.7695
=	-10.7703
▁tribe	-10.7712
▁Yogi	-10.7722
▁issue	-10.773
ried	-10.7732
roll	-10.7732
▁commun	-10.7736
▁setting	-10.7741
▁overload	-10.7743
bb	-10.7745
nswer	-10.7749
lean	-10.7749
ccording	-10.775
Exception	-10.7751
Servlet	-10.7751
titled	-10.7753
int	-10.7754
MM	-10.7755
Author	-10.7756
Remember	-10.7759
eaning	-10.7759
dimension	-10.776
jsp	-10.7761
Bank	-10.7763
Look	-10.7764
posture	-10.7765
▁execut	-10.7765
time	-10.7765
Employee	-10.7765
Keep	-10.7767
Paul	-10.7767
With	-10.7767
elements	-10.7767
power	-10.7768
Pranayama	-10.7768
number	-10.7768
after	-10.7768
contact	-10.7768
Welcome	-10.7769
book	-10.7769
back	-10.7769
menu	-10.7771
▁Mis	-10.7772
flow	-10.7775
awk	-10.7775
Sum	-10.7775
law	-10.7776
▁31	-10.7777
output	-10.7779
Every	-10.778
address	-10.778
His	-10.7783
tree	-10.7785
Here	-10.7786
▁wander	-10.7786
though	-10.7788
night	-10.779
▁fee	-10.7791
▁sud	-10.7792
place	-10.7794
anta	-10.7797
▁aspect	-10.7798
▁act	-10.7799
▁condemn	-10.7805
dit	-10.7807
▁torment	-10.7811
▁80	-10.7813
▁cry	-10.7818
▁register	-10.7819
▁writ	-10.782
▁forgiven	-10.7824
ook	-10.7825
▁scrip	-10.7826
▁mention	-10.7827
like	-10.7831
▁agree	-10.7832
lcome	-10.7833
▁comfortabl	-10.7834
itor	-10.7835
hrough	-10.7836
Books	-10.7838
▁brief	-10.7842
egrees	-10.7842
▁cla	-10.7844
▁Fold	-10.7846
aught	-10.7846
oldiers	-10.7847
ranayama	-10.7851
▁religio	-10.7852
lood	-10.7854
▁occ	-10.7855
rystal	-10.7855
▁Brush	-10.7856
ittle	-10.7856
hink	-10.7857
▁inherit	-10.7857
ip	-10.7857
bhu	-10.7857
▁State	-10.7857
▁foolish	-10.7858
▁hundred	-10.7858
▁verif	-10.7858
▁fulfil	-10.7858
{	-10.7858
▁वि	-10.7858
/2017-10	-10.7858
39.50	-10.7858
ISBN	-10.7858
JE	-10.7858
YYYY	-10.7858
diamond	-10.7858
▁Apply	-10.7858
▁Arguments	-10.7858
▁Baptist	-10.7858
▁Distribute	-10.7858
▁Example	-10.7858
▁Extensions	-10.7858
▁Framework	-10.7858
▁Ganesha	-10.7858
▁ISSN	-10.7858
▁Jiva	-10.7858
▁Lakshmana	-10.7858
▁Laodicea	-10.7858
▁Microbiology	-10.7858
▁Nazareth	-10.7858
▁Question	-10.7858
▁Second	-10.7858
▁Snake	-10.7858
▁Structure	-10.7858
▁abroad	-10.7858
▁accompan	-10.7858
▁astronom	-10.7858
▁blasphem	-10.7858
▁boast	-10.7858
▁clutter	-10.7858
▁configuration	-10.7858
▁cycle	-10.7858
▁displayMessage	-10.7858
▁dominion	-10.7858
▁drank	-10.7858
▁dream	-10.7858
▁earthquake	-10.7858
▁engage	-10.7858
▁envy	-10.7858
▁epistle	-10.7858
▁errorfree	-10.7858
▁exhort	-10.7858
▁frequently	-10.7858
▁glimpse	-10.7858
▁glorious	-10.7858
▁happy	-10.7858
▁harvest	-10.7858
▁hermitage	-10.7858
▁instrument	-10.7858
▁jitter	-10.7858
▁jogging	-10.7858
▁liquid	-10.7858
▁longsuffering	-10.7858
▁mourn	-10.7858
▁neighbour	-10.7858
▁polygon	-10.7858
▁prerequisite	-10.7858
▁redemption	-10.7858
▁revelation	-10.7858
▁segment	-10.7858
▁silver	-10.7858
▁sincerity	-10.7858
▁uproar	-10.7858
▁vineyard	-10.7858
▁wrong	-10.7858
▁बाल	-10.7858
Applet	-10.7858
gnuhata	-10.7858
▁Bhishma	-10.7858
▁Isaac	-10.7858
▁Karna	-10.7858
▁Scatter	-10.7858
▁Surname	-10.7858
▁archery	-10.7858
▁braces	-10.7858
▁competition	-10.7858
▁conscience	-10.7858
▁damnation	-10.7858
▁decrement	-10.7858
▁immense	-10.7858
▁jungle	-10.7858
▁ocean	-10.7858
▁pelvi	-10.7858
▁roam	-10.7858
▁split	-10.7858
▁testify	-10.7858
hood	-10.7858
mrk	-10.7858
▁5.6.30	-10.7858
▁Sidon	-10.7858
▁conceive	-10.7858
▁expert	-10.7858
▁flame	-10.7858
▁flexibility	-10.7858
▁meditate	-10.7858
▁mystery	-10.7858
▁naked	-10.7858
▁snake	-10.7858
▁restrain	-10.7858
▁skull	-10.7858
▁Greet	-10.7858
▁leaving	-10.7858
▁statistic	-10.7858
▁Advance	-10.7858
▁Hue	-10.7858
▁attack	-10.7858
▁Current	-10.7858
▁ninth	-10.7858
▁Tyre	-10.7858
▁minor	-10.7858
▁anchor	-10.7858
▁spoil	-10.7858
▁Ardha	-10.7858
▁Sister	-10.7858
▁adversary	-10.7858
▁enlist	-10.7858
gimp	-10.7858
▁Bhujangasana	-10.7858
▁Devotee	-10.7858
▁filth	-10.7858
▁Medha	-10.7858
▁configure	-10.7858
consistenc	-10.7858
phor	-10.7858
▁angry	-10.7858
▁calf	-10.7858
▁shortened	-10.7858
▁Description	-10.7858
▁Message	-10.7859
▁browsing	-10.7859
▁lamp	-10.7859
▁tele	-10.7859
▁Kaivalya	-10.7859
svg	-10.7859
▁subcategory	-10.7859
bliss	-10.7859
▁Good	-10.7859
▁stamp	-10.7859
▁transfer	-10.7859
▁distinct	-10.7859
▁flee	-10.7859
▁Differen	-10.7859
▁dhritarashtra	-10.7859
▁Rule	-10.7859
▁auto	-10.7859
▁infirmities	-10.7859
▁context	-10.7859
▁Monday	-10.7859
▁ladies	-10.7859
▁Janaka	-10.7859
▁brilliance	-10.7859
▁Padmasana	-10.7859
▁parenthesis	-10.7859
▁Amazon	-10.7859
▁Martha	-10.7859
▁centurion	-10.7859
▁enemies	-10.7859
▁Kruta	-10.7859
▁horizon	-10.7859
▁Muk	-10.7859
▁strike	-10.7859
▁wives	-10.7859
▁Mode	-10.7859
▁strangers	-10.7859
▁-----	-10.7859
▁260	-10.7859
▁breakpoint	-10.7859
▁interact	-10.7859
▁subtraction	-10.7859
▁sunlight	-10.7859
▁disobedient	-10.7859
▁patient	-10.7859
▁precious	-10.7859
▁tribulation	-10.7859
▁emp	-10.7859
▁absent	-10.7859
▁lake	-10.7859
▁2019	-10.7859
▁Qu	-10.7859
cal	-10.786
▁happiness	-10.786
NAME	-10.786
▁poet	-10.786
▁bank	-10.786
▁Rabb	-10.786
▁70	-10.786
▁Categories	-10.786
▁consist	-10.786
▁altar	-10.786
▁surname	-10.786
▁marry	-10.786
▁Sarva	-10.786
▁thick	-10.786
sequent	-10.786
▁calculation	-10.786
ulses	-10.786
▁scar	-10.786
▁kindred	-10.786
▁fragment	-10.786
▁serpent	-10.786
▁resolve	-10.786
▁uncleanness	-10.786
▁homepage	-10.786
▁Like	-10.786
▁basket	-10.7861
▁Elias	-10.7861
▁grand	-10.7861
▁Connection	-10.7861
▁lack	-10.7861
▁latex	-10.7861
▁activate	-10.7861
▁orgname	-10.7861
▁fame	-10.7861
▁salutation	-10.7861
▁approach	-10.7861
▁Currency	-10.7861
▁geometry	-10.7861
▁sinned	-10.7861
▁wound	-10.7861
gress	-10.7861
onour	-10.7861
▁creep	-10.7862
style	-10.7862
▁debt	-10.7862
▁fair	-10.7862
etch	-10.7862
▁grass	-10.7862
▁crystal	-10.7862
▁bigger	-10.7862
▁dip	-10.7862
▁network	-10.7862
▁dancers	-10.7862
▁confirm	-10.7862
▁proxy	-10.7862
xls	-10.7862
▁abc	-10.7862
▁firstfruit	-10.7863
▁strand	-10.7863
▁Divine	-10.7863
▁girdle	-10.7863
▁island	-10.7863
▁flood	-10.7863
uary	-10.7863
▁cub	-10.7863
▁Grou	-10.7864
ppa	-10.7864
▁specifier	-10.7864
▁suit	-10.7864
▁passover	-10.7864
▁null	-10.7864
▁revision	-10.7864
▁Sky	-10.7864
▁verse	-10.7864
lpha	-10.7864
▁nice	-10.7865
▁Brushes	-10.7865
▁education	-10.7865
▁temptation	-10.7865
▁mace	-10.7866
▁iniquity	-10.7866
▁drunken	-10.7866
rganisation	-10.7866
▁wave	-10.7866
rishi	-10.7866
▁pour	-10.7866
▁plugin	-10.7867
▁slightly	-10.7867
ENE	-10.7867
▁pick	-10.7867
▁mass	-10.7867
▁score	-10.7868
▁compos	-10.7868
▁drain	-10.7868
▁Desi	-10.7869
▁nine	-10.7869
▁Ego	-10.7869
\_	-10.7869
▁Cataloging	-10.7869
▁Eli	-10.787
▁hit	-10.787
▁CON	-10.787
▁hill	-10.7871
▁Pani	-10.7871
▁doctor	-10.7872
▁steal	-10.7874
▁dec	-10.7874
▁officer	-10.7874
▁tight	-10.7874
▁resist	-10.7874
▁Human	-10.7875
▁afraid	-10.7875
▁krishna	-10.7875
▁Akash	-10.7875
▁enumerate	-10.7875
▁imbalance	-10.7875
▁Issue	-10.7875
▁Complete	-10.7875
▁Fire	-10.7875
▁Ltd	-10.7875
▁odd	-10.7875
▁percentage	-10.7875
▁photosynthesis	-10.7875
▁briefly	-10.7875
alue	-10.7875
iscal	-10.7876
scribed	-10.7876
▁fish	-10.7876
▁Ramu	-10.7876
▁recall	-10.7876
▁Follow	-10.7876
▁Forum	-10.7876
▁strange	-10.7877
▁assembled	-10.7877
▁rever	-10.7877
▁rejected	-10.7877
▁narrate	-10.7877
▁instructed	-10.7878
▁Supta	-10.7878
कर	-10.7878
▁axe	-10.7878
sive	-10.7878
▁clay	-10.7879
▁attendance	-10.7879
▁dear	-10.7879
▁bought	-10.788
▁Him	-10.7882
▁Printer	-10.7882
▁duration	-10.7882
▁rent	-10.7883
▁highest	-10.7883
ula	-10.7883
▁anywhere	-10.7884
1.1.	-10.7885
▁Clean	-10.7885
▁clu	-10.7885
iction	-10.7885
▁cleansing	-10.7885
▁Monkey	-10.7885
▁fat	-10.7887
▁Charak	-10.7888
▁outwards	-10.7888
▁subchapters	-10.7888
▁preferr	-10.789
▁practicing	-10.789
▁13	-10.789
▁dropdown	-10.7892
▁perfection	-10.7893
▁debugg	-10.7895
▁lost	-10.7895
▁troubled	-10.7895
▁exit	-10.7896
▁Sha	-10.7896
▁passive	-10.79
▁Relax	-10.7901
organisms	-10.7902
▁cod	-10.7903
▁Preetam	-10.7903
▁Rebecca	-10.7903
▁[1]	-10.7903
▁wood	-10.7903
▁maths	-10.7904
anjaya	-10.7906
▁fallen	-10.7907
▁blast	-10.7909
▁avoided	-10.7913
▁OB	-10.7914
▁filename	-10.7918
▁limite	-10.7921
▁shortly	-10.7922
ocked	-10.7922
▁office	-10.7924
▁Did	-10.7925
▁tempted	-10.7925
▁Hex	-10.7927
▁void	-10.7928
▁crying	-10.7928
▁rotated	-10.7928
▁sup	-10.7931
▁भ	-10.7932
Amount	-10.7933
▁newline	-10.7934
Subject	-10.7934
▁findeth	-10.7936
▁spring	-10.7937
▁Dep	-10.7937
▁reversed	-10.7937
▁incremented	-10.7937
▁seventh	-10.7937
▁Sutras	-10.794
▁Fields	-10.794
▁Greeks	-10.794
▁warriors	-10.794
▁Sirs	-10.7941
▁thereof	-10.7942
▁steam	-10.7942
▁Areas	-10.7944
▁Enrol	-10.7944
▁perceive	-10.7944
▁normally	-10.7946
▁tooth	-10.7946
▁liveth	-10.7951
amil	-10.7952
▁happened	-10.7955
▁Author	-10.7963
▁expected	-10.7963
▁Air	-10.7963
▁blessing	-10.7964
▁Prot	-10.7968
▁bin	-10.7974
▁eaten	-10.7978
ination	-10.7981
▁healing	-10.7986
▁Documents	-10.7994
opies	-10.7994
▁cooks	-10.7995
nu	-10.7997
estic	-10.7997
▁shines	-10.7998
nan	-10.7999
▁sayest	-10.8001
▁aside	-10.8007
▁hiding	-10.8009
br	-10.8011
▁exten	-10.8013
▁Plants	-10.8015
▁Data	-10.8022
▁Intro	-10.8022
▁chanting	-10.8028
coming	-10.8032
▁Hol	-10.8033
▁reached	-10.8036
▁Not	-10.8039
▁aspects	-10.8048
▁games	-10.8048
▁planets	-10.8048
▁Whom	-10.8052
▁dh	-10.8056
▁refuse	-10.806
▁issues	-10.8064
▁bending	-10.8073
▁vision	-10.808
▁contract	-10.808
▁bu	-10.8083
▁played	-10.8083
asteri	-10.8086
▁7.0.	-10.81
▁Layers	-10.8103
chi	-10.8105
▁proceeding	-10.8108
bed	-10.8114
avour	-10.8115
formation	-10.8126
pause	-10.8126
▁treat	-10.8131
▁heavenly	-10.8133
cted	-10.8133
0.1	-10.8141
krut	-10.8141
▁lean	-10.8151
▁क	-10.8152
र	-10.8154
▁la	-10.8156
▁Actions	-10.8158
app	-10.8158
▁rulers	-10.8158
quir	-10.8163
▁originate	-10.8171
ards	-10.819
▁goeth	-10.8196
izard	-10.8205
ande	-10.8206
▁visited	-10.8208
▁Swa	-10.8211
▁sentences	-10.8213
▁husbands	-10.8213
▁loos	-10.8216
▁Nas	-10.8221
▁event	-10.8242
ause	-10.8248
▁Gan	-10.8251
vital	-10.8251
ev	-10.8254
▁frames	-10.8267
▁cells	-10.8268
▁figures	-10.8268
itting	-10.8271
▁remembering	-10.8272
▁Jam	-10.8286
▁appearing	-10.8319
▁stems	-10.8325
ren	-10.833
▁prayers	-10.8335
ace	-10.8339
onfirm	-10.8342
ava	-10.8345
▁greatly	-10.8345
▁Form	-10.8356
ingers	-10.8372
ric	-10.8376
▁dwells	-10.8379
su	-10.8379
▁pa	-10.8399
▁asking	-10.8418
▁funds	-10.8435
▁quote	-10.8449
ple	-10.8453
▁calling	-10.8475
▁Vid	-10.8492
▁alphabets	-10.8494
▁Kan	-10.8551
osha	-10.8554
SL	-10.8564
▁op	-10.8583
ackground	-10.8586
▁comments	-10.8608
ool	-10.8611
▁sens	-10.8627
▁warm	-10.864
▁arrows	-10.8665
▁hat	-10.8668
ott	-10.8677
stus	-10.8687
▁complet	-10.8692
▁camel	-10.8694
▁enters	-10.8703
▁titles	-10.8726
ub	-10.8737
▁deriv	-10.8746
▁bows	-10.8777
▁gu	-10.8791
▁card	-10.8794
▁li	-10.8807
nta	-10.8841
ges	-10.8864
▁begins	-10.89
▁Gol	-10.891
owed	-10.8936
▁meal	-10.8945
▁Books	-10.8957
▁blanks	-10.8958
▁nights	-10.8958
▁wi	-10.8973
▁Amar	-10.9014
ightness	-10.9018
Li	-10.9023
▁low	-10.9065
्वा	-10.9065
▁Fe	-10.9072
rd	-10.9102
▁II	-10.9103
▁abide	-10.9106
▁spr	-10.9111
rm	-10.9124
zi	-10.9132
▁putt	-10.9155
itive	-10.9159
hir	-10.9177
aken	-10.9186
▁carri	-10.9194
comes	-10.9214
▁Bh	-10.9227
▁Tutorials	-10.9234
▁circles	-10.9258
▁interfaces	-10.9258
lling	-10.9268
file	-10.9281
▁sad	-10.9295
hara	-10.932
ries	-10.9334
.............	-10.9339
4-	-10.9365
Su	-10.9368
cut	-10.9407
▁divers	-10.9408
▁rid	-10.9426
▁Perform	-10.9428
%	-10.9442
▁radi	-10.9459
arms	-10.9476
gar	-10.9483
otation	-10.9492
▁member	-10.953
ath	-10.9579
▁promot	-10.9588
wa	-10.96
▁beg	-10.9602
▁ending	-10.9618
▁links	-10.9629
[	-10.963
▁orders	-10.963
ala	-10.9638
▁Tr	-10.9654
▁suppos	-10.9664
▁Bha	-10.9708
▁initializ	-10.9716
scribe	-10.9717
▁Mar	-10.9726
ctor	-10.9727
▁cultur	-10.9734
emon	-10.9735
▁Var	-10.9747
▁cha	-10.9781
▁applications	-10.9784
ber	-10.98
SS	-10.9812
▁Dar	-10.9828
▁programs	-10.9831
▁def	-10.9844
▁trac	-10.9857
fic	-10.9874
Pop	-10.9909
▁Hear	-10.993
other	-10.9944
therwise	-10.9972
atma	-11.0004
▁treasures	-11.0008
▁tables	-11.0024
▁bi	-11.0032
▁caret	-11.0039
ius	-11.0046
▁Light	-11.0061
IC	-11.0082
allowed	-11.0097
pati	-11.0112
▁derive	-11.0138
board	-11.0143
Mo	-11.0146
tation	-11.0147
▁validat	-11.0154
xpiration	-11.0162
▁idol	-11.0182
ali	-11.0203
2)	-11.0252
art	-11.0283
▁sw	-11.0284
uddenly	-11.0292
▁merge	-11.0297
hakti	-11.0307
structor	-11.0325
AR	-11.0338
▁pi	-11.0346
▁ju	-11.0361
vat	-11.0379
IV	-11.0395
▁Ar	-11.0406
▁danc	-11.0422
ु	-11.0467
...........	-11.0478
▁tu	-11.0483
rus	-11.05
▁yog	-11.0519
▁wo	-11.0532
atri	-11.0539
▁da	-11.0542
gu	-11.0545
reated	-11.0549
iya	-11.0592
▁decorat	-11.0602
tally	-11.0624
▁eight	-11.0636
1”.	-11.0652
▁gene	-11.0716
Cl	-11.0728
ffice	-11.0734
tiles	-11.0744
▁scienti	-11.0757
0%	-11.0767
ved	-11.0772
mate	-11.0806
nce	-11.0816
▁unsp	-11.0822
▁Ag	-11.083
unt	-11.0831
under	-11.084
ily	-11.0861
nty	-11.0875
User	-11.0888
▁cook	-11.0909
organism	-11.0911
▁par	-11.0914
code	-11.0915
mail	-11.0918
ession	-11.0919
▁transform	-11.0927
20	-11.0928
▁ex	-11.0931
▁miss	-11.0934
mant	-11.0936
read	-11.0936
▁ve	-11.0936
▁Ram	-11.095
▁mis	-11.0954
▁doesn	-11.096
ulti	-11.0962
▁bab	-11.0967
▁Variable	-11.0976
▁Raga	-11.0977
▁creature	-11.0977
self	-11.098
▁benefit	-11.0981
▁Sheet	-11.0982
head	-11.0985
▁car	-11.099
ately	-11.0991
pacity	-11.0992
▁discussion	-11.0995
▁vessel	-11.0997
▁skill	-11.0997
▁Nadi	-11.0998
▁affliction	-11.0998
▁Document	-11.1006
pping	-11.1011
▁horse	-11.1011
▁girl	-11.1014
▁Array	-11.1014
▁Kriya	-11.1021
▁buttock	-11.1022
▁lung	-11.1026
dge	-11.1027
▁sometime	-11.103
▁objective	-11.1034
val	-11.1038
▁shine	-11.1038
▁product	-11.104
tensi	-11.1047
ppearance	-11.106
ratio	-11.106
$	-11.1073
▁exp	-11.1074
▁perceiv	-11.1074
rrange	-11.1074
dopt	-11.1075
key	-11.1077
igned	-11.1077
agar	-11.1078
▁medicine	-11.1079
q	-11.1081
fold	-11.1083
▁stor	-11.1084
vailable	-11.1084
&	-11.1086
▁thank	-11.1087
LE	-11.1089
भ	-11.1089
Dep	-11.109
Plants	-11.109
expected	-11.109
wk	-11.109
bout	-11.1091
render	-11.1092
Karma	-11.1092
aram	-11.1093
clockwise	-11.1093
Mark	-11.1094
Sample	-11.1096
office	-11.1096
Pilate	-11.1096
dioxide	-11.1098
development	-11.1098
harmful	-11.1098
bul	-11.1098
human	-11.1099
Display	-11.1099
Gita	-11.1099
Breathing	-11.11
Text	-11.11
block	-11.11
static	-11.11
bracket	-11.11
Close	-11.11
milk	-11.1101
Java	-11.1101
execute	-11.1101
system	-11.1101
default	-11.1102
life	-11.1102
Enter	-11.1102
food	-11.1102
ounded	-11.1104
New	-11.1105
room	-11.1106
pass	-11.1106
Item	-11.1107
want	-11.1108
mother	-11.1108
ES	-11.1109
▁jump	-11.1113
ok	-11.1114
equal	-11.1115
▁127	-11.1115
about	-11.1116
unto	-11.1116
much	-11.1116
xplorer	-11.1116
Hence	-11.1117
object	-11.1119
mped	-11.1119
page	-11.1122
▁declar	-11.1125
▁comm	-11.1126
through	-11.1126
▁bury	-11.1127
▁direct	-11.1129
print	-11.1136
▁Record	-11.1136
will	-11.1138
▁enroll	-11.1141
open	-11.1141
▁climb	-11.1143
▁determin	-11.1144
▁connect	-11.1146
▁disappear	-11.1147
▁expect	-11.115
▁assign	-11.115
war	-11.1155
unds	-11.116
▁embed	-11.1161
▁acquire	-11.1162
cienc	-11.1164
▁Univers	-11.1164
ducts	-11.1166
emed	-11.1173
▁sew	-11.1173
▁employ	-11.1174
CT	-11.1174
▁Star	-11.1175
▁interpret	-11.1177
▁thir	-11.1177
loka	-11.1179
▁boo	-11.1179
▁di	-11.1179
▁spin	-11.118
▁Exp	-11.118
ubclass	-11.118
▁successful	-11.1181
yntax	-11.1181
▁drunk	-11.1181
ular	-11.1181
ndex	-11.1182
▁equ	-11.1183
▁launch	-11.1183
▁illustr	-11.1183
urchase	-11.1184
asket	-11.1185
sented	-11.1186
▁gird	-11.1186
ii	-11.1186
▁express	-11.1186
▁navigat	-11.1186
RG	-11.1187
volutes	-11.1187
Dur	-11.1187
con	-11.1187
▁Except	-11.1187
▁Fol	-11.1188
andatory	-11.1188
OSS	-11.1188
llipse	-11.1189
▁gentle	-11.1189
enefits	-11.1189
rethren	-11.1189
▁conscious	-11.1189
▁Categor	-11.119
ttribute	-11.119
rums	-11.119
▁forbear	-11.119
urukshetra	-11.119
ptimize	-11.119
lightly	-11.1191
ृत	-11.1191
itrogen	-11.1191
orizon	-11.1191
▁unclean	-11.1191
olour	-11.1191
▁shake	-11.1191
▁thro	-11.1191
rison	-11.1191
pendi	-11.1191
▁meditati	-11.1191
yahoo	-11.1192
▁Engine	-11.1192
▁Micro	-11.1192
▁Setubandh	-11.1192
Yahoo	-11.1192
apolis	-11.1192
architect	-11.1192
bhru	-11.1192
equestDispatcher	-11.1192
hemistry	-11.1192
obedience	-11.1192
ployment	-11.1192
response	-11.1192
revolution	-11.1192
testScore	-11.1192
turtle	-11.1192
uloma	-11.1192
ynamics	-11.1192
ठ	-11.1192
▁14.04	-11.1192
▁5,00,000	-11.1192
▁Access	-11.1192
▁BufferedReader	-11.1192
▁Capernaum	-11.1192
▁Correct	-11.1192
▁Dhyana	-11.1192
▁Dritarashtra	-11.1192
▁Elbow	-11.1192
▁Ephesus	-11.1192
▁Esaias	-11.1192
▁Felix	-11.1192
▁Friday	-11.1192
▁Highest	-11.1192
▁Identify	-11.1192
▁Interface	-11.1192
▁Jordan	-11.1192
▁Kusha	-11.1192
▁Language	-11.1192
▁Lystra	-11.1192
▁Mahabharata	-11.1192
▁Maximum	-11.1192
▁Perspective	-11.1192
▁Pradesh	-11.1192
▁Principal	-11.1192
▁Romans	-11.1192
▁SHAKT	-11.1192
▁SOURCE	-11.1192
▁Scrap	-11.1192
▁Shatrugh	-11.1192
▁Sidebar	-11.1192
▁Solomon	-11.1192
▁Tapas	-11.1192
▁Toolbar	-11.1192
▁VIKASAKA	-11.1192
▁Warrior	-11.1192
▁Zebedee	-11.1192
▁aloud	-11.1192
▁applied	-11.1192
▁auspicious	-11.1192
▁behavior	-11.1192
▁blameless	-11.1192
▁blog	-11.1192
▁century	-11.1192
▁citizen	-11.1192
▁coordination	-11.1192
▁council	-11.1192
▁craftiness	-11.1192
▁damsel	-11.1192
▁dissolved	-11.1192
▁distribute	-11.1192
▁disturb	-11.1192
▁eloquent	-11.1192
▁enemy	-11.1192
▁equivalent	-11.1192
▁exceeding	-11.1192
▁festival	-11.1192
▁fresh	-11.1192
▁getParameter	-11.1192
▁graphite	-11.1192
▁groan	-11.1192
▁harlot	-11.1192
▁humility	-11.1192
▁hygien	-11.1192
▁illusion	-11.1192
▁impossible	-11.1192
▁incident	-11.1192
▁inflict	-11.1192
▁influence	-11.1192
▁jasper	-11.1192
▁kilograms	-11.1192
▁lecture	-11.1192
▁meekness	-11.1192
▁merchant	-11.1192
▁milliseconds	-11.1192
▁multiplication	-11.1192
▁murderer	-11.1192
▁murmured	-11.1192
▁muscular	-11.1192
▁neglect	-11.1192
▁pearls	-11.1192
▁plastic	-11.1192
▁poison	-11.1192
▁prominent	-11.1192
▁regularly	-11.1192
▁regulate	-11.1192
▁rejoicing	-11.1192
▁retriev	-11.1192
▁rupees	-11.1192
▁samadhi	-11.1192
▁samskritam	-11.1192
▁satellite	-11.1192
▁scatter	-11.1192
▁shoot	-11.1192
▁silence	-11.1192
▁slept	-11.1192
▁statue	-11.1192
▁sthiti	-11.1192
▁technology	-11.1192
▁tribute	-11.1192
▁twist	-11.1192
▁unjust	-11.1192
▁unlearned	-11.1192
▁vehemently	-11.1192
fileinfo	-11.1192
▁Kalidas	-11.1192
▁Row	-11.1192
▁ctrl	-11.1192
▁duck	-11.1192
▁mosquitoes	-11.1192
▁oxen	-11.1192
▁pepper	-11.1192
▁potato	-11.1192
▁prevail	-11.1192
▁raiment	-11.1192
▁ritual	-11.1192
▁sprouted	-11.1192
▁substance	-11.1192
▁अन	-11.1192
comprehen	-11.1192
xcf	-11.1192
▁Kabir	-11.1192
▁Nadu	-11.1192
▁Plug	-11.1192
▁Straight	-11.1192
▁Vendor	-11.1192
▁Vivek	-11.1192
▁accusation	-11.1192
▁doGet	-11.1192
▁examin	-11.1192
▁family	-11.1192
▁flavour	-11.1192
▁gender	-11.1192
▁psycholog	-11.1192
▁secure	-11.1192
▁sparrows	-11.1192
▁strife	-11.1192
▁Titus	-11.1192
▁burdensome	-11.1192
▁destruction	-11.1192
▁duties	-11.1192
▁integrat	-11.1192
▁quizzes	-11.1192
▁subtle	-11.1192
Chatur	-11.1192
▁Front	-11.1192
▁Picker	-11.1192
▁Rome	-11.1192
▁dissolves	-11.1192
▁loving	-11.1192
▁oven	-11.1192
▁purse	-11.1192
▁shoes	-11.1192
▁tasty	-11.1192
▁sensitivity	-11.1192
▁orbital	-11.1192
tayu	-11.1192
▁provoke	-11.1192
▁salary	-11.1192
feather	-11.1192
▁ashamed	-11.1192
▁bruis	-11.1192
▁glass	-11.1192
▁irritati	-11.1192
▁lumin	-11.1192
▁bold	-11.1192
HelloWeb	-11.1192
▁loaves	-11.1192
▁superclass	-11.1192
iloma	-11.1192
patron	-11.1192
▁Alright	-11.1192
▁explicitly	-11.1192
▁tidy	-11.1192
▁carnal	-11.1192
▁conclude	-11.1192
▁sitteth	-11.1192
▁Biology	-11.1192
▁clone	-11.1192
▁Hamsasana	-11.1192
▁advice	-11.1192
▁supper	-11.1192
▁Paste	-11.1192
▁Multipl	-11.1192
▁apply	-11.1192
▁exert	-11.1192
▁brass	-11.1192
▁mudrá	-11.1192
▁orange	-11.1192
▁nuts	-11.1192
▁zeal	-11.1192
▁hundredfold	-11.1192
clock	-11.1192
▁Vibhuti	-11.1192
▁courage	-11.1192
▁breadcrumbs	-11.1192
▁damage	-11.1192
▁ease	-11.1192
▁harmony	-11.1192
Judg	-11.1192
▁(*)	-11.1192
▁grey	-11.1192
▁Operators	-11.1192
▁Rudr	-11.1192
▁breeds	-11.1192
▁south	-11.1192
▁drama	-11.1192
▁fertility	-11.1192
▁thrice	-11.1192
garb	-11.1192
▁Paada	-11.1192
▁definite	-11.1192
▁frying	-11.1192
reaction	-11.1192
▁KTurtle	-11.1192
▁east	-11.1192
▁endured	-11.1192
▁identity	-11.1192
▁verification	-11.1192
▁caption	-11.1192
▁farmer	-11.1192
▁vigorous	-11.1192
▁Carbo	-11.1192
▁moist	-11.1192
▁holiness	-11.1192
▁gaz	-11.1192
▁Spray	-11.1192
eagle	-11.1192
/01/201	-11.1192
▁Point	-11.1192
▁brake	-11.1192
namaskár	-11.1192
▁photo	-11.1192
▁Actual	-11.1192
▁meditating	-11.1192
▁thunder	-11.1192
▁virasana	-11.1192
▁covetousness	-11.1192
▁specie	-11.1192
▁Addition	-11.1192
▁resistant	-11.1192
tilde	-11.1192
▁attention	-11.1192
▁elephant	-11.1192
▁escape	-11.1192
▁138	-11.1192
▁confess	-11.1192
▁Plus	-11.1192
▁Direct	-11.1192
▁Find	-11.1192
▁recognition	-11.1192
▁collapse	-11.1193
▁crucify	-11.1193
▁veins	-11.1193
▁husbandmen	-11.1193
▁strait	-11.1193
▁rod	-11.1193
▁prim	-11.1193
▁'2'	-11.1193
rithm	-11.1193
▁Photos	-11.1193
▁swine	-11.1193
▁female	-11.1193
▁Khari	-11.1193
▁captiv	-11.1193
jdk	-11.1193
▁shore	-11.1193
▁ghost	-11.1193
nounce	-11.1193
libr	-11.1193
▁dispatch	-11.1193
▁Contra	-11.1193
Org	-11.1193
▁external	-11.1193
▁spell	-11.1193
▁tired	-11.1193
▁hook	-11.1193
▁reconcil	-11.1193
▁spent	-11.1193
▁MethodDemo	-11.1193
▁sales	-11.1193
▁iodine	-11.1193
▁kurukshetra	-11.1193
ineral	-11.1193
▁chole	-11.1193
▁oath	-11.1193
का	-11.1193
ounsel	-11.1194
▁stack	-11.1194
▁patanjali	-11.1194
lowers	-11.1194
▁128	-11.1194
▁Peptide	-11.1194
▁Linker	-11.1194
▁Grand	-11.1194
▁shin	-11.1194
▁Mask	-11.1194
(2,	-11.1194
avail	-11.1194
▁inheritance	-11.1194
arantha	-11.1194
▁chemical	-11.1194
anner	-11.1194
▁Kart	-11.1194
▁dinner	-11.1194
▁Usually	-11.1194
▁POST	-11.1194
▁glob	-11.1194
▁gentleness	-11.1195
▁Melakart	-11.1195
▁hungry	-11.1195
▁Shru	-11.1195
▁treatment	-11.1195
▁evaluat	-11.1195
gle	-11.1195
▁repentance	-11.1195
▁deletion	-11.1195
▁rays	-11.1195
▁Kara	-11.1196
▁Nata	-11.1196
▁virtues	-11.1196
Or	-11.1196
▁stole	-11.1196
▁interpretation	-11.1196
▁spare	-11.1196
▁Padm	-11.1196
▁Evolutes	-11.1196
cept	-11.1196
▁Linear	-11.1196
TeX	-11.1197
▁burn	-11.1197
▁grew	-11.1197
▁town	-11.1197
▁Shravana	-11.1197
reproduction	-11.1197
andhya	-11.1197
▁Puja	-11.1197
html	-11.1197
iddle	-11.1198
▁Eye	-11.1198
▁NR	-11.1198
▁initialization	-11.1198
▁acknowledge	-11.1198
handra	-11.1198
▁Relaxation	-11.1198
▁clari	-11.1198
▁sharpness	-11.1198
▁wickedness	-11.1198
▁tension	-11.1198
▁condemnation	-11.1198
▁cutter	-11.1198
▁Nara	-11.1198
Never	-11.1198
verna	-11.1198
fortune	-11.1198
▁Useful	-11.1198
▁Financ	-11.1198
pika	-11.1198
▁ceased	-11.1198
▁connection	-11.1199
esign	-11.1199
▁lament	-11.1199
▁blew	-11.1199
▁eighth	-11.1199
▁(#	-11.12
inclu	-11.12
kara	-11.12
jam	-11.12
horn	-11.12
▁Input	-11.12
▁swim	-11.12
▁mushroom	-11.12
NDI	-11.12
aneous	-11.12
▁kern	-11.1201
▁9.4	-11.1201
▁implementation	-11.1201
ella	-11.1201
▁True	-11.1201
▁reap	-11.1201
▁scourg	-11.1201
▁afflicted	-11.1202
▁Acquisition	-11.1202
▁duty	-11.1202
talk	-11.1202
▁steady	-11.1202
▁Part	-11.1202
▁shaken	-11.1203
HE	-11.1203
▁deter	-11.1204
▁guide	-11.1204
irculation	-11.1204
▁workspace	-11.1204
▁Stor	-11.1205
▁(&	-11.1205
alias	-11.1205
▁sensation	-11.1205
▁cap	-11.1205
▁beneath	-11.1205
▁Repeatable	-11.1205
▁wheat	-11.1206
▁Siva	-11.1206
▁flu	-11.1206
omorrow	-11.1206
hanam	-11.1206
▁Arjun	-11.1206
teria	-11.1206
▁Day	-11.1207
▁mo	-11.1207
▁US	-11.1207
▁pace	-11.1207
▁LO	-11.1207
▁belly	-11.1208
cience	-11.1208
▁wings	-11.1208
▁ARG	-11.1208
▁merit	-11.1208
▁cave	-11.1208
gif	-11.1209
STR	-11.121
dcast	-11.121
▁offence	-11.121
mino	-11.121
xis	-11.121
Vasu	-11.1211
iate	-11.1211
▁Dec	-11.1212
dhu	-11.1212
scale	-11.1213
▁loss	-11.1213
▁Sea	-11.1214
▁dry	-11.1214
▁disk	-11.1214
▁Sat	-11.1215
▁Enhance	-11.1215
▁Node	-11.1215
▁quicken	-11.1215
giv	-11.1215
▁Most	-11.1215
▁Root	-11.1216
▁float	-11.1216
▁Exhaling	-11.1216
▁Instead	-11.1216
▁KOHA	-11.1216
▁Timotheus	-11.1216
▁htdocs	-11.1216
▁shadow	-11.1216
▁surroundings	-11.1216
▁intestine	-11.1216
▁Copy	-11.1216
▁Block	-11.1216
▁Dasharatha	-11.1216
▁chamber	-11.1216
▁Gunas	-11.1216
▁Image	-11.1216
▁castle	-11.1216
▁poster	-11.1216
▁Trash	-11.1216
▁smell	-11.1216
▁ignorance	-11.1216
▁Pura	-11.1217
Program	-11.1217
Else	-11.1218
▁Sunday	-11.1218
▁inks	-11.1218
▁boiled	-11.1219
▁affected	-11.1219
rification	-11.1219
▁bookmarked	-11.1219
▁Universe	-11.122
▁wh	-11.122
▁precaution	-11.122
▁exception	-11.1222
▁acquired	-11.1222
cell	-11.1222
▁smoothly	-11.1223
▁chain	-11.1224
itra	-11.1224
पि	-11.1225
dged	-11.1226
▁Sura	-11.1226
mming	-11.1227
▁Play	-11.1228
▁Kali	-11.1228
karacharya	-11.1229
solve	-11.1229
▁suspen	-11.123
▁grieve	-11.123
▁destroyer	-11.1231
chown	-11.1232
mp	-11.1233
▁digestion	-11.1234
corruptible	-11.1234
▁coal	-11.1234
▁nought	-11.1235
▁psalms	-11.1236
▁spreadsheets	-11.1236
▁sweets	-11.1236
▁gaps	-11.1236
▁burned	-11.1236
▁identifiers	-11.1236
▁Andrew	-11.1236
▁physicians	-11.1237
▁syn	-11.1237
▁sealed	-11.1237
▁Ball	-11.1238
▁72	-11.1239
▁department	-11.124
▁Hi	-11.1241
▁tone	-11.1242
▁powers	-11.1242
▁Cut	-11.1242
▁mentally	-11.1242
▁Listen	-11.1242
▁factor	-11.1242
▁textbox	-11.1244
▁cp	-11.1245
▁despised	-11.1246
▁harm	-11.1246
lio	-11.1247
▁bark	-11.1247
▁watches	-11.1247
▁disc	-11.1248
stone	-11.1249
▁harden	-11.125
▁Writer	-11.1251
Music	-11.1251
kam	-11.1253
ANCE	-11.1254
ails	-11.1254
▁wondered	-11.1255
▁3.2	-11.1255
▁disciplined	-11.1256
▁ban	-11.1257
▁dharma	-11.1257
▁Title	-11.1257
▁Bandha	-11.1257
▁revolve	-11.1257
▁2017	-11.1258
ork	-11.1259
nga	-11.1259
▁swaras	-11.126
▁planes	-11.126
▁>	-11.126
▁Become	-11.1261
▁scor	-11.1262
ammin	-11.1262
▁washed	-11.1263
▁burning	-11.1263
▁synchron	-11.1264
▁Char	-11.1265
RVAT	-11.1265
uous	-11.1265
▁Sort	-11.1266
▁host	-11.1268
▁Rah	-11.1269
▁demonstrated	-11.127
▁fever	-11.127
▁Size	-11.1271
▁noise	-11.1272
▁gna	-11.1277
▁Milk	-11.1278
brown	-11.1278
▁susten	-11.1278
▁released	-11.1282
▁variet	-11.1283
▁nested	-11.1284
▁19	-11.1284
▁hot	-11.1285
▁fold	-11.1286
Madhya	-11.1286
sky	-11.1287
▁mixed	-11.1289
▁Eg	-11.1292
bidden	-11.1292
▁wandering	-11.1293
▁parse	-11.1294
▁-10	-11.1297
▁q	-11.1297
▁DI	-11.1298
▁dest	-11.1302
▁meta	-11.1306
▁pit	-11.1306
garbha	-11.131
▁male	-11.1311
▁hypocrites	-11.1312
▁widows	-11.1312
▁Gradients	-11.1312
▁devices	-11.1312
▁operands	-11.1312
▁situations	-11.1312
▁Niyamas	-11.1312
▁guests	-11.1312
▁lips	-11.1313
▁eggs	-11.1313
dependent	-11.1315
▁[	-11.1316
dministration	-11.1316
▁23	-11.1319
▁Princ	-11.1321
▁Process	-11.1321
▁repeated	-11.1325
94	-11.1325
imal	-11.1327
▁mor	-11.1327
aking	-11.1329
IB	-11.133
ires	-11.1331
▁correctly	-11.1334
▁Mat	-11.1334
▁appearance	-11.1336
▁seal	-11.1338
▁generated	-11.134
▁Servlet	-11.1344
pervad	-11.1344
▁Hanuman	-11.1346
Lay	-11.1347
▁intensi	-11.1347
▁spir	-11.1348
▁Exception	-11.1349
▁evident	-11.135
▁rhythmic	-11.1353
▁specifie	-11.1354
date	-11.1357
▁./	-11.1361
was	-11.1365
▁MM	-11.1365
▁Kana	-11.137
▁ple	-11.1373
▁deed	-11.1373
ium	-11.1374
▁FI	-11.1377
▁borne	-11.1377
▁heirs	-11.1378
▁Kriyas	-11.139
▁skills	-11.139
▁vessels	-11.139
▁afflictions	-11.139
▁Dog	-11.1391
▁seals	-11.1391
्त	-11.1392
▁arise	-11.1394
▁Nadis	-11.1394
▁sowing	-11.1395
▁familiarize	-11.1398
Salutation	-11.1398
▁Ash	-11.1405
▁beam	-11.1407
▁medicines	-11.1409
▁Accounting	-11.1413
▁usage	-11.1417
▁sand	-11.1418
▁afore	-11.142
▁Val	-11.1434
▁rede	-11.1435
ricing	-11.1437
lute	-11.1437
works	-11.1445
▁grave	-11.1447
▁buri	-11.1448
▁Printing	-11.1469
▁Dialogs	-11.147
▁sticks	-11.147
▁incomplete	-11.1471
ayam	-11.1471
▁bags	-11.1471
UR	-11.1472
▁shortcuts	-11.1473
▁sna	-11.1478
▁senses	-11.1478
▁Post	-11.148
▁feeling	-11.1482
▁Gal	-11.1484
danam	-11.1484
hip	-11.1486
ud	-11.1486
▁Iso	-11.1491
lapping	-11.1498
▁dep	-11.1499
At	-11.1514
3.0	-11.1518
speak	-11.1523
▁commend	-11.1527
sim	-11.1537
▁Thing	-11.1539
ca	-11.154
▁hero	-11.1541
wai	-11.1543
ically	-11.155
▁diagrams	-11.155
▁sufferings	-11.1551
▁suggests	-11.1551
▁buildings	-11.1551
dash	-11.1552
:\	-11.1554
ht	-11.1558
▁remembered	-11.1562
tailor	-11.1565
fy	-11.1565
▁www	-11.1566
▁recent	-11.1567
gram	-11.1568
▁metals	-11.1577
inner	-11.1582
▁steward	-11.1583
▁walking	-11.1589
▁controll	-11.1591
▁ports	-11.1592
uta	-11.1594
iranya	-11.1602
bash	-11.162
▁periods	-11.1632
▁Methods	-11.1632
▁cultures	-11.1638
▁ent	-11.1642
clicking	-11.1648
worm	-11.1652
▁drinking	-11.1655
▁afterward	-11.1655
shu	-11.1666
ral	-11.167
▁sm	-11.1676
ेव	-11.1694
();	-11.1699
▁ge	-11.1704
▁traditions	-11.1714
▁garments	-11.1714
nge	-11.1729
▁Heal	-11.1775
▁lies	-11.178
tible	-11.178
drew	-11.178
▁ragas	-11.1796
▁spreads	-11.1796
▁watching	-11.1802
ingle	-11.1803
▁histo	-11.1817
add	-11.1823
▁clothing	-11.1825
efine	-11.1836
▁Bhas	-11.1848
▁Wherefore	-11.1849
LL	-11.1853
kana	-11.1853
YA	-11.1854
used	-11.1859
sum	-11.186
▁ab	-11.1867
▁seats	-11.187
▁giveth	-11.1871
▁masters	-11.1879
▁pencils	-11.1879
ji	-11.189
aka	-11.1898
स	-11.19
▁reed	-11.1917
▁doest	-11.1923
▁Q	-11.1939
▁Durg	-11.1962
election	-11.1973
▁Cur	-11.2002
etting	-11.2008
57	-11.2009
▁पु	-11.2009
▁modifie	-11.2036
▁thousands	-11.2048
▁destroys	-11.2051
editable	-11.2059
des	-11.2099
▁processed	-11.2104
▁21.	-11.2108
▁lots	-11.2133
▁Comp	-11.2135
▁Lists	-11.214
Ayurveda	-11.2158
Suddenly	-11.218
▁dra	-11.2194
▁Tim	-11.2198
Jul	-11.22
apati	-11.2205
▁souls	-11.2219
isk	-11.2234
reat	-11.2272
14	-11.2275
▁administrators	-11.2307
void	-11.2315
2"	-11.2317
▁Tal	-11.2327
▁downward	-11.2331
ament	-11.2368
▁Construct	-11.2388
▁cra	-11.2394
▁integers	-11.2394
000	-11.24
gul	-11.2405
▁Lal	-11.2414
▁Mon	-11.2438
born	-11.2446
▁reduc	-11.2451
ark	-11.2478
▁Ric	-11.2483
asya	-11.2486
▁cure	-11.2491
▁referr	-11.2529
▁10.0	-11.2545
▁Vya	-11.2551
▁follower	-11.2583
athi	-11.2589
udge	-11.2595
tma	-11.2596
ates	-11.2619
een	-11.2643
venge	-11.2661
logical	-11.269
iga	-11.2704
▁ir	-11.272
द	-11.2724
▁Shrima	-11.2731
01	-11.2751
Dear	-11.2753
▁catch	-11.277
▁salut	-11.2784
Blast	-11.2787
▁00	-11.2821
▁memorize	-11.2835
▁hours	-11.2844
▁ri	-11.287
▁achiev	-11.2892
ED	-11.2897
ीत	-11.29
ector	-11.2908
▁testifie	-11.2925
▁Mahar	-11.2925
▁databases	-11.2936
upad	-11.2961
▁assur	-11.2966
vid	-11.2989
▁talks	-11.3
45	-11.3005
cause	-11.3014
nanda	-11.3022
fa	-11.3025
▁consume	-11.3031
▁sounds	-11.305
▁RS	-11.3081
cha	-11.3085
▁programme	-11.3093
Cover	-11.3134
reserved	-11.3136
limit	-11.3174
nger	-11.3186
fi	-11.3186
▁Bi	-11.322
firm	-11.3242
▁Har	-11.3307
early	-11.3308
▁hate	-11.3347
iversity	-11.3358
▁Sai	-11.3418
amed	-11.3428
emi	-11.344
its	-11.3473
ssess	-11.3494
west	-11.3538
elimite	-11.3546
Whe	-11.3559
▁En	-11.3597
nam	-11.3709
▁measur	-11.373
exalted	-11.3742
▁Aris	-11.3754
write	-11.3802
30	-11.3827
yam	-11.3831
▁75	-11.3832
▁assure	-11.3858
▁Shan	-11.3867
ano	-11.387
rt	-11.3892
ता	-11.3912
64	-11.3928
▁Man	-11.3956
deva	-11.3987
rasana	-11.4031
▁Anand	-11.4037
4)	-11.4046
rush	-11.4066
▁Know	-11.4093
दत	-11.4098
▁reserv	-11.4108
ezi	-11.411
Par	-11.4113
▁inform	-11.4119
KS	-11.4121
EST	-11.4132
▁contrar	-11.4139
ucked	-11.4165
▁optimiz	-11.4189
▁ki	-11.4214
▁Clip	-11.4261
rarch	-11.4265
▁..........	-11.427
▁Fea	-11.4297
graded	-11.4317
▁Saha	-11.432
tah	-11.4356
40	-11.4453
▁Arth	-11.4459
gi	-11.4466
mah	-11.4472
त्	-11.4472
abi	-11.4562
ater	-11.4573
MB	-11.4595
▁arrive	-11.4611
▁Mi	-11.4629
▁Ju	-11.4658
BL	-11.4661
ari	-11.467
▁bud	-11.4681
apur	-11.4721
raw	-11.4726
Ha	-11.4784
oise	-11.4789
▁logic	-11.4802
mm	-11.4805
ame	-11.4818
▁Ka	-11.4837
▁Summar	-11.4873
▁pro	-11.4879
stra	-11.4923
▁reache	-11.4943
▁SU	-11.4954
▁प	-11.497
ila	-11.4973
odies	-11.5009
LI	-11.5013
allows	-11.5013
yurveda	-11.5056
▁1.7	-11.5065
CA	-11.5088
▁Libr	-11.5102
aries	-11.5108
adi	-11.5109
amo	-11.5165
▁honest	-11.5197
RY	-11.5206
eak	-11.5233
▁participa	-11.5239
shing	-11.5247
▁Hath	-11.5274
▁sette	-11.5306
hange	-11.5323
fly	-11.5335
ordinat	-11.5353
▁Dr	-11.5363
▁Wh	-11.5369
luc	-11.5395
ky	-11.5396
nance	-11.5447
ade	-11.5448
ften	-11.5449
bin	-11.5453
▁alternate	-11.5474
io	-11.5486
▁Shar	-11.5501
र्	-11.5504
fertilizers	-11.5509
6-	-11.5509
▁practic	-11.5511
▁originat	-11.5523
ible	-11.5543
ranya	-11.5556
solu	-11.5572
dio	-11.5575
▁whoso	-11.5577
phen	-11.558
▁stewards	-11.5586
serve	-11.5589
arli	-11.5599
▁Marc	-11.5601
▁mod	-11.5623
>	-11.5626
▁chit	-11.563
▁Sim	-11.5656
▁Serv	-11.5659
awa	-11.5666
score	-11.569
eat	-11.5696
qui	-11.5702
HI	-11.5753
grade	-11.5754
------------	-11.5778
▁Krama	-11.578
▁instruct	-11.5783
per	-11.579
ication	-11.5798
▁touche	-11.5812
▁Cre	-11.5814
user	-11.5815
traction	-11.5817
aining	-11.5845
▁bur	-11.5846
Download	-11.5881
▁grav	-11.5893
umb	-11.5893
▁Sab	-11.5913
▁kn	-11.5919
uri	-11.5922
Book	-11.5924
ananda	-11.5929
search	-11.5933
kru	-11.5937
▁eviden	-11.5945
Du	-11.595
mas	-11.5951
▁realiz	-11.5952
hari	-11.5956
▁bookmark	-11.5972
▁mat	-11.5973
iety	-11.5976
▁vow	-11.5978
mes	-11.5979
▁Rupee	-11.5979
▁hymn	-11.5979
▁regulation	-11.5979
▁Style	-11.5979
▁blink	-11.5979
▁summer	-11.5979
▁ankle	-11.5979
▁job	-11.5979
▁Topic	-11.5979
▁ornament	-11.5979
article	-11.598
cross	-11.5986
▁7.0	-11.5987
19	-11.5987
light	-11.5991
ocation	-11.5991
hot	-11.5992
▁Gradient	-11.5999
▁hypocrite	-11.5999
▁operand	-11.5999
▁widow	-11.5999
▁Niyama	-11.5999
▁device	-11.5999
Giv	-11.6
▁situation	-11.6001
▁degrad	-11.6004
script	-11.6005
▁Greek	-11.6007
▁warrior	-11.6007
▁govern	-11.6007
▁guest	-11.6008
▁habit	-11.6009
▁lip	-11.6011
▁Field	-11.6011
▁Sutra	-11.6011
▁Preference	-11.6013
▁Pandava	-11.6016
ility	-11.6018
▁egg	-11.602
▁Curve	-11.6021
▁insect	-11.6021
▁Option	-11.6021
▁lust	-11.6022
▁soldier	-11.6024
▁preference	-11.6024
▁Window	-11.6025
Know	-11.6028
▁Nig	-11.6029
que	-11.6031
▁alway	-11.6034
▁Plant	-11.6036
▁ris	-11.6037
ffect	-11.6043
▁presentation	-11.6048
▁Vira	-11.6048
▁sinner	-11.605
▁Area	-11.605
roc	-11.6051
▁Net	-11.6056
▁backward	-11.606
ollar	-11.606
▁passage	-11.6061
reache	-11.6061
#	-11.6062
▁dig	-11.6066
▁highlight	-11.6067
▁bone	-11.6068
▁Super	-11.6068
Trai	-11.6069
cale	-11.607
title	-11.6072
row	-11.6072
च	-11.6075
Dandasana	-11.6075
supplied	-11.6075
Finally	-11.6075
hello	-11.6075
vitamin	-11.6075
NU	-11.6076
rithmetic	-11.6076
Nach	-11.6077
nutrition	-11.6078
18	-11.6078
▁hexa	-11.6079
center	-11.608
▁prais	-11.6081
heirs	-11.6083
2017	-11.6085
cast	-11.6085
Manage	-11.6086
Hanuman	-11.6086
dharma	-11.6086
Title	-11.6086
Bandha	-11.6086
nested	-11.6089
Yogi	-11.609
Preetam	-11.6091
Rebecca	-11.6091
[1]	-11.6091
wood	-11.6091
Relax	-11.6091
Enrol	-11.6091
maths	-11.6091
links	-11.6093
Likewise	-11.6093
Balance	-11.6093
event	-11.6093
Great	-11.6095
degree	-11.6095
Bhagavad	-11.6095
know	-11.6095
minded	-11.6096
JSP	-11.6096
Show	-11.6096
abdominal	-11.6096
Thus	-11.6096
frame	-11.6097
▁por	-11.6097
Earth	-11.6097
testdir	-11.6098
order	-11.6098
public	-11.6098
Checkout	-11.6098
Home	-11.6098
paste	-11.6098
println	-11.6098
birth	-11.6098
Stand	-11.6098
▁occup	-11.6098
blast	-11.6098
sharpen	-11.6099
piece	-11.6099
bones	-11.6099
SV	-11.6099
Shift	-11.6099
Start	-11.61
May	-11.61
valid	-11.61
bacteria	-11.61
cloth	-11.61
Z	-11.61
column	-11.61
continue	-11.6101
Indian	-11.6101
Search	-11.6101
charge	-11.6101
account	-11.6101
compile	-11.6101
Peter	-11.6101
front	-11.6101
step	-11.6101
semicolon	-11.6101
soft	-11.6102
browser	-11.6102
student	-11.6102
return	-11.6102
message	-11.6102
Student	-11.6102
text	-11.6102
result	-11.6102
breathing	-11.6102
Ubuntu	-11.6102
Make	-11.6102
material	-11.6102
root	-11.6102
“	-11.6102
‘	-11.6103
meet	-11.6103
Christ	-11.6103
▁Math	-11.6103
show	-11.6103
error	-11.6103
project	-11.6103
java	-11.6103
called	-11.6103
variable	-11.6103
Create	-11.6103
brush	-11.6103
Up	-11.6104
Take	-11.6104
yoga	-11.6105
Rama	-11.6105
when	-11.6106
▁mai	-11.6106
blood	-11.6106
copies	-11.6106
Use	-11.6107
vening	-11.6107
printf	-11.6108
left	-11.6108
made	-11.6108
you	-11.6109
ramah	-11.6109
Asana	-11.611
known	-11.611
web	-11.611
shvara	-11.6111
tors	-11.6111
Over	-11.6111
server	-11.6112
idth	-11.6112
91	-11.6113
throw	-11.6113
▁blend	-11.6114
eceive	-11.6114
checked	-11.6114
andler	-11.6117
Art	-11.6118
walk	-11.6118
based	-11.6119
Pro	-11.612
Sama	-11.6121
host	-11.6122
▁na	-11.6127
Sri	-11.6129
main	-11.6129
▁delet	-11.6129
▁accord	-11.6131
pit	-11.6131
▁pleas	-11.6133
cite	-11.6134
▁Custom	-11.6134
press	-11.6135
big	-11.6136
ATION	-11.6136
Bend	-11.6137
item	-11.6138
draw	-11.6139
▁Alternate	-11.6139
▁comp	-11.6142
gna	-11.6143
▁quench	-11.6144
▁distress	-11.6144
080	-11.6145
ification	-11.6147
▁boil	-11.6148
fall	-11.6149
She	-11.6149
▁assembl	-11.615
▁reject	-11.615
parent	-11.615
mitte	-11.6151
▁Salut	-11.6154
song	-11.6156
▁dwel	-11.6159
▁phon	-11.6161
▁describe	-11.6161
ministration	-11.6162
dai	-11.6162
anna	-11.6162
▁tear	-11.6164
▁marvel	-11.6164
▁lit	-11.6164
also	-11.6165
▁boun	-11.6165
▁spac	-11.6165
▁agricultur	-11.6166
ake	-11.6167
Organ	-11.6167
▁3.7	-11.6167
off	-11.6167
▁plac	-11.6168
▁expan	-11.6169
bile	-11.6171
▁harsh	-11.6172
▁benefi	-11.6174
▁greed	-11.6174
▁iniquit	-11.6175
cquisition	-11.6175
hief	-11.6176
▁stead	-11.6176
keleton	-11.6178
aviour	-11.6178
▁pane	-11.6179
▁identifie	-11.6179
trengthen	-11.618
cope	-11.618
▁termina	-11.6181
▁eleven	-11.6181
▁extra	-11.6182
▁corn	-11.6182
ayurved	-11.6182
ountains	-11.6184
▁easie	-11.6184
▁virtu	-11.6185
some	-11.6185
cket	-11.6185
▁obe	-11.6186
tivated	-11.6186
▁differ	-11.6186
▁danger	-11.6186
▁careful	-11.6186
eloved	-11.6186
▁concentrat	-11.6186
▁basi	-11.6187
riangle	-11.6187
▁habitat	-11.6187
ensation	-11.6187
alculator	-11.6188
oolish	-11.6188
Setu	-11.6188
ntroduction	-11.6188
mprove	-11.6188
hemical	-11.6188
▁attract	-11.6188
▁suffi	-11.6189
atanjali	-11.6189
्	-11.6189
xecution	-11.6189
ulate	-11.6189
▁happi	-11.6189
▁2.1	-11.6189
uja	-11.6189
vaporat	-11.6189
▁unbeliev	-11.6189
▁crow	-11.6189
Photo	-11.6189
▁confiden	-11.6189
boxes	-11.6189
▁frag	-11.6189
oom	-11.6189
onsider	-11.6189
anotube	-11.6189
inosaur	-11.6189
omputer	-11.6189
obedient	-11.619
scene	-11.619
randfather	-11.619
ontact	-11.619
▁Yag	-11.619
▁attend	-11.6191
▁experi	-11.6191
kára	-11.6191
▁prior	-11.6191
namaskar	-11.6191
ighlight	-11.6191
vigor	-11.6191
▁Vajr	-11.6191
devata	-11.6191
▁Jo	-11.6191
python	-11.6191
ertical	-11.6191
▁sanctif	-11.6191
▁recogni	-11.6191
▁Vrusha	-11.6191
्व	-11.6191
▁applica	-11.6191
muni	-11.6191
ksho	-11.6191
ज	-11.6192
▁Rig	-11.6192
gah	-11.6192
था	-11.6192
destructi	-11.6192
▁cyclohex	-11.6192
▁demons	-11.6192
▁journ	-11.6192
Develop	-11.6192
▁client	-11.6192
▁प्रा	-11.6192
▁फल	-11.6192
Kapalbhati	-11.6192
Physical	-11.6192
Sithilikara	-11.6192
▁Atharvaveda	-11.6192
▁Industri	-11.6192
▁JESUS	-11.6192
▁Matthias	-11.6192
▁Samadhi	-11.6192
▁alumin	-11.6192
▁buffalo	-11.6192
▁chryso	-11.6192
▁circumcis	-11.6192
▁copper	-11.6192
▁deceit	-11.6192
▁hinder	-11.6192
▁merchandise	-11.6192
▁mysql	-11.6192
▁neighborhood	-11.6192
▁persuade	-11.6192
▁principalit	-11.6192
▁prosper	-11.6192
▁punished	-11.6192
▁stiff	-11.6192
▁stumbling	-11.6192
▁trespass	-11.6192
▁wolves	-11.6192
03:4	-11.6192
Appendix	-11.6192
Gujarat	-11.6192
Lakhs	-11.6192
Mosquitoes	-11.6192
Neptune	-11.6192
Notwithstanding	-11.6192
Numbers	-11.6192
PATANJALI	-11.6192
Paschim	-11.6192
aghava	-11.6192
arasmus	-11.6192
daradhih	-11.6192
ffulgence	-11.6192
haskarcharya	-11.6192
hlorophyll	-11.6192
hospital	-11.6192
iostream	-11.6192
mulation	-11.6192
nHalf	-11.6192
nputStreamReader	-11.6192
powder	-11.6192
riksh	-11.6192
rishtadyumna	-11.6192
sanhita	-11.6192
shatriyas	-11.6192
shrung	-11.6192
ukmini	-11.6192
vailability	-11.6192
xampp	-11.6192
}	-11.6192
ã	-11.6192
ü	-11.6192
जानाति	-11.6192
ज्ञा	-11.6192
द्ध	-11.6192
ष	-11.6192
▁0.48.4	-11.6192
▁11.04	-11.6192
▁Achaz	-11.6192
▁Administrator	-11.6192
▁Agastya	-11.6192
▁Agency	-11.6192
▁Alexand	-11.6192
▁Almighty	-11.6192
▁Aravinda	-11.6192
▁BHUJANGASANA	-11.6192
▁Barabbas	-11.6192
▁Browsing	-11.6192
▁Bruha	-11.6192
▁Buddha	-11.6192
▁Debugger	-11.6192
▁December	-11.6192
▁Deposits	-11.6192
▁Descriptor	-11.6192
▁Destroy	-11.6192
▁Dhanuras	-11.6192
▁Dimension	-11.6192
▁Error	-11.6192
▁Exhalation	-11.6192
▁FNR	-11.6192
▁Figures	-11.6192
▁Harappa	-11.6192
▁Hebrew	-11.6192
▁Inventory	-11.6192
▁Invoice	-11.6192
▁JPEG	-11.6192
▁Janasthana	-11.6192
▁Jericho	-11.6192
▁Joatham	-11.6192
▁Krsna	-11.6192
▁LATEX	-11.6192
▁Liabilities	-11.6192
▁Lucius	-11.6192
▁Magdalene	-11.6192
▁Measure	-11.6192
▁Melchisedec	-11.6192
▁Moudgalya	-11.6192
▁NAMASKAR	-11.6192
▁NCBI	-11.6192
▁Nandigrama	-11.6192
▁PRECAUTIONS	-11.6192
▁Parameters	-11.6192
▁Peepal	-11.6192
▁Pratiratha	-11.6192
▁Pratyahara	-11.6192
▁Rajasthan	-11.6192
▁Ravivarma	-11.6192
▁Resources	-11.6192
▁Sadducees	-11.6192
▁Salvation	-11.6192
▁Samaritan	-11.6192
▁Samiti	-11.6192
▁Santhosha	-11.6192
▁Shoucha	-11.6192
▁Siloam	-11.6192
▁Sinai	-11.6192
▁Sitkari	-11.6192
▁Smyrna	-11.6192
▁Sosthenes	-11.6192
▁Statistics	-11.6192
▁Sukh	-11.6192
▁Transaction	-11.6192
▁Translat	-11.6192
▁Varuna	-11.6192
▁Vasudeva	-11.6192
▁Viparitakarani	-11.6192
▁_______	-11.6192
▁accident	-11.6192
▁accuracy	-11.6192
▁accurate	-11.6192
▁acquaint	-11.6192
▁admonish	-11.6192
▁anguish	-11.6192
▁appreciate	-11.6192
▁barbarian	-11.6192
▁behalf	-11.6192
▁believing	-11.6192
▁biodegradable	-11.6192
▁bishop	-11.6192
▁bladder	-11.6192
▁bridge	-11.6192
▁business	-11.6192
▁candlestick	-11.6192
▁cartilage	-11.6192
▁challenges	-11.6192
▁chocolate	-11.6192
▁comparison	-11.6192
▁concatenated	-11.6192
▁consumption	-11.6192
▁deputy	-11.6192
▁dexterity	-11.6192
▁dishonour	-11.6192
▁dramaturgy	-11.6192
▁enthusias	-11.6192
▁explanation	-11.6192
▁farewell	-11.6192
▁firefox	-11.6192
▁footstool	-11.6192
▁frontacc	-11.6192
▁furniture	-11.6192
▁garlands	-11.6192
▁genome	-11.6192
▁grief	-11.6192
▁guidance	-11.6192
▁helmet	-11.6192
▁hypocrisy	-11.6192
▁illuminate	-11.6192
▁indignation	-11.6192
▁insulin	-11.6192
▁interlocked	-11.6192
▁isomerism	-11.6192
▁kidney	-11.6192
▁kriya	-11.6192
▁limbs	-11.6192
▁literature	-11.6192
▁magenta	-11.6192
▁nagf	-11.6192
▁oblation	-11.6192
▁ointment	-11.6192
▁organization	-11.6192
▁outstretched	-11.6192
▁perineum	-11.6192
▁phrases	-11.6192
▁plagues	-11.6192
▁practising	-11.6192
▁protozoa	-11.6192
▁prowess	-11.6192
▁purify	-11.6192
▁referencing	-11.6192
▁rescue	-11.6192
▁respond	-11.6192
▁rotating	-11.6192
▁samsara	-11.6192
▁sanctuary	-11.6192
▁shattered	-11.6192
▁sidhant	-11.6192
▁steadfast	-11.6192
▁stimulate	-11.6192
▁subcategories	-11.6192
▁transport	-11.6192
▁truncated	-11.6192
▁undefiled	-11.6192
▁uniform	-11.6192
▁unnecessar	-11.6192
▁virgins	-11.6192
▁widgets	-11.6192
▁उपक	-11.6192
▁गृहकार्य	-11.6192
▁रूप	-11.6192
▁विस्म	-11.6192
▁स्मर	-11.6192
▁Awareness	-11.6192
▁Character	-11.6192
▁Grids	-11.6192
▁Iconium	-11.6192
▁Leela	-11.6192
▁Redhat	-11.6192
▁Vayu	-11.6192
▁buttonhole	-11.6192
▁cattle	-11.6192
▁doPost	-11.6192
▁mixture	-11.6192
▁paradise	-11.6192
▁quiet	-11.6192
▁saturation	-11.6192
▁staff	-11.6192
!!!	-11.6192
Bauls	-11.6192
Department	-11.6192
alcium	-11.6192
ossils	-11.6192
▁Abhimanyu	-11.6192
▁Algae	-11.6192
▁Aushadha	-11.6192
▁Channel	-11.6192
▁Chrome	-11.6192
▁Hindi	-11.6192
▁Hymn	-11.6192
▁Plann	-11.6192
▁Rectang	-11.6192
▁STATEMENT	-11.6192
▁Sardis	-11.6192
▁Saturn	-11.6192
▁Section	-11.6192
▁Troas	-11.6192
▁awake	-11.6192
▁blade	-11.6192
▁blamed	-11.6192
▁bloom	-11.6192
▁carbohydrates	-11.6192
▁cheek	-11.6192
▁consult	-11.6192
▁convinc	-11.6192
▁dress	-11.6192
▁encounter	-11.6192
▁frequenc	-11.6192
▁ignore	-11.6192
▁jewel	-11.6192
▁magistrate	-11.6192
▁prophec	-11.6192
▁superior	-11.6192
▁tidings	-11.6192
▁twain	-11.6192
▁आपण	-11.6192
Anirdes	-11.6192
BANDHA	-11.6192
Module	-11.6192
Solider	-11.6192
ccessibility	-11.6192
ncestors	-11.6192
tiliz	-11.6192
ä	-11.6192
ख	-11.6192
प्र	-11.6192
वृ	-11.6192
▁Absorb	-11.6192
▁Claud	-11.6192
▁Norman	-11.6192
▁Platinum	-11.6192
▁Restrict	-11.6192
▁Syria	-11.6192
▁abduct	-11.6192
▁camp	-11.6192
▁chloride	-11.6192
▁deactivate	-11.6192
▁digging	-11.6192
▁emphasiz	-11.6192
▁nourishe	-11.6192
▁purity	-11.6192
▁road	-11.6192
▁temporar	-11.6192
▁typical	-11.6192
▁दर्शय	-11.6192
Mammal	-11.6192
fasta	-11.6192
inferior	-11.6192
mahabhutas	-11.6192
▁SVG	-11.6192
▁Typecasting	-11.6192
▁Vinay	-11.6192
▁adversaries	-11.6192
▁append	-11.6192
▁earnest	-11.6192
▁flip	-11.6192
▁multiply	-11.6192
▁spices	-11.6192
▁whirl	-11.6192
▁Merge	-11.6192
▁ascetic	-11.6192
▁gainsay	-11.6192
▁phase	-11.6192
▁relative	-11.6192
dfrac	-11.6192
msmath	-11.6192
पूर्	-11.6192
ात्र	-11.6192
ूत	-11.6192
▁5.5.30	-11.6192
▁Exit	-11.6192
▁Goshala	-11.6192
▁Herodias	-11.6192
▁Mouth	-11.6192
▁Siddh	-11.6192
▁Surp	-11.6192
▁bulk	-11.6192
▁flock	-11.6192
▁frontaccounting	-11.6192
▁increasing	-11.6192
▁partially	-11.6192
▁php	-11.6192
▁street	-11.6192
▁volu	-11.6192
ajra	-11.6192
▁Carboxyl	-11.6192
▁Third	-11.6192
▁cloning	-11.6192
▁emoti	-11.6192
▁manipulat	-11.6192
HCN	-11.6192
XML	-11.6192
janya	-11.6192
▁unselected	-11.6192
▁utter	-11.6192
म्	-11.6192
▁stove	-11.6192
HARI	-11.6192
▁Fix	-11.6192
▁Lower	-11.6192
▁Salary	-11.6192
▁Self	-11.6192
▁Vih	-11.6192
▁flick	-11.6192
▁guilty	-11.6192
Agnipurana	-11.6192
steadiness	-11.6192
णाय	-11.6192
▁debate	-11.6192
▁heathen	-11.6192
▁ordinance	-11.6192
▁physiological	-11.6192
▁slain	-11.6192
▁Energ	-11.6192
▁Kshema	-11.6192
▁tithes	-11.6192
▁vanishe	-11.6192
efraud	-11.6192
▁couple	-11.6192
▁greet	-11.6192
▁lepers	-11.6192
▁Center	-11.6192
▁vlc	-11.6192
encies	-11.6192
▁cyan	-11.6192
▁Dandaka	-11.6192
▁Push	-11.6192
▁lump	-11.6192
▁maximum	-11.6192
▁radiations	-11.6192
Claim	-11.6192
▁Animation	-11.6192
▁Fog	-11.6192
▁mRNA	-11.6192
▁Joses	-11.6192
▁Around	-11.6192
dfast	-11.6192
▁embrac	-11.6192
▁slice	-11.6192
▁sorry	-11.6192
▁transpose	-11.6192
▁Sychem	-11.6192
Buil	-11.6192
▁yonder	-11.6192
Earlier	-11.6192
▁goiter	-11.6192
▁proud	-11.6192
▁Shalabhasana	-11.6192
▁oppress	-11.6192
lfare	-11.6192
वे	-11.6192
▁Jonas	-11.6192
▁colt	-11.6192
▁wedding	-11.6192
▁voca	-11.6192
▁सम्	-11.6192
▁hsp	-11.6192
▁staves	-11.6192
▁chasten	-11.6192
ajmah	-11.6192
▁Damar	-11.6192
▁Vrushabha	-11.6192
Trikonasana	-11.6192
▁convenien	-11.6192
▁imputed	-11.6192
▁Olive	-11.6192
▁Samaria	-11.6192
▁Snap	-11.6192
▁bhut	-11.6192
tayuga	-11.6192
▁Tamas	-11.6192
ential	-11.6192
▁equip	-11.6192
▁quarter	-11.6192
elivery	-11.6192
▁Devata	-11.6192
▁भीष्	-11.6192
Yogasanas	-11.6192
▁Harmful	-11.6192
▁merciful	-11.6192
▁Branch	-11.6192
▁updates	-11.6192
Sapta	-11.6192
▁Biopython	-11.6192
panch	-11.6192
Asteya	-11.6192
▁guava	-11.6192
▁instant	-11.6192
▁stunning	-11.6192
▁wages	-11.6192
▁immortality	-11.6192
▁Reese	-11.6192
shank	-11.6192
न्त	-11.6192
washi	-11.6192
ान	-11.6192
▁continuous	-11.6192
▁Key	-11.6192
न्	-11.6192
▁sideways	-11.6192
▁TestStudent	-11.6192
▁motion	-11.6192
lphi	-11.6192
▁Lyd	-11.6192
▁purifie	-11.6192
Active	-11.6192
▁summari	-11.6192
▁medical	-11.6192
▁discover	-11.6192
▁notifications	-11.6193
▁03:2	-11.6193
▁pixelated	-11.6193
▁energies	-11.6193
▁Bhagya	-11.6193
adhyaksh	-11.6193
▁Case	-11.6193
त्य	-11.6193
▁nagarjun	-11.6193
DVD	-11.6193
▁impart	-11.6193
▁technologi	-11.6193
▁deposit	-11.6193
▁riot	-11.6193
▁stamen	-11.6193
purana	-11.6193
▁Reduce	-11.6193
▁creativity	-11.6193
▁hatred	-11.6193
▁wrist	-11.6193
fingers	-11.6193
▁yoke	-11.6193
▁Rahim	-11.6193
▁Meditation	-11.6193
▁buffe	-11.6193
▁merry	-11.6193
kde	-11.6193
▁Export	-11.6193
▁esteem	-11.6193
▁reload	-11.6193
▁silent	-11.6193
holy	-11.6193
▁shaloka	-11.6193
ecky	-11.6193
Panch	-11.6193
indu	-11.6193
ushy	-11.6193
▁stature	-11.6193
▁Tert	-11.6193
UTION	-11.6193
▁Garuda	-11.6193
▁Thread	-11.6193
▁candle	-11.6193
▁tomb	-11.6193
▁transferred	-11.6193
▁bast	-11.6193
▁sugar	-11.6193
▁pradhan	-11.6193
▁transgress	-11.6193
▁octa	-11.6193
▁Levi	-11.6193
▁imitate	-11.6193
▁Bengali	-11.6193
▁uncle	-11.6193
▁Naika	-11.6193
▁Paint	-11.6193
▁Chak	-11.6193
▁rescal	-11.6194
▁devatas	-11.6194
7/20	-11.6194
▁fault	-11.6194
▁Dead	-11.6194
▁trod	-11.6194
▁disorder	-11.6194
▁Vishva	-11.6194
Crea	-11.6194
avasana	-11.6194
▁smite	-11.6194
▁pink	-11.6194
▁Behavio	-11.6194
▁recompense	-11.6194
▁adher	-11.6194
▁uppercase	-11.6194
▁dinosaur	-11.6194
▁template	-11.6194
▁pitch	-11.6194
▁Renew	-11.6194
▁graze	-11.6194
OME	-11.6194
▁lunch	-11.6194
maginations	-11.6194
▁countries	-11.6194
▁entity	-11.6194
▁reflection	-11.6194
▁obstruction	-11.6194
▁harp	-11.6194
▁unbelievers	-11.6194
▁famili	-11.6194
ajva	-11.6194
ometric	-11.6194
▁eras	-11.6194
▁evaporate	-11.6194
▁delic	-11.6194
▁earning	-11.6194
▁Molecules	-11.6194
▁Threshold	-11.6194
▁knocketh	-11.6194
▁nanotube	-11.6194
▁creator	-11.6194
▁cere	-11.6194
▁kinsm	-11.6194
▁Docs	-11.6194
▁replie	-11.6195
▁forbearance	-11.6195
tyfold	-11.6195
▁wonderful	-11.6195
▁संस्	-11.6195
▁Aaron	-11.6195
▁poem	-11.6195
▁spear	-11.6195
▁quest	-11.6195
▁lowercase	-11.6195
▁clavicular	-11.6195
▁nobleman	-11.6195
▁platter	-11.6195
Deep	-11.6195
▁Bibliographic	-11.6195
▁attractive	-11.6195
▁boundary	-11.6195
▁Policeman	-11.6195
▁community	-11.6195
▁rough	-11.6195
MPO	-11.6195
▁Cast	-11.6195
verted	-11.6195
▁unmarried	-11.6195
▁255	-11.6195
eatures	-11.6195
Praja	-11.6196
blished	-11.6196
▁substra	-11.6196
▁typesetting	-11.6196
▁info	-11.6196
▁preview	-11.6196
nishad	-11.6196
▁0.0	-11.6196
▁beginner	-11.6196
ITION	-11.6196
▁comprise	-11.6196
्या	-11.6196
▁Achaia	-11.6196
ould	-11.6196
▁HIV	-11.6196
▁arr	-11.6196
▁syllable	-11.6196
▁media	-11.6196
▁serial	-11.6196
▁dart	-11.6196
▁Trip	-11.6196
▁Mantra	-11.6196
gadi	-11.6196
atira	-11.6196
▁Swara	-11.6196
▁sickle	-11.6196
▁returndate	-11.6196
▁testchown	-11.6196
▁lemon	-11.6196
▁prize	-11.6197
avatar	-11.6197
diff	-11.6197
▁Subhadra	-11.6197
▁Visi	-11.6197
▁Support	-11.6197
▁Special	-11.6197
▁kiss	-11.6197
chlori	-11.6197
haspati	-11.6197
1/2	-11.6197
▁lame	-11.6197
▁fierce	-11.6197
▁warning	-11.6197
vanam	-11.6197
▁incr	-11.6197
▁fled	-11.6197
▁Varah	-11.6197
▁POS	-11.6197
▁patri	-11.6198
▁dangerous	-11.6198
▁alms	-11.6198
▁effortless	-11.6198
▁Jatra	-11.6198
▁Statement	-11.6198
▁Inhaling	-11.6198
olence	-11.6198
▁rotten	-11.6198
olate	-11.6198
▁Israelite	-11.6198
▁infant	-11.6198
▁Mandatory	-11.6198
▁wail	-11.6198
▁adultery	-11.6199
▁terminology	-11.6199
andhari	-11.6199
new	-11.6199
▁foolishness	-11.6199
legged	-11.6199
▁calculator	-11.6199
▁Italy	-11.6199
Hint	-11.6199
77	-11.62
proportion	-11.62
DAS	-11.62
▁handling	-11.62
▁moth	-11.62
▁Kri	-11.62
▁Emm	-11.62
Are	-11.62
OS	-11.6201
lady	-11.6201
▁prisoners	-11.6201
orses	-11.6201
▁reck	-11.6201
ocket	-11.6201
▁shri	-11.6201
mbed	-11.6201
▁Chha	-11.6201
▁homework	-11.6201
▁Gray	-11.6201
▁strive	-11.6201
anusha	-11.6201
▁geni	-11.6201
▁10.3	-11.6201
▁loins	-11.6201
▁failure	-11.6202
ulfi	-11.6202
▁signif	-11.6202
▁Leg	-11.6202
▁peas	-11.6202
▁eleventh	-11.6202
antra	-11.6202
▁attitude	-11.6202
posite	-11.6202
▁chew	-11.6203
▁9.2	-11.6203
▁fox	-11.6203
writer	-11.6203
▁herself	-11.6203
▁Way	-11.6203
kruti	-11.6203
▁habitation	-11.6203
▁revile	-11.6203
▁20%	-11.6203
▁lifetime	-11.6203
▁Processes	-11.6204
▁Brahmanas	-11.6204
▁UP	-11.6204
▁amazed	-11.6204
▁priv	-11.6204
nife	-11.6204
ature	-11.6204
▁Avya	-11.6205
▁GST	-11.6205
▁maha	-11.6205
▁Mira	-11.6205
khn	-11.6205
LY	-11.6205
avo	-11.6205
▁Skeleton	-11.6205
plex	-11.6205
▁tava	-11.6206
▁fade	-11.6206
▁completion	-11.6206
nuh	-11.6206
▁STA	-11.6206
▁FOSS	-11.6206
▁vowel	-11.6207
▁Makaras	-11.6207
▁possessor	-11.6207
oke	-11.6207
▁purp	-11.6208
▁Shakti	-11.6208
▁fearful	-11.6208
▁intent	-11.6208
▁Toolbox	-11.6208
flies	-11.6208
▁beamer	-11.6208
▁interpreter	-11.6208
ayasa	-11.6208
▁Guide	-11.6208
▁Kun	-11.6209
▁allocate	-11.6209
AST	-11.6209
▁Sir	-11.6209
▁plucked	-11.6209
▁Saint	-11.621
▁chap	-11.621
cle	-11.621
▁greedy	-11.6211
▁forthwith	-11.6211
▁entertain	-11.6211
(*	-11.6211
harshita	-11.6211
▁miser	-11.6211
▁appea	-11.6211
Asuras	-11.6211
▁Bhakta	-11.6212
editor	-11.6212
rri	-11.6212
pertu	-11.6212
argv	-11.6213
▁Face	-11.6213
▁stir	-11.6213
▁Four	-11.6214
aughter	-11.6214
iments	-11.6214
▁Vasur	-11.6214
hva	-11.6214
dustbin	-11.6214
▁vish	-11.6214
arken	-11.6214
▁sector	-11.6214
▁Mus	-11.6215
iousness	-11.6215
vad	-11.6215
All	-11.6215
▁Asia	-11.6216
NE	-11.6216
▁worse	-11.6217
▁MarcEditor	-11.6217
receiv	-11.6217
▁sober	-11.6217
▁truthful	-11.6218
rganize	-11.6218
▁bitter	-11.6218
nstance	-11.6219
craft	-11.6219
▁mu	-11.6219
▁pound	-11.6219
▁04	-11.6219
roxy	-11.6219
▁exhibition	-11.622
▁via	-11.622
▁Nic	-11.622
▁lun	-11.622
▁edifying	-11.6221
▁trembling	-11.6221
▁employment	-11.6221
▁enrollment	-11.6221
▁mil	-11.6221
▁Kit	-11.6221
▁2.7	-11.6221
▁seller	-11.6221
▁28	-11.6222
▁mul	-11.6222
ossip	-11.6223
▁Silv	-11.6223
▁despiseth	-11.6223
▁alive	-11.6223
▁performance	-11.6224
▁Repe	-11.6224
decompose	-11.6224
▁mud	-11.6224
▁train	-11.6226
ENT	-11.6226
Ktouch	-11.6226
auti	-11.6227
▁spot	-11.6227
married	-11.6227
▁stu	-11.6227
miss	-11.6228
▁described	-11.6228
▁impli	-11.6228
▁mon	-11.6228
▁Token	-11.6229
▁mala	-11.6229
▁cart	-11.6229
▁Bhaga	-11.6229
mall	-11.623
Dancers	-11.623
▁Gho	-11.623
entation	-11.6231
▁01	-11.6232
dium	-11.6232
▁receiv	-11.6232
▁Dance	-11.6232
▁tries	-11.6232
▁agreement	-11.6232
▁Classes	-11.6233
▁Agar	-11.6233
AME	-11.6233
orem	-11.6234
▁Satt	-11.6234
▁reputa	-11.6234
▁carrier	-11.6234
▁कृष्ण	-11.6235
▁2.4.7	-11.6235
▁Exercise	-11.6235
▁Nathanael	-11.6235
▁Sugriva	-11.6235
▁intelligence	-11.6235
▁kerchief	-11.6235
▁perception	-11.6235
▁studentDetail	-11.6235
lessness	-11.6235
▁Lotus	-11.6235
▁Girl	-11.6235
▁April	-11.6235
▁voluntary	-11.6235
▁mantra	-11.6236
mega	-11.6236
▁sardi	-11.6236
kilo	-11.6236
▁hanger	-11.6236
▁June	-11.6236
▁sticky	-11.6236
▁Bhimsen	-11.6236
▁Dharana	-11.6237
▁Local	-11.6237
plicitly	-11.6237
▁rash	-11.6237
▁Du	-11.6237
string	-11.6237
21-	-11.6238
▁strname	-11.6238
RA	-11.6238
▁Ananta	-11.6238
katm	-11.6238
8080	-11.6238
▁liar	-11.6239
▁arch	-11.6239
▁Suryanamaskara	-11.6239
cend	-11.624
▁butane	-11.624
▁swear	-11.624
▁achievement	-11.624
▁distressed	-11.624
Nor	-11.624
Maricha	-11.624
▁quenched	-11.624
▁Kama	-11.624
▁highlighted	-11.624
▁Relati	-11.624
▁Sattva	-11.6241
▁shipment	-11.6241
▁Car	-11.6241
Bhuta	-11.6241
SHA	-11.6241
▁brighter	-11.6241
ierce	-11.6241
▁digit	-11.6241
▁Gmail	-11.6242
▁Apart	-11.6242
▁philosophy	-11.6242
▁CPU	-11.6243
▁Information	-11.6243
▁Sara	-11.6243
▁allergies	-11.6243
die	-11.6243
decomposition	-11.6243
▁reside	-11.6244
▁doves	-11.6244
MS	-11.6245
▁Gu	-11.6245
▁embedd	-11.6246
electron	-11.6247
bra	-11.6247
▁TV	-11.6249
▁brighten	-11.625
▁Recent	-11.6251
▁Mid	-11.6251
▁magnific	-11.6252
▁otherwise	-11.6252
▁accomplished	-11.6253
▁boost	-11.6253
smith	-11.6254
application	-11.6254
▁Pet	-11.6254
dients	-11.6255
ria	-11.6255
Raudra	-11.6256
▁trick	-11.6256
12	-11.6257
rari	-11.6257
AD	-11.6257
eez	-11.6257
scription	-11.6259
▁gladly	-11.626
▁rob	-11.626
▁Hand	-11.626
▁equality	-11.6261
ION	-11.6262
▁Aid	-11.6262
▁fift	-11.6263
net	-11.6264
▁Samo	-11.6264
elieves	-11.6265
▁imply	-11.6268
▁agreed	-11.6269
▁ether	-11.627
▁blending	-11.6271
▁excellences	-11.6271
▁ropes	-11.6271
▁burdens	-11.6271
▁margins	-11.6271
▁principles	-11.6271
▁lakhs	-11.6271
▁highlighting	-11.6271
▁determined	-11.6271
▁monkeys	-11.6271
▁disappeared	-11.6271
▁climbed	-11.6272
centering	-11.6272
▁persecutions	-11.6272
▁contention	-11.6272
▁benefited	-11.6273
eshvar	-11.6273
▁transformed	-11.6274
Idli	-11.6275
▁toString	-11.6276
▁darken	-11.6276
ated	-11.6277
Test	-11.6278
▁affect	-11.628
▁Bli	-11.6281
▁resemble	-11.6282
▁Soil	-11.6283
▁chose	-11.6283
▁softly	-11.6283
▁institute	-11.6284
▁Eu	-11.6284
▁loudly	-11.6285
2018	-11.6285
▁tho	-11.6285
▁Boo	-11.6285
▁Mac	-11.6286
godl	-11.6288
▁dea	-11.6289
▁won	-11.6289
▁defiled	-11.6289
▁occupie	-11.629
▁Fine	-11.629
▁delivery	-11.629
▁@0	-11.629
▁vial	-11.6291
▁Hos	-11.6291
▁ref	-11.6293
▁stronger	-11.6294
▁nam	-11.6295
Madhu	-11.6296
▁AW	-11.6297
▁Stop	-11.6297
▁que	-11.6302
articles	-11.6302
▁tormented	-11.6303
▁condemned	-11.6303
nirban	-11.6304
▁overloaded	-11.6304
▁abo	-11.6306
▁grown	-11.6306
▁hierarch	-11.6308
SO	-11.6308
▁articles	-11.6308
sequence	-11.6308
▁2018	-11.6309
▁wit	-11.6309
▁Finally	-11.631
▁च	-11.631
▁#	-11.631
dha	-11.631
▁vitamin	-11.631
▁persecuted	-11.631
▁Dandasana	-11.6311
▁exile	-11.6312
sacr	-11.6313
▁NU	-11.6313
Fo	-11.6313
▁nutrition	-11.6314
Downloads	-11.6314
▁(9	-11.6314
▁Bra	-11.6315
▁KA	-11.6315
▁Devas	-11.6315
yasana	-11.6317
ondition	-11.632
▁Heli	-11.632
▁Recording	-11.6322
▁burying	-11.6322
▁jumping	-11.6322
▁supplied	-11.6322
▁Heat	-11.6323
rance	-11.6325
tube	-11.6325
▁deer	-11.6326
▁missing	-11.6326
▁Nach	-11.6327
▁mal	-11.6328
lished	-11.6328
▁comput	-11.6328
▁entangle	-11.6328
▁1.1	-11.6329
HSV	-11.633
▁hello	-11.6333
▁profess	-11.6334
==	-11.6336
ingdom	-11.6336
▁cost	-11.6337
▁reso	-11.6337
▁litera	-11.6338
▁cre	-11.6339
▁Sant	-11.6345
▁2'.	-11.6345
▁Dand	-11.6346
▁unr	-11.6348
▁cit	-11.6348
ubstituent	-11.6348
gon	-11.635
heshwar	-11.6352
▁Tony	-11.6353
▁deceived	-11.6354
IDE	-11.6356
▁Cyreni	-11.6356
▁hip	-11.6359
▁45	-11.6361
proton	-11.6366
research	-11.6366
▁descended	-11.6367
▁repented	-11.6367
▁invoked	-11.6372
▁Prath	-11.6374
▁hoped	-11.6377
erry	-11.6379
0,000	-11.6381
▁refreshe	-11.6385
VIR	-11.6386
▁$	-11.6388
tence	-11.6389
▁Viram	-11.6392
Give	-11.6394
users	-11.6394
▁Inter	-11.6395
hariot	-11.6395
esponsibility	-11.6397
nux	-11.6401
Liver	-11.6402
▁locked	-11.6405
tage	-11.6407
▁passages	-11.6408
usepackage	-11.6408
▁presentations	-11.6409
▁jobs	-11.6409
▁Topics	-11.6409
▁regulations	-11.6409
▁Rupees	-11.6409
▁Styles	-11.6409
▁hymns	-11.6409
▁ankles	-11.6409
▁summers	-11.6409
▁vows	-11.6409
▁ornaments	-11.6409
▁Pha	-11.6411
equence	-11.6412
▁blinks	-11.6412
seat	-11.6413
aving	-11.6413
▁pin	-11.6416
▁believest	-11.6418
▁'+	-11.6419
Yat	-11.6424
5"	-11.6425
Mov	-11.6428
▁loaded	-11.643
▁perished	-11.6432
▁obeyed	-11.6432
esides	-11.6433
ache	-11.6436
................	-11.6436
▁Shrid	-11.6443
▁exalt	-11.6443
▁fai	-11.6446
▁realize	-11.6446
▁blu	-11.6453
debit	-11.6453
Users	-11.6454
pread	-11.6459
▁matte	-11.6462
ette	-11.6463
mari	-11.6467
▁codec	-11.6469
▁Inbox	-11.647
▁wipe	-11.647
▁VI	-11.648
▁20-	-11.6482
lined	-11.6483
▁promised	-11.6486
▁bree	-11.6489
▁dense	-11.6489
Vidya	-11.6491
▁diseased	-11.6491
stics	-11.6492
▁Ur	-11.6495
Samaya	-11.6504
nged	-11.6505
Deity	-11.6507
uphold	-11.651
▁opac	-11.6519
▁asura	-11.6522
mber	-11.6527
udha	-11.6529
abri	-11.653
▁however	-11.6531
▁spit	-11.6532
▁lifting	-11.6533
▁iterat	-11.6534
stotra	-11.6536
▁4.2	-11.6538
UserName	-11.6538
rand	-11.6539
▁openeth	-11.6545
▁objectives	-11.6552
▁feelings	-11.6552
TA	-11.6552
▁Sheets	-11.6552
▁Ragas	-11.6552
▁creatures	-11.6552
▁discussions	-11.6552
▁transforms	-11.6554
ssions	-11.6554
defi	-11.6562
fruit	-11.6563
adduser	-11.6564
▁repro	-11.6566
▁builded	-11.6568
▁Som	-11.6571
oney	-11.6571
hou	-11.6577
sius	-11.6586
▁inspect	-11.6588
Pingal	-11.6589
utton	-11.6589
Multi	-11.659
▁nest	-11.6594
iling	-11.6595
▁babe	-11.6596
▁Variables	-11.6598
▁Vasa	-11.6599
gave	-11.6601
▁decorate	-11.6603
▁Ink	-11.6605
...)	-11.6607
▁Men	-11.6608
austerity	-11.6609
cense	-11.6616
▁stoned	-11.6618
▁gathering	-11.662
--------------	-11.6622
Kaka	-11.6623
mai	-11.6624
▁Ap	-11.6633
▁earthen	-11.6638
▁mere	-11.6653
▁Debi	-11.6657
▁trusted	-11.6662
▁curd	-11.6675
▁mamm	-11.6676
only	-11.6676
क्र	-11.6679
▁freed	-11.6685
▁coats	-11.6694
▁swords	-11.6699
▁toolbars	-11.6699
▁prices	-11.6699
▁Sushru	-11.6701
▁designing	-11.6701
pre	-11.6703
▁brides	-11.6704
▁Ori	-11.6709
Kramah	-11.6716
▁Mang	-11.6717
▁designer	-11.6719
Ghee	-11.6722
sambha	-11.6732
▁intreat	-11.6736
inegar	-11.6745
▁heir	-11.6759
▁Sou	-11.6767
mihir	-11.679
-18	-11.6797
decoration	-11.6799
▁chitt	-11.6803
▁maker	-11.6804
Neti	-11.6805
▁planted	-11.6806
▁gener	-11.6808
▁Simh	-11.6811
▁reproaches	-11.6816
▁emer	-11.6816
▁papa	-11.6821
▁titled	-11.6822
▁Manu	-11.6824
▁Utta	-11.6829
mana	-11.6833
▁thereon	-11.6834
ervant	-11.6835
eO	-11.6838
123	-11.6842
bhava	-11.6845
str	-11.6848
reproducti	-11.6851
▁perfected	-11.6865
▁watched	-11.687
Opera	-11.6877
Time	-11.6885
▁Mal	-11.6892
Ar	-11.6894
▁Yaj	-11.691
▁earthly	-11.6921
89	-11.6933
▁sounded	-11.6936
iz	-11.6947
mina	-11.6956
Chanda	-11.6957
▁movie	-11.6959
▁cured	-11.696
vapu	-11.6972
▁poll	-11.6973
▁Sion	-11.6975
ound	-11.7003
05	-11.7033
▁marker	-11.7069
apura	-11.7083
chari	-11.7086
laksh	-11.7094
▁Ava	-11.7109
lternately	-11.7113
lite	-11.7125
asura	-11.7161
6.1	-11.7165
ighteen	-11.718
abul	-11.7184
him	-11.7197
jar	-11.7202
oni	-11.722
▁Ph	-11.7226
▁participat	-11.7242
▁prof	-11.7244
scientist	-11.7261
jit	-11.7263
seen	-11.7293
honesty	-11.7293
adhyay	-11.7336
▁prov	-11.7355
anam	-11.7356
imate	-11.7365
▁las	-11.7367
GRE	-11.7388
“./	-11.7403
▁creativ	-11.7425
Flo	-11.7434
▁Beth	-11.747
तु	-11.7498
▁sore	-11.7522
TION	-11.7557
▁rang	-11.7577
ags	-11.7589
Aug	-11.7642
augh	-11.7675
▁Frag	-11.7679
ummarize	-11.7695
anaka	-11.7733
▁lu	-11.7755
▁Bin	-11.7758
▁fourt	-11.7807
hira	-11.7819
▁liberat	-11.7838
त	-11.7865
ATH	-11.7866
armed	-11.7868
▁merg	-11.7898
rious	-11.7902
Bhava	-11.7909
▁Jaya	-11.7976
rice	-11.7984
istic	-11.8017
shka	-11.8039
(./	-11.8093
dolatr	-11.8095
rrived	-11.8113
▁ext	-11.8125
ashboard	-11.8169
▁Conver	-11.8176
icity	-11.819
▁soak	-11.8207
▁Vash	-11.8213
odine	-11.8213
Forward	-11.8233
▁expir	-11.8243
gati	-11.8249
▁valid	-11.8264
▁joyful	-11.8268
itial	-11.8298
▁rem	-11.8362
▁hearer	-11.8404
Share	-11.8441
Operation	-11.8443
Eka	-11.8456
abba	-11.8468
▁ke	-11.8469
Arya	-11.8478
kul	-11.8479
yadmin	-11.85
Out	-11.8506
ruta	-11.8599
▁neat	-11.8614
ijaya	-11.8626
ेन	-11.8694
▁swap	-11.8698
VE	-11.8698
▁experienc	-11.8702
conf	-11.8706
▁suck	-11.8717
Carry	-11.8728
portion	-11.8736
shed	-11.8767
Sandh	-11.8805
wal	-11.885
Sahasra	-11.8853
OK	-11.8854
sala	-11.8896
pies	-11.8932
grat	-11.8959
Maha	-11.9012
56	-11.9016
An	-11.9018
isc	-11.9024
ultural	-11.9065
▁overwrit	-11.9075
▁exalte	-11.9078
iber	-11.9099
[3	-11.9127
vin	-11.9179
▁dri	-11.9184
▁studie	-11.929
chan	-11.9304
▁authenticat	-11.9334
▁()	-11.9403
ntersection	-11.9464
Chooser	-11.9466
thane	-11.9566
PU	-11.9575
▁undertak	-11.9583
Va	-11.9669
pose	-11.9723
ormatting	-11.9742
lings	-11.9747
unset	-11.9796
rack	-11.9811
▁Brahm	-11.9818
▁strc	-11.9822
▁affi	-11.9901
Performed	-12.012
Selection	-12.0155
▁Brahmi	-12.0168
MY	-12.0193
▁faci	-12.0193
▁calculat	-12.0194
ntil	-12.0195
amant	-12.021
▁desp	-12.0213
▁bid	-12.028
▁det	-12.0293
▁brahm	-12.0353
▁Format	-12.0379
Unti	-12.0432
▁Reta	-12.0509
▁Cli	-12.0584
▁Chan	-12.06
5%	-12.0632
▁intersecti	-12.0681
▁oxid	-12.0718
dhana	-12.0725
▁sav	-12.073
▁likene	-12.0731
▁stra	-12.0761
▁consum	-12.0772
idi	-12.0787
ishva	-12.0795
▁authentic	-12.0828
▁kab	-12.0843
monthly	-12.0858
(5	-12.0892
▁abid	-12.0902
▁immun	-12.0924
▁replac	-12.0937
zon	-12.0944
raja	-12.0985
वा	-12.1032
▁renam	-12.1064
sung	-12.1097
initial	-12.1133
Mah	-12.1137
ference	-12.1176
put	-12.1198
▁Dwa	-12.1244
▁memoriz	-12.1261
▁Conso	-12.1379
▁compil	-12.1421
aratha	-12.149
▁catche	-12.1571
▁Tru	-12.1615
▁kno	-12.1617
jaya	-12.1703
admin	-12.177
▁exto	-12.185
▁10.00	-12.189
▁800	-12.1922
▁impu	-12.1944
▁chan	-12.1968
rin	-12.2036
▁Sign	-12.2218
Convers	-12.2361
▁realis	-12.239
sensitiv	-12.2467
value	-12.2486
vis	-12.2528
▁quot	-12.2598
idya	-12.2687
▁balanc	-12.2713
▁explor	-12.2743
ction	-12.2853
own	-12.2894
mation	-12.2971
ragment	-12.312
▁decreas	-12.3131
▁provid	-12.3221
iberation	-12.3257
ERTI	-12.3316
ुस	-12.3325
NC	-12.3388
ित	-12.341
mos	-12.3499
vati	-12.3521
▁reli	-12.3613
▁squ	-12.363
▁translat	-12.3657
▁creat	-12.3866
▁Defi	-12.3873
▁Vee	-12.3901
IIT	-12.401
▁VII	-12.4102
former	-12.4168
▁tex	-12.4168
bhav	-12.4185
iple	-12.4253
व	-12.4316
क्	-12.4319
zard	-12.4383
ruddh	-12.4439
checker	-12.4446
Avar	-12.4479
yp	-12.453
ollen	-12.4609
creases	-12.4643
merge	-12.4648
load	-12.4656
arning	-12.4672
09	-12.468
Courses	-12.4681
ttara	-12.472
▁reproach	-12.4747
▁Pun	-12.4789
ajana	-12.481
▁revi	-12.4945
▁vine	-12.495
EED	-12.4975
▁favo	-12.4978
▁reproduc	-12.4992
MENT	-12.5003
intense	-12.5008
commended	-12.5019
shi	-12.5022
▁scrib	-12.5033
▁swa	-12.5037
री	-12.5041
▁caus	-12.5052
▁Sushr	-12.5055
ugh	-12.506
▁Automatic	-12.5084
plays	-12.5087
bean	-12.5096
mmon	-12.5101
▁defor	-12.5106
▁pap	-12.511
11:	-12.515
doors	-12.5162
▁Sequ	-12.5165
▁austerit	-12.5196
▁10-1	-12.5197
hold	-12.5317
azin	-12.536
Vik	-12.5375
totra	-12.5384
rob	-12.5395
SANA	-12.5413
nima	-12.5418
kap	-12.5428
▁Cou	-12.5449
▁industr	-12.5461
▁Ayurved	-12.5465
Feb	-12.5489
▁Steph	-12.5526
Purus	-12.5532
▁rhythm	-12.5546
speci	-12.5555
/201	-12.5557
angles	-12.5561
package	-12.5571
mount	-12.558
ICI	-12.5595
▁Kak	-12.5607
atta	-12.5633
astin	-12.5647
ahasra	-12.5665
▁administrat	-12.5672
▁responsib	-12.5686
ariot	-12.5688
Prata	-12.5688
▁libera	-12.5711
product	-12.5711
teaming	-12.5721
ocate	-12.5729
arch	-12.5732
ferred	-12.5735
pplications	-12.5747
VIRA	-12.5749
25	-12.5754
▁stab	-12.5759
asten	-12.5765
plicate	-12.577
▁proto	-12.5772
▁Choos	-12.5775
▁Cyren	-12.5782
shwara	-12.5793
07	-12.5797
▁substitu	-12.5803
▁Krishn	-12.5813
ipping	-12.5825
▁Hanum	-12.5831
▁compu	-12.5833
bility	-12.5849
ealing	-12.5867
▁Ignor	-12.5875
cessor	-12.5876
▁excelle	-12.5879
▁griev	-12.5884
ratha	-12.589
String	-12.5891
axed	-12.5893
amb	-12.5898
ierarchy	-12.5901
figure	-12.5909
founded	-12.5912
▁temp	-12.5912
rban	-12.5913
easing	-12.5915
finger	-12.5918
▁revolv	-12.5922
ehind	-12.5928
▁brow	-12.5937
njaya	-12.5941
▁jag	-12.5944
Purush	-12.595
▁institut	-12.5964
▁resembl	-12.5964
plac	-12.5967
▁generat	-12.597
▁physi	-12.5972
▁alternat	-12.5977
NK	-12.5978
▁Madh	-12.5983
▁debug	-12.5983
idden	-12.5985
cript	-12.5985
elieve	-12.5986
akti	-12.5988
▁margin	-12.5992
▁persecution	-12.5992
▁principle	-12.5992
▁lakh	-12.5992
▁rope	-12.5992
▁monkey	-12.5993
▁burden	-12.5994
▁plane	-12.5995
ynchroniz	-12.5995
part	-12.5999
ertilizers	-12.5999
▁improv	-12.6001
▁Deva	-12.6002
nstitute	-12.6009
▁physician	-12.6011
▁spreadsheet	-12.6011
▁psalm	-12.6011
▁sweet	-12.6011
▁swara	-12.6016
▁accu	-12.6016
▁subchapter	-12.6019
▁Hydrogen	-12.6023
▁partaker	-12.6023
▁vibration	-12.6024
rudd	-12.6025
▁bottle	-12.6026
▁Bookmark	-12.6027
▁Shloka	-12.6027
audra	-12.603
point	-12.6032
▁vegetable	-12.6032
▁saint	-12.6033
▁Gentile	-12.6034
▁elbow	-12.6034
▁certificate	-12.6035
▁workshop	-12.6036
Poll	-12.6037
▁muscle	-12.6037
rian	-12.6039
▁magnif	-12.604
▁identifier	-12.6041
▁excellence	-12.6042
▁ensu	-12.6042
Shankara	-12.6044
▁hole	-12.6048
▁gap	-12.6051
▁prepar	-12.6051
check	-12.6053
umbleth	-12.6056
ients	-12.6057
ransparen	-12.6057
compose	-12.6058
onquer	-12.6058
▁uncorrupt	-12.606
▁disciplin	-12.606
Perform	-12.606
ecomposition	-12.6061
llergies	-12.6061
bulation	-12.6062
pening	-12.6063
▁sco	-12.6066
▁samb	-12.6069
posit	-12.607
game	-12.6073
ndicators	-12.6075
touch	-12.6076
Arjun	-12.6077
ttendance	-12.6079
▁explo	-12.6079
Stop	-12.608
recautions	-12.6081
▁narrat	-12.6081
Variables	-12.6082
Devas	-12.6082
accomplished	-12.6082
Suryanamaskara	-12.6082
boost	-12.6082
philosophy	-12.6082
Bhimsen	-12.6082
Exercise	-12.6082
June	-12.6082
Lotus	-12.6082
Nathanael	-12.6082
Sugriva	-12.6082
intelligence	-12.6082
kerchief	-12.6082
perception	-12.6082
studentDetail	-12.6082
कृष्ण	-12.6082
digit	-12.6082
Girl	-12.6083
2.4.7	-12.6083
cost	-12.6083
April	-12.6083
djust	-12.6084
swear	-12.6084
voluntary	-12.6084
doves	-12.6084
Local	-12.6084
Dharana	-12.6085
MES	-12.6085
प	-12.6086
ctivities	-12.6086
nigh	-12.6086
optimiz	-12.6086
strname	-12.6087
ttempt	-12.6087
Apart	-12.6088
▁Purchas	-12.6088
Gmail	-12.6089
CPU	-12.6089
Kama	-12.609
Sattva	-12.609
passage	-12.609
memorize	-12.6091
bove	-12.6092
Recent	-12.6092
lready	-12.6092
burn	-12.6092
Vira	-12.6092
synchron	-12.6092
ajna	-12.6092
Dasharatha	-12.6092
Instead	-12.6092
KOHA	-12.6092
Sunday	-12.6092
Timotheus	-12.6092
htdocs	-12.6092
intestine	-12.6092
planes	-12.6092
shadow	-12.6092
Gunas	-12.6092
Root	-12.6092
surroundings	-12.6092
Kriya	-12.6092
Record	-12.6092
digestion	-12.6092
Trash	-12.6093
Copy	-12.6093
Block	-12.6093
word	-12.6093
Image	-12.6093
Salut	-12.6093
swaras	-12.6093
float	-12.6093
Exhaling	-12.6093
Milk	-12.6093
metals	-12.6093
chamber	-12.6093
▁Maric	-12.6093
factor	-12.6093
Brahmany	-12.6094
Enhanc	-12.6094
devo	-12.6097
Complete	-12.6097
Ramu	-12.6097
afraid	-12.6097
imbalance	-12.6097
krishna	-12.6097
Supta	-12.6097
enumerate	-12.6097
Mac	-12.6097
recall	-12.6097
issues	-12.6097
Fire	-12.6097
happened	-12.6097
Issue	-12.6098
blessing	-12.6098
ignorance	-12.6098
Ananta	-12.6098
spring	-12.6098
cleansing	-12.6099
graphic	-12.6099
decrease	-12.6099
Bharat	-12.6099
crop	-12.6099
cowshed	-12.6099
Children	-12.6099
Label	-12.6099
Philip	-12.6099
Raju	-12.6099
fungi	-12.6099
colon	-12.6099
manifested	-12.6099
submit	-12.61
geeta	-12.61
differences	-12.61
weep	-12.61
calculate	-12.61
Human	-12.61
resist	-12.61
Arrow	-12.61
Follow	-12.61
percentage	-12.61
photosynthesis	-12.61
mudra	-12.6101
Learn	-12.6101
Ltd	-12.6101
calling	-12.6101
Bookmarks	-12.6101
Green	-12.6101
phone	-12.6101
Food	-12.6101
Menu	-12.6101
closed	-12.6101
construct	-12.6101
status	-12.6101
Guru	-12.6102
present	-12.6102
descend	-12.6102
branches	-12.6102
Priya	-12.6102
Grace	-12.6102
Cow	-12.6102
nerv	-12.6102
profit	-12.6102
specified	-12.6102
smell	-12.6103
fellow	-12.6103
simpl	-12.6103
sutra	-12.6103
peacock	-12.6103
Calculus	-12.6103
pollution	-12.6103
inhale	-12.6103
Assignment	-12.6103
bonds	-12.6103
lotus	-12.6103
Desi	-12.6104
Admin	-12.6104
Veda	-12.6104
Vyayama	-12.6104
directly	-12.6104
standard	-12.6104
Master	-12.6104
protein	-12.6104
specific	-12.6104
Since	-12.6104
▁colle	-12.6104
directories	-12.6104
Company	-12.6104
Compile	-12.6104
Google	-12.6104
pixel	-12.6104
temperature	-12.6104
Class	-12.6105
environment	-12.6105
Dharma	-12.6105
Insert	-12.6105
convert	-12.6105
Main	-12.6105
generate	-12.6105
label	-12.6105
Suppose	-12.6105
fulfilled	-12.6105
Finish	-12.6105
easily	-12.6105
attach	-12.6105
category	-12.6105
Similarly	-12.6105
built	-12.6105
shoulder	-12.6105
carbon	-12.6105
।	-12.6106
Á	-12.6192
<	-12.6192
â	-12.6192
è	-12.6192
इ	-12.6192
छ	-12.6192
ट	-12.6192
ऽ	-12.6192
~	-12.6192
ध	-12.6192
ञ	-13.9671
उ	-13.9672
फ	-13.9673
ब	-13.9674
आ	-13.9675
ू	-13.9676
थ	-13.9677
ग	-13.9678
श	-13.9679
अ	-13.968
ृ	-13.9681
J	-13.9682
